Ġ a
Ã ¡
Ã ©
Ġ t
Ġ ,
e r
i n
h e
e n
Ġ .
e l
Ġ s
o n
a n
a t
Ġ m
o r
e t
e s
Ġt he
a l
Ġ f
e d
i s
Ġ k
a r
Ã ¶
Ġ h
Ã ³
Ġ b
g y
Å ĳ
Ã© s
Ġ c
Ġ o
Ġ w
i t
a s
Ġ p
Ġ v
r e
o l
Ġ A
Ġ n
Ġ l
Ġa n
Ġ 1
Ġ in
e k
r o
Ġ e
a k
Ġ d
Ġo f
Ã Ń
s z
in g
i l
o t
Ġan d
Ġs z
e g
Ã¡ l
e m
i c
Ã ¼
Ġt o
Ġ S
a d
Ã¡ n
u s
o s
Ã¡ r
Ġa z
Ã¡ s
o m
Ġ Ã©s
Ġ T
u t
Ġ r
Ġ M
en t
i k
i on
u r
a m
o k
Ġ el
b an
Ã© n
u l
Ġ B
et t
u n
i g
Ġ C
e z
l y
Ã¼ l
Ã¡ t
b en
Ġ is
Ġ "
Ã© g
i d
i r
a p
Ġ 2
Ġ (
Ġt h
Ã º
e c
Ġ1 9
Ġ )
a c
Ġ g
ÃŃ t
Ġ H
Ġa l
Ġk Ã¶
Ġ E
ot t
i v
a g
Ã© r
Ġ I
t er
Ġ P
Ġ @
i m
Ġ j
Ġe gy
b b
Ã¡ g
o z
Ġm eg
Ġw as
Ġ re
â Ģ
Ġf or
e v
Ġ L
Ġ F
Ã© t
Å ±
Ġ K
Ġ R
Ġ on
l e
z t
Ġ D
Ã© k
Ġ '
Ġ N
t t
Ġ G
Ġ âĢ
r a
0 0
Ã© l
a gy
Ġ@ -
Ġ@- @
Ġ he
es t
er s
u m
Ġ J
a i
Ġs t
in t
s t
ĠT he
Ġb e
ar t
o w
o d
a j
Ã¡ k
Ġa s
a y
Ã© p
it h
e p
t h
c h
ol t
j a
en d
s Ã©g
Ġf el
Ġ W
a v
Ã©s z
b er
Ġw h
Ġw ith
u d
Ġc s
at ion
an d
ro m
Ġth at
Ã³ l
i a
u g
t a
Ã© v
il l
o g
ĠkÃ¶ z
er e
o v
a b
c e
el l
Ã¡n y
Ġh o
Ġb y
on t
r i
el y
Ġ it
Ġ O
Ã¡l l
Ġa m
c s
Ã¶ r
Ã¡ z
Ġv olt
o p
Ġ V
i z
a z
is t
Ã¡ m
Ã©n y
Ġho gy
c i
Ġsz er
Åĳ l
or t
Ġp ro
al l
Ġd e
es s
Ġn em
i f
u p
Ġ or
s Ã¡g
Ġl e
Ã¡l t
n y
Ġh is
t e
n ak
n i
c t
Ġa t
Ġ1 8
a in
ĠâĢ ĵ
ar d
un d
Ġf rom
n ek
Ã¶ tt
i p
Ġ :
Ġ U
Ã¡ ban
r an
Ġ 3
Ġ2 0
Ġc om
ic h
Ã¡ b
ec t
e w
at t
on g
in d
Ġ2 00
ig h
ĠI n
Ġc on
ĠA z
Ã¶ n
Ġh ad
an t
ul t
i es
Ã¶ l
ro s
e gy
Ġa d
Ġk i
f or
u b
Ġw ere
q u
Ġa k
m er
e ar
Ġ ut
Ġp l
Ġn y
Ġt er
Ġ gy
Ġe x
sz er
Ġ -
Ġ Ã©v
Ġ Ãº
an g
at e
s Åĳ
Ã©r t
Ã¡l y
on d
h at
l en
s e
p l
Ã¼l t
Ġc h
as t
ĠS z
v e
he t
ÃŃ r
ĠS t
v er
e j
Ġ20 1
it y
Ġs h
o c
at ed
Ã© ben
ug h
o ut
Ã¶ s
iv e
ac k
Ġl eg
Ġ Ã¡ll
u k
os t
am e
o ur
Ġs p
Ġh as
Ġ 4
Ġ ;
Ã¶ k
r it
ol l
v et
sz Ã¡g
Ġa r
i an
em ber
Ġe z
Ã¼l et
sz t
es z
al m
Ã¡ v
Ã¶ z
Ġj el
ĠC h
us t
Ġel Åĳ
Ġ 5
Ġ Ã
Ġwh ich
Ġk er
k or
Ġ id
Ġ er
ol y
u c
Ã©n t
h er
in e
Ġe m
Ġsz Ã¡m
Ġt el
Ġa re
Ġhe ly
or d
Ã¡ j
al ly
Ã¡r a
Ġn ot
Ġp r
Ã³ k
Åĳ k
Ġn agy
Ġ y
ez et
igh t
agy ar
es zt
as s
ett e
Ã¶ bb
Ġ z
m ent
Ġv is
Ã¡ ros
ar y
Ġ un
er t
Ġh er
Ġin t
ĠA n
Ġh at
Ġv Ã©g
ĠA l
ÃŃt ott
o ul
o un
Ġs e
f f
o us
Ġ en
Ġv al
ÃŃ n
s o
or e
il m
av e
b a
z et
ek et
k ez
l d
Ġt art
Ã¡s a
on y
Ã¡n ak
Ã© m
an y
Ġr end
Ġ19 9
Ġel sÅĳ
p r
Ã³ d
or k
aj d
Ġ 6
Ġm Ã¡s
is h
ÃŃ v
Ġn ev
Ġk or
Ġp er
Ġin c
Ã¼ k
e i
r y
h oz
Ġ Ã©l
oul d
Ġb ut
f ter
p p
Ġf ir
g e
th er
Ġm ag
r u
ar k
Ġm Ã¡r
b e
Ġam ely
Ġt Ã¶bb
Ã© re
el t
he n
Ġ ro
i re
ol d
Ġt Ã¶r
or szÃ¡g
id e
ig n
u re
ion s
Ġa b
Ġr Ã©sz
n e
Ġf Åĳ
as z
Ġm Å±
ol g
Ã©s e
ĠT h
w o
Ġm ind
ĠkÃ¶z Ã¶tt
p er
Ġk ap
Ġc l
m Å±
Ġfir st
Ã©n ek
at er
Ġut Ã¡n
i b
u e
ĠH e
Ġp art
Ġ Ã¡t
Ġthe ir
Ġit s
Åĳ s
Ġ 7
m an
Ã© d
un k
o b
ic al
Ġt an
ag e
om e
Ġ1 7
Ġr es
Ġal so
ok at
Ã¶ v
c c
Ġ Ã©r
Ġm int
Ġv agy
he d
Ġf ilm
en ce
en s
ĠÃº j
i al
al Ã¡l
im e
Ã¡ d
Ġ 8
ĠâĢ Ŀ
Ġr el
Ġc ont
Ġk Ã©t
z Åĳ
k el
e b
ev er
k ed
Ġ us
ĠâĢ ŀ
ac h
or s
i e
Ã© ly
ik us
el m
ow n
et i
Ġ Y
Ã¶s sz
Ġm ely
Ġb ec
ep t
Ġs er
il e
Ġ Ã©p
Ġon e
Ã¡ sz
Ġre c
j e
Ġh ave
Ġa g
Ã¡v al
Ġk Ã¼l
v a
as zt
p ort
il Ã¡g
ci Ã³
Ġk ez
Ġm ajd
Ã¡ bb
Ġel len
k oz
Ġ Z
Ġjel ent
Ġ@ .
Ġ@. @
Ġl ett
Ġ 9
Ġc ÃŃ
Ġal l
Ġs or
en g
ic e
ĠM ar
Ġt wo
ĠE z
Ã¡s t
Ġin d
Ġ1 5
en y
Ã¡r t
Ġwh o
n a
Ġd is
Ġt e
Ġcs ak
ĠkÃ¶ r
ac t
ur ing
it ion
Ġ19 8
en c
l and
ĠI t
Ġ im
T he
r ic
Ġbe en
o ugh
er n
Ġ Ã¶ssz
Ġm i
b Ã³l
hat Ã³
el Åĳ
Ġs c
ĠkÃ¶ vet
h Ã¡z
Ġ@ ,
Ġ@, @
Ġt r
o h
Ġ es
ur n
ĠA r
Ġth is
Ġm agyar
Ġb et
Ġal ap
k al
ĠU n
Ġ1 6
Ġk Ã©p
Ġy ear
ik ai
l ud
ac e
ĠE gy
u ch
o und
Ã³ t
Ġaz on
Ã¶l d
Ġof f
l i
o bb
n Ã¡l
Ġd es
Ġa tt
Ġb el
Ġ up
Ġa fter
âĢ ĵ
am p
er ed
Ġo ut
or y
Ã¡z ad
ad e
Ġ1 0
Ġ19 4
Ġpl ay
Ġo ver
Ġcom p
Ġ19 7
Ġd ec
n ok
he z
ation s
Ġa pp
on e
o sz
Ġj Ã¡t
Ġthe y
Ġf og
Ġm Ã©g
ir Ã¡ly
m Ã©ny
ÃŃt ett
o y
Ã¼l Ã©s
Ġp ed
Ã¡r s
ÃŃt Ã¡s
re e
1 9
oz at
Ġe v
is s
ev el
Ġf oly
i Ã³
a w
Ġ1 2
Ġkez d
ĠE n
Åĳ bb
is zt
ï ¿
ï¿ ½
Ã© z
Ã©v el
e as
l Ã³
il y
om Ã¡ny
Ġin ter
es en
Ġw ould
ent s
Ġinc lud
Ġv Ã¡lt
b Åĳl
it e
Ġped ig
Ġvis sz
on s
Ġ19 6
00 0
ÃŃ z
Ġv an
k Ã©nt
Ġ Ã¼
Ã¡b or
Ġh im
Ġszer int
Ġt ime
Ġp re
w ard
Ġv ilÃ¡g
Ġint o
for m
l et
Ġf e
f t
b um
Ġt ud
het Åĳ
Ġtel ep
l es
t at
Ġk is
Ġ Åĳ
w n
Ġa h
t ak
k Ã¶
Ġs he
ez t
m Ã¡ny
Ã©s t
z s
ut at
p t
at es
r ed
Ġ ÃŃr
w e
it ed
Ġcs ap
ran c
Ġal k
al om
Ġsz Ã¡zad
Ġl ak
Ġf i
Ġn e
j Ã¡k
er m
oun t
an s
at h
Ġo ther
Ġsz em
e bb
Ã©s Åĳbb
Ã¡lt al
al t
o od
Ġfor m
j el
f er
ic s
Ġ ÃŃ
or n
k Ã¶z
ĠE l
Ġcom m
A z
an ce
ro ugh
Ġm ar
a bb
Ġv Ã¡ros
ell ett
Ġw e
Ã¡l is
Ġ1 4
Åĳ d
Ġ19 5
i um
il d
ic k
Ġv Ã¡l
us e
Ġ1 3
ro d
i ed
o u
t on
Ġegy ik
Ġm ore
t Ã©n
Ġh ar
he s
Ġal bum
ub l
Ġw ork
s on
ro p
u szt
Ġan y
Ġszer ep
el v
ĠN ew
Ġ ill
Ġre g
r am
ct ion
Ġm in
ing s
en n
v el
a il
Ġre m
at a
as Ã¡g
ez ett
k ol
Ġn ew
r es
Ġn Ã©
j Ã¡t
Ġf in
Ġf l
Ġter Ã¼let
Ã³ n
Ġs o
Ġp ol
r al
i o
Ġm ost
Ġs ec
Ġter m
Ã¡s ok
l eg
t Åĳl
ic t
i ai
w ay
e y
Ġk irÃ¡ly
Ġk Ã©sz
Ġ Ã¡ltal
os e
r on
oz ott
Ġw hen
ĠÃŃ gy
l t
ab le
Ġ ig
Ġpro d
Ã¶ t
Ġcon s
ot h
a h
oc k
ĠA mer
Ġazon ban
or th
sz ak
Ġ1 1
as on
Ġc ent
v i
Ġer ed
Ġ19 3
Ġt alÃ¡l
an u
an i
Ã³ g
Ġv ers
ak e
Ġv ezet
ta in
an c
Ġf ej
ĠL e
Ġid Åĳ
ter n
re at
om m
os s
et len
Ġ 000
Ġ und
Ġval am
Ã©m et
ĠkÃ¼l Ã¶n
Ġa cc
ez Åĳ
Ã¡b a
Ġak i
Ġo k
an n
en ek
Ã¡r m
f i
Åĳ z
Ġt ag
it t
p en
Ġd uring
he ly
Ġ i
j Ã¡n
ez te
al s
v ed
is z
Ġag ain
Ã¶l t
ĠA s
Ġst r
Ġ Ã©rt
Ġl Ã¡t
ek kel
Ġval Ã³
Ġk Ã©sÅĳbb
Ã¡ ciÃ³
ez Ã©s
Ġthe m
ro und
ar e
Ġ Ã³
h ip
Ġon ly
at al
iv el
we en
ri b
Ġm unk
Ġth an
ranc ia
ik or
Ġtelep Ã¼lÃ©s
ar i
Ġal ak
od ik
Ġr et
Ġ ir
Ġt em
Ġhas z
out h
j t
Ġsz ÃŃn
Ġc o
Ġah ol
t Ã¡k
Ġs up
ec h
ation al
og at
Ã¼ n
Ã© ter
oll ow
Ġe p
Ã¼ tt
en er
em ent
Ġb u
Ġp ar
ept ember
Ġp o
Ġcsap at
Ã³ p
Ġab out
ĠM agyar
Ã¡ ro
Ã¡ rom
Ġg ame
Ġal att
a id
el i
Ġ19 2
Ġl ater
for e
al Ã¡d
Ġl Ã©t
Ġo ld
or m
ĠI I
Ġch ar
Ġbet ween
ÃŃt Ã©s
ĠS p
Ġker Ã¼lt
Ġs ong
Ġm ill
Ġn ap
t Ã³
al k
Ġ qu
Ġk n
Ġe ar
Ã¡bor Ãº
Ġth ree
os sz
Ġs em
Ġb o
Ġs ur
ĠtÃ¶r tÃ©n
on al
om b
ï¿½ ï¿½
gy an
ik e
ĠÃ ģ
Ġ19 1
os an
Ġa ct
Ġ end
g at
or ld
a int
ĠS h
Ġs ik
p h
Ġth rough
et e
Ġb eg
Ã¡s i
f el
Ġn um
Ã©s zt
am es
ĠcÃŃ mÅ±
p ont
Ġwh ile
Ã³ z
Ġaz t
ĠAmer ic
Ġk at
Ġs ok
Ġrel eas
Ã¡ ja
ĠB r
Åĳ r
Ã¡s Ã¡t
Ġb ar
Ġegy Ã¼tt
ul l
aj nok
ĠJ oh
Ã¶n t
Ġ 0
n Ã¶k
Ġmi att
Ġsp ec
t ek
Ġad d
Ġm od
I n
ter s
r Ã³l
Ġtel j
ĠC l
er y
ul ar
Ġde f
ov ember
d er
Ġs ub
Ġb as
in k
el et
Ġe g
Ġ ur
Ġj Ãº
Ġd o
ĠÃ©v ek
pr il
Ġd ay
c ess
Ã¶ g
Ġb l
ir t
Ġwh ere
Ġsec ond
Ġis mer
Ġem ber
Ġor szÃ¡g
at ing
Ġam i
Ġh igh
Ġg r
Ġre p
Ġmind en
Ġcs alÃ¡d
at i
Ã¡r i
Ġm ade
a ir
ut Ã¡n
iv ed
t Ã³l
r end
t en
i x
Ġ u
es sÃ©g
Ġsz ak
az d
Ã©l d
Ġa ut
in s
Ġm Ã©r
Ġf our
Ġp ubl
ĠO n
v Ã¡bb
z ett
Ġm egy
Ġto vÃ¡bb
e x
Ġrec ord
v al
s or
l al
Ġs ome
el em
Ġm et
Ġb i
Ġle het
is ion
Ġp e
o ol
Ã©t el
Ġt Ã¡m
ĠÃ ī
Ġm ov
Ġse ason
Ġs uch
r en
f og
Ġbe fore
is hed
Ġo l
Ġf ollow
alm az
Ġ /
l l
Ġund er
et em
al e
Ã¡b Ã³l
an k
ĠjÃ¡t Ã©k
Ġm on
r ess
ĠmÃ¡s odik
Ġth ere
Ġf al
ur y
Ġh aj
Ġk m
Ġh al
i er
szer Å±
Ġvalam int
ect ed
ÃŃtott a
kÃ¶ d
Ġw rit
ott a
ĠÃ©l et
t el
Ġm us
Ġn Ã©p
Ã³ i
v Ã¡n
if ic
t et
ĠJoh n
Ġte am
Ġl ar
Ġg ro
Ġm en
o gy
Ġs y
r Åĳl
s el
v ezet
ow ever
u sz
Ġm e
for d
Ġ ent
k i
is e
ar s
Ġc an
n Åĳ
Ġh Ã¡rom
Ġyear s
s p
od e
v Ã©sz
ĠG y
ĠTh is
Ġp Ã©ld
ĠB l
Ġsz ab
ad t
ĠB rit
Ġc all
em Ã©ny
a f
le y
ĠkÃ¶vet kez
Ġt ra
Ġ2 5
ĠA m
Ġn Ã©met
Ġem l
Ġus ed
o ber
cs ol
l an
orszÃ¡g ban
ĠC s
Ġsz int
f l
sz Ã¶r
a x
ain ak
Ġ3 0
at ok
Ã³ m
Ġin v
Ġs eg
u al
el d
Ġep is
ett Ã©k
Ġbe ing
Ã³ ja
ĠA t
iz ed
Ġthe n
Ġl oc
Ġill et
eb ru
Ġm an
in ek
ect ion
ĠkÃ¶z sÃ©g
Ġo ly
Ġh oz
Ġm at
j Ã¡r
ow er
e f
om p
ir d
Ġny elv
ĠcÃŃ m
Ã¡ cs
Ġnem zet
k Ã©p
Ġsh ow
in a
Ġpol it
Ãº l
Ġm ellett
Ġeg Ã©sz
Ġ ed
en i
Ġn o
Ġa p
in ce
Ġagain st
Ġsik er
Ġv on
in n
ot her
p ed
ĠIn d
v is
s al
ĠB ud
as h
ĠA d
Ġd ep
ĠO r
Ġ X
s Ã³
Ġnum ber
Ġn Ã©v
Ġgy ak
ĠUn ited
at her
b l
Ãº t
Ġpr es
v Ã¡ny
ol Ã³g
Ġbec ame
Ġd r
c es
Ġchar ac
Ġle ad
iv ers
Ġas s
Ġh ang
e h
ĠC ar
Ã³ s
ol e
Ġt est
a use
Ã¶ vet
Ġfel t
Ġh Ã¡z
ur g
ĠâĢ Ķ
it s
Ġcon c
in es
Ġa ir
ever al
ĠS c
c k
Ġ201 5
ĠszÃ¡m a
Ġs ing
al ak
evel op
z el
ur Ã³p
g g
Ġ est
ap est
Ġu gyan
iv er
v Ã©ny
ran s
ny v
Ġinclud ing
Ġw ell
ad Ã¡s
Ġf ound
Ġc ap
Ġk on
iv al
os sÃ¡g
t il
ĠS he
ezt Ã©k
sz ÃŃn
ĠAn d
Ġoly an
ĠU S
Ġsor Ã¡n
ur es
Ġb oth
Ġak kor
ĠâĢ Ļ
ott Ã¡k
Ã¡ p
Ã©s i
Ġb ack
Ġsh ip
Ġillet ve
Ġp op
Ġser ies
et s
if e
Ã¡ hoz
ĠI s
ĠelÅĳ tt
ĠÃº gy
Ġb r
Ġo per
Ġl ab
ĠjÃ¡t sz
ut e
ig in
ros s
Ġd id
Åĳ t
Ġd olg
Ġker eszt
g el
Ġs aj
Ġb iz
oz Ã³
Ġg o
Ġapp ear
ÃŃ g
Ġig az
Ġex t
Ġc re
ov ern
Ġl ong
Ġmeg jel
Ġo szt
er v
a u
an e
ĠE d
es Ã©g
sÃ©g e
Ġc ar
Ġa c
a it
in ed
Ã©s Ã©t
Ġh ossz
Ġvolt ak
Ġhasz nÃ¡l
h y
Ġf Ã¶ld
ĠEn g
iz s
ÃŃtott Ã¡k
op ort
ĠE r
o szt
ar m
Ġk iv
Ġj Ã¡r
Ġ19 0
ĠÃ©s z
Ġmeg t
g ed
Ġd ire
is ta
Ġd evelop
Ġ Q
ek t
Ã¼ gg
Ġd if
ĠF or
Ġepis ode
Ġs l
Åĳ en
Ġin st
it ies
Ġcs at
Ġkap csol
Ã¡n d
ej Ã©n
ĠkÃ¶r Ã¼l
Ġcont r
Ġs aid
Ġr Ã©g
pl om
ĠP r
Ġjel en
is ed
Ġir Ã¡ny
Ġb ro
Ġst ud
ĠS ch
Ġm any
sÃ©g es
c ed
Ġc ould
as e
Ã©s ek
Ġp os
ĠAmeric an
Ġsz Ã¼let
Ġt it
Ġre ce
Ġ2 1
Ġam ikor
Ġcont in
Ġo b
Ġes et
Ġg ener
Ġv ol
is m
Ġpro g
Ã¡ ul
l at
Ġrend szer
Ġs everal
ÃŃt Ã³
th ough
ĠA ust
Ġ18 9
Ġ ]
ĠvÃ¡l aszt
Ġdes c
Ġtelj es
ĠW ar
Ġf r
u ed
Ġar t
Ġvis z
em b
Å± n
ĠB ar
Ġk ell
Ġ2 4
ĠE m
Ġcom pl
f ul
Ġt Ã¡rs
Ã¶ m
Ġz en
Ã³ r
k Ã¼l
aj or
Ġv i
Ġs m
Ġ [
i am
Ġkn own
g er
Ġs uc
Ġpro v
em ez
et h
Ġsz olg
Ã¡n os
ĠÃ¡ll am
u ally
ĠW h
r ist
ĠC on
ĠF er
k er
ĠY ork
Ġbeg an
v Ã©d
id ent
el s
Ġor igin
im es
ĠN em
Ġrem ain
Ġret urn
ĠL ak
Ġd Ã©l
ĠF rancia
Ġ2 2
Ġm ent
c eg
os a
Ġk it
ĠA ug
e an
r is
Ġprod uc
Ġn ear
Ġ Ã¶n
eng er
Ġdes ign
Ãº g
ĠM ay
op le
ok ban
Ġp Ã¡ly
m y
ĠH ar
j ect
Ġs ign
n agy
ak ing
ĠmÅ± kÃ¶d
Ġe ff
o ot
z i
Ã¼l Åĳ
at ive
in c
ĠB e
ĠJ ul
ĠN agy
us s
Ġr un
Ġel v
Ġ201 0
Ã¡n t
Åĳk et
ig et
un e
ĠG er
Ġmus ic
Ã© b
Å± r
x t
Ġd Ã¶nt
Ġun til
id ed
Ġfej l
st em
Ġo wn
Ġear ly
Ġ Ã¡
Ġ18 8
Ġfe at
anu Ã¡r
Ġcall ed
Ġs im
Ġe zt
Ġreleas ed
zÅĳ d
Ġd ist
ĠrÃ©sz e
Ġw ar
ont os
Ãº z
Ġit t
Ġvissz a
Ġp ass
h aj
Ġm oz
Ġt rans
Ġj ell
Ġn Åĳ
ur ed
Ġl Ã©p
ÃŃ j
ĠkÃ¶z Ã©p
ĠkÃ¶ lt
Ã³ b
Ã¡s Ã¡ra
ĠnÃ© gy
Ġm ed
Ġ2 3
irt ok
Ġ1 00
ik a
Ġm il
v ers
Ġny ug
Ã©sz et
Ġd own
2 0
Ġt iszt
Ġk il
ĠlÃ©t re
ist s
ĠA fter
Ġex p
Ġj anuÃ¡r
Ġak ik
Ġsaj Ã¡t
i ev
Ġh a
il t
Ġan g
Ġ if
Ġ200 8
Ġres p
Ġ $
l ed
Ġ201 1
Ġc rit
Ġf am
sÃ©g et
o x
Åĳ je
r ap
Ġfor d
Ġfog lal
ĠW ill
Ġ Â
Ġmill ion
Ġr Ã©szt
Ġvers eny
Ġal ong
ĠBud apest
Ġdire ct
z a
ĠBrit ish
Ġmeg sz
ÃŃt ette
er ikai
ci al
os ed
Ġv Ã¡r
s er
Ġj og
al es
h am
Ġo pen
vi ew
ÃŃv Ã¼l
Ġmag as
ang e
Ġegy es
k a
Ġc oll
o ok
d ar
Ġh Ã¡borÃº
m Ã©r
u es
Ġtag ja
Ġoff ic
Ġgro up
Ġ200 9
ĠÃ¶ssz e
Ã¡rm az
Ġc ount
Ġid e
Ġm Ã³d
tÃ³ ber
ut ion
Ġthe se
Ġkap ott
Ġc Ã©l
Ã¡j us
Ġp ort
Ġ Ã¶t
Ġl and
v Ã¡ros
ĠÃ©sz ak
g an
ci us
Ġtan ul
ĠÃº t
es ter
Ã¡s sal
Ġg overn
Ġm ay
Ġ18 7
ĠAug ust
he l
f Ã¶ld
ĠP h
ov e
Ġt ri
Ġ200 7
ĠtalÃ¡l hatÃ³
Ġp ers
Ġh agy
or v
Ġtem plom
Ġkat on
ac ed
v en
Ġz s
ĠG e
Ġ18 6
end ed
n ev
ĠszÃ¡m Ã¡ra
h a
Ġpo int
Ġd al
Ġt urn
Ġez Ã©rt
y p
Ġel m
. .
ĠJ ap
Ġh alÃ¡l
Ġhas on
am ed
ent ly
Ġhar m
i ally
Ġs ch
Ġn Ã¶v
ek kor
Ġsuc cess
ĠW orld
azd asÃ¡g
Ġg u
Ġ rom
Ġv Ã©d
ek ben
g est
ĠÃ©r d
Ġk ar
Ġt al
sz Ã¡m
gy el
un g
Ġt Ã©r
Ġdis c
g et
ĠF ran
en e
Ġatt ack
Ġst art
ĠM c
Ġv ÃŃz
Ġmegy Ã©ben
es e
ĠG r
ĠS eptember
Ġs ame
ĠkÃ¶z el
r el
ĠP l
eg e
ech n
z Ã©s
Ġbec ause
Ġ2 8
is kol
ĠF l
Ġmeg h
l er
Ġb att
Ġpe ople
ĠSt ates
is mer
Ġprod u
Ġm ert
ne y
Ġm ain
ajnok sÃ¡g
ward s
ĠkÃ¼lÃ¶n b
Ġh iv
uszt us
elm i
ib le
Ġ2 6
b ben
Ġl ike
os ainak
Ġny om
ir ed
n er
h Ã¡ny
Ġcharac ter
ni us
ĠG u
Ġm Ã¡jus
at ot
ĠpÃ©ld Ã¡ul
Ġl evel
le x
m ed
Ġa round
l us
Ġkor mÃ¡ny
Ġok tÃ³ber
Ġv ide
Ġth ough
ra ft
ĠD e
ily en
Ġres ult
Ġ2 7
j Ã¡ban
Ġto ok
p or
ĠkÃ¶z Ã¼l
Ġfor r
Ã¡r Ã³l
Ġ Ã¡r
alm i
Ġhat Ã¡ros
k y
ĠO ct
av ing
Ġo cc
ĠAust ral
Ġpro t
Ġim p
ĠS aint
Ġprog ram
Ġa ug
Ġseg ÃŃt
Ġsor ozat
Ġp rom
Ġ. ..
ĠD ec
Ġsz eptember
Ġf Ã©l
Ġn orth
ad Ã³
Ġser v
ĠI st
Ġ200 6
n Ã©l
Ġam erikai
Ġb irtok
I I
li us
Ġh ist
Ġbi zt
ĠLak osainak
Ġsup port
Ã¼ r
il le
Ġs ix
Ġcon st
Ġszem Ã©ly
m us
Ġwe ek
Ġold al
1 8
Ġel t
r at
Ġsz Ã¡rmaz
Ġk l
Ã¶r Ã¶k
re g
ur s
k od
ru ct
us ed
Ġb and
Ġf Ã©r
ĠszÃ¼let ett
e it
o cs
or i
Ã¼ gy
Ġus e
is Ã©g
ott ak
ol og
Ġter v
ĠC an
ÃŃtett Ã©k
Ġan t
Ġrece ived
pril is
Ġl ist
ĠelÅĳ szÃ¶r
ĠmÃ¡r cius
Ġ201 2
iv es
Ġdesc rib
kÃ¶z i
k Åĳz
ap p
ĠkÃ©sz Ã¼lt
Ġsy stem
ek en
n al
dar Ãºg
Ġhe ad
Ġj Ã³
ĠkÃ¶zsÃ©g ekkel
am ent
Ġcons id
et er
Ã³ f
ĠSz ent
ĠH owever
Ġpro p
ĠK ing
Ġde b
Ġcl ass
Ġd em
ĠH er
Ġfollow ing
Ã¡j Ã¡t
Ãº r
Ġj ut
Ġf Ã¼gg
ĠOct ober
ok kal
Ġalk ot
ĠN orth
Ġaug usztus
our t
Ġe ver
v ent
es Ã¼lt
il ity
Ġst ate
Ġb esz
Ġan n
Ġs ug
Ġbu ild
Ġr est
Ġv ett
Ġszab ad
Ġf ut
Ġe ach
Ġh Ã¡t
ĠnÃ©v en
ĠR e
Ġm ivel
Ġhoz z
Ġf ive
ion al
at ely
Ġis kol
ĠÃ©p ÃŃt
ĠThe y
ĠFrancia orszÃ¡gban
s h
b urg
Ġsm all
iv ing
ĠjÃº nius
Ġcs oport
Ġm ajor
k Ã©sz
or ed
ĠP ro
Ġare a
Ġher ceg
ĠK Ã¶z
Ġdec ember
ĠN ovember
Ġn ovember
ond on
Ġw ill
Ġhe l
l ak
Ġpart ic
Ġo tt
kor i
Ġam it
m el
Ã©k eny
Ġt ek
Ã© hez
j uk
ber t
Ġc a
Ġbiz ony
Ġc ol
ĠL a
ĠkÃ¶ zt
Ġp ont
Ġpubl ic
Ġre port
ur ch
Ġrend el
Ġr ed
ek ed
Ġm Ã©ter
Ġp Ã¡r
Ġcent ury
Ġc ity
ĠMagyar orszÃ¡g
u ff
ĠÃ¡ prilis
Ġh az
erm ek
ov er
a im
m Ã©t
Ġered mÃ©ny
id ge
ad ik
ĠP ar
h Ã¡borÃº
ĠjÃº lius
ĠC omm
Ġ %
k e
ĠkÃ¶r ny
ian s
ĠB ro
ag ue
ec s
ĠE u
t ed
ĠJ une
iss ion
Ġ5 0
nagy obb
ĠkÃ¶ t
Ġk if
Ġt Ãºl
Ã¡ro z
Ã¡ll Ã³
Ġf rancia
Ġr aj
Ġm ÃŃg
ord ing
Ġalap jÃ¡n
l Ã¡t
Ġegy m
om in
j ai
ĠÃ©p Ã¼let
Ġel em
Ġt Ã¡r
Ġ18 4
l Åĳ
ĠM i
alm as
Ã¡ ig
Ġ2 9
Ġl esz
ĠT r
ĠÃ¼ z
ĠJul y
Ġ18 5
ĠmÃ¡s ik
Ġs et
u z
Ġfoly am
Ġb ev
ul Ã³
Ġjelent Åĳs
Ġsing le
Ġt Ã¡v
Ġw orld
Ġs ince
Ġj ust
ol sÃ³
Ġl ine
Ġm ot
ĠMar ch
ĠA pril
id Ã©k
ro w
av y
v onal
Ġdif fer
ant s
s Ã©r
Ġl ast
ab l
ur al
Ã¶v id
ac s
i et
ĠS outh
sÃ¡g a
j ed
Ġhar c
Ġang ol
it al
Ġl ev
ebru Ã¡r
ul ajd
iv ely
Ġb re
Ġall ow
Ã¡l Ã³
Ġlab darÃºg
ulajd on
ĠDec ember
ĠAl l
an ak
Ġ ekkor
el f
ĠE urÃ³p
at koz
ĠO l
Ġis mÃ©t
Ã¶z Åĳ
es ek
ĠÃ©rd ek
Ġnagy obb
Ġle ft
Ġvol na
Ãº ly
rod alom
ĠszÃ¡m os
vi ous
Ġg ond
ĠB er
Ġwh at
kez ett
Ġlar ge
Ġk Ã©r
Ġs outh
Ġgovern ment
ud omÃ¡ny
ĠkÃ¶ nyv
j Ã¡nak
ĠGe or
Ġp i
im p
Ġd et
t Ã©k
ĠCh rist
Ġ200 5
ĠC ol
Ġfoly tat
Ġfel v
Ġel nÃ¶k
l ov
ĠR o
Ġfin al
ĠÃ³ ta
Ġ4 0
ÃŃ p
ĠCh ar
Ġegy etem
Ġv ez
om an
ĠWill iam
o int
m ar
l ing
ĠGer man
Ġel fog
j Ã©t
Ġv as
Ġ201 3
v Ã¡r
att Ã¡k
Ġth ird
s ide
Ġinc re
Ġmon th
Ġh an
Ã©l kÃ¼l
Ġker es
Ġv esz
Ġn ek
Ġtek int
if ied
ĠB y
em pt
Ġel h
Ã¡s Ãº
Ġp h
Ġv ari
Ã¡k at
ag ed
ro te
am ar
ak Ã©nt
ĠD av
Ġf ebruÃ¡r
Ġm uch
ar ed
Ġd ue
Ġapp ro
ĠkÃ¶vet Åĳen
i ous
ĠÃºj ra
Ġl a
Ġan other
ĠkÃ¶z Ã¶s
Ġbo ok
Ġev ent
b or
Ġplay ed
Ġsch ool
el te
ĠM ich
m in
od y
Ġleg nagyobb
on a
Ġan nak
at s
Ġhossz Ãº
Ġszer zett
alk od
Ġm a
ĠnÃ© hÃ¡ny
Ã© be
ur r
Ġd iv
uc k
Ġinclud ed
Ġl ed
a ul
ĠD r
v as
Ġex pl
Ġt ak
ri ed
Ã© cs
Ġsh ort
Ġh it
y s
c he
ÃŃr Ã³
ĠvÃ©g Ã¼l
Ġle hetÅĳ
Ġ Åĳket
Ġpro f
Ġpl ace
Ġd el
Ã¡rs asÃ¡g
ĠJ anu
ĠÃ©rt Ã©k
Ġd i
Ġhason lÃ³
Ã¡ll al
Ġm utat
Ġc amp
Ġbas ed
Ġde ath
pr ess
on n
ĠJanu ary
ĠG re
ag es
ĠJap an
um ent
Ġw rote
Ġv er
ĠÃ¡ll t
Ã¡n c
Ġsz Ã©l
Ġf aj
Ġto p
ĠÃģ ll
ic ally
Ġgy ermek
ĠL ondon
Ã³m ai
sz or
et y
ĠP ark
Ġh um
es ebb
Ġen g
Ġ200 0
ev en
re m
Ġf ur
Ġfel l
ĠvÃ©g Ã©n
Ã©r Åĳl
Ġf est
in i
Ġn ame
is ter
Ġw on
Ġk ill
ĠW e
Ġcs Ã¡sz
Ġhan em
ĠM an
Ġtr ack
ĠszÃ¡zad ban
ĠÃ ļ
Ġst ory
Ġcon d
ĠmÃ©r kÅĳz
Ġ3 1
Ġh ome
izs g
v ar
Ġp ower
id es
Ġch ild
ivers ity
in cs
ÃŃt Ã¡sa
ny i
Ġur alkod
olt a
Ġegy hÃ¡z
an cs
Ġfel esÃ©g
ĠS an
Ã©l et
Ġtanul mÃ¡ny
Ġre view
Ġut olsÃ³
Ġl ife
Ã¡bb i
Ġszer k
el ked
Ġg un
% -
ĠkÃ¶vetkez Åĳ
c l
iz mus
ĠvÃ¡lt ozat
as sz
Ġt Ã¶lt
ĠN y
Ġer Åĳs
Ġh all
h or
Ġeml Ã©k
Ġpre vious
Ġt ulajdon
al d
Ġmeg v
ĠJ Ã¡nos
Ġf enn
Ġper i
at lan
Ġ Ã©nek
Ġ Å
Ġre qu
Ã ¨
am b
Ġkis ebb
Ġdescrib ed
d ÃŃj
f r
m en
Ġw ay
re w
Ġhasz n
Ġ !
ÃŃ sÃ©r
Ġad ott
Ġr Ã¶vid
Ġ201 4
ic a
ogat ott
Åĳl eg
Ġ200 4
Ġhiv atal
Ġfam ily
ous e
ĠW est
Ã¡r d
et ett
Ġbe f
oz Ã¡s
Ġfoglal koz
Ġhat Ã¡r
Ġn ow
Ġb est
Ġal Ã¡
ul a
iv en
b all
Ã© le
Ġm ake
Ġev en
ĠH en
Ġn amed
ĠNem zet
Ġb ud
Ġm ark
og rap
ĠkÃ©p vis
Ġar r
ain ed
Ġar ra
at os
Ġm ond
Ġh and
el Ã©s
Ġatt empt
o on
z en
Ġk ellett
Ġm emb
ĠM in
Ġfal u
Ġd am
b y
Ġh om
Ġszint Ã©n
ac hed
Ġtel ev
t s
ĠEu rop
ĠtÃ¶rtÃ©n et
ĠmÅ± vÃ©sz
il ar
Ġre pl
Ġr ight
Ġn Ã©lkÃ¼l
ĠM ind
Ġb Ã¡r
ĠA ir
Ġper c
Ġsz Ã³
Ġpro bl
Ġvezet Åĳ
Ġm ai
Ġper form
Ã¡lt Ã¡k
Ġs k
sÃ©g i
v es
enc es
alm a
5 0
Ġfel Ã©
Ġp oss
Ġany ag
Ġgyak or
Ġk utat
Ġv ill
Ġl ap
Ġcomm and
ĠJ ack
ĠN ational
Ġv ery
Ġg ames
Å± jt
o ard
ĠvilÃ¡g hÃ¡borÃº
en es
ĠP er
ĠtÃ¶r Ã¶k
Ġo pp
Ġ &
ĠH is
Ġor gan
Ġt echn
ÃŃt Åĳ
oz ik
ĠkÃ¼lÃ¶nb Ã¶zÅĳ
Ġvide o
Ġin fl
ĠÃ©v ben
Ġth ose
ĠK ar
n ing
ĠK r
Ġst ill
Ġne xt
Ġismer t
Ġalk almaz
Ġsz Ã³l
Ġm er
is on
Ġ199 0
Ġv all
i or
Ġez ek
Ġm m
Ã¡s ra
Ġki ad
Ġv el
Ġmod ern
Ġt en
Ġex c
ĠC ity
it ions
ri end
Ġnev Å±
ĠN o
ren ch
ĠK Ã¡r
ĠH a
Ġvi ew
Ġl en
Ġh ÃŃr
Ġf re
Ġis s
Ġer d
ĠIst vÃ¡n
ĠF ebru
ĠC al
ing ton
el en
Ġcompl et
Ã¶ zt
Ġmar adt
ĠFebru ary
il eg
it er
as ter
for man
Ġspec ies
ĠM ag
Ã¡sz lÃ³
ek Ã©nt
ra y
ĠV al
ĠM ad
Ġp at
Ġc are
ra b
Ġny il
ser eg
Ġeff ect
Ġmegjel ent
ĠS e
t Ã¡r
ĠlabdarÃºg Ã³
Ġw ater
Ġorigin al
Ġf ed
Ġbe h
Ġf ek
Ã¡t Ã³l
Ġsz Ã¡ll
Ġre f
Ġperi od
Ġl Ã¡ny
Ġsp e
n ess
ĠM ont
ĠÃģll am
ĠÃ¼ gy
om et
Ġmar ad
at in
l o
Ġbu ilt
Ã©s Ã©vel
ĠC ent
ĠFer enc
id d
Å± z
Ġ esz
Ġhe ld
Ġl ate
Ġadd ition
Ġd est
ĠÃ©vek ben
en se
Ġg Ã©p
1 0
an a
Ġal though
Ġwith in
Ġm ell
ber g
Ġvissz at
Ġst and
y n
ra j
ad a
Ġt enger
tel en
Ġad v
c hed
Ġs old
Ġg reat
Ġb en
ĠC o
l ine
Ġmemb ers
in ing
ĠkÃ¶z pont
Ġre al
Ġmat ch
Ġk ik
so ci
Ã¼ z
ĠF rench
ut ed
Ã©rt Ã©k
ar ab
Ã¡n i
Ġamely ek
Ġst orm
ar a
ÃŃp us
a el
e ad
Ġst at
Ġfor mer
ĠM or
Ġc ame
on es
Ġrendel kez
Ġin it
Ġmeg fel
Ġt or
ĠtÃ¡m ogat
qu e
Ġmely et
ni e
Ġl Ã©g
Ġh Ã©t
ĠW hen
i us
Ġbizt os
Ã¡b ban
Åĳd Ã¶tt
2 00
ĠN or
re et
ezt ek
Ġez zel
Ġr ole
Ġday s
Ġp ap
Ġest abl
Ġh on
se bb
Ã¡nd or
Ġsz Ã¡r
l ag
Ġk ÃŃvÃ¼l
Ġor osz
ĠE zt
Ġer Åĳ
Ġsz Ã¼k
ĠM Ã¡r
ja bb
y l
Ã© j
Ġfi atal
Ã³z se
Ġreleas e
szÃŃn Å±
Ġjell em
n ap
ez ik
a e
Ġk ev
Ġh ÃŃ
Ġh owever
sz ik
ĠM us
ie f
Ġper forman
es tern
at or
Ġw ind
Ġamely et
Ġc r
Ġhe gy
Ġ200 3
ul ation
Ã¡s Ã¡val
ot s
ĠÃ©v es
ĠI m
Ġharm adik
ĠM eg
pr es
ard s
ĠP ol
Ġf ew
iz e
Ġnagy on
u ct
ĠA k
is c
re ad
rop ical
Ġel Ã©r
Ġt w
Ġcontin ued
Ġr Ã¡
Ġ200 1
Ġy ou
Ġsz ent
Ġfel h
Ġsz iget
Ġto wn
olt Ã¡k
op s
as ed
Ġr ad
ĠS m
egy ver
oz s
om en
ment s
ĠJ Ã³zse
Ġk elet
Ġof ten
Ġs ide
Ġloc al
sÃ©g Ã©t
t or
Ġt ot
Ġoszt Ã¡ly
Ġk ult
egy ed
it ary
p ite
ol ikus
ÃŃt ani
Ãº j
it a
Ġam ong
Ġmegjel en
Ġ200 2
Ġs ay
Ġsim ilar
Ġfr ont
ÃŃt ja
Ġel ejÃ©n
p s
Ġ18 3
t art
ĠC or
Ġan im
Ġb em
Ġgy ors
Ġszolg Ã¡l
in o
Ġpres ent
Ġg l
ĠEgy esÃ¼lt
Ġcl aim
d a
Ġhal f
isz ter
Ġnemzet kÃ¶zi
Ġ ï¿½ï¿½
Ã¶r Ã¶g
Ġe qu
Ġhely en
r et
l Ã¡s
Ġszer v
Ġro ck
ĠtÃ¶r vÃ©ny
Ġsp ort
Ġbar Ã¡t
Ġw in
Ġ ?
o f
ĠA b
Ġmag Ã¡t
ĠJÃ³zse f
r Ã¡
Ġt ev
Ġleg j
ro y
l in
Ġin form
Ã³ gy
Ġmeg ny
Ġfur ther
ĠD uring
m a
itt le
ĠEng land
Å± l
Ġp ost
Ġle gy
ĠÃ¡ll Ã³
Ġdiffer ent
al an
Ġs ent
Ġj av
ar c
ĠL eg
Ġkif ej
ĠM on
Ġki alak
ĠM art
ak at
Ã¼ t
Ġex per
et Åĳ
Ġered eti
ĠtalÃ¡l koz
Ġconsid ered
ro g
Ġt ake
Ġ Ã¡l
th ers
sÃ©g ek
im ent
Ġt yp
Ġdolg ozott
Ġsz en
Ã¼n k
azdasÃ¡g i
ri pt
inn ing
sÃ¡g ot
Ġbel iev
Ġind ult
leg es
Ġl aw
ĠII I
ir c
Ġmely nek
ic es
ord s
any ol
orv Ã¡t
ĠJ ames
Ġk ÃŃsÃ©r
at ban
Ġid ejÃ©n
Ġsiker Ã¼lt
Ġnek i
Ġj o
ĠTh ere
ru ction
Ġf ontos
r Ã¡s
Ã¼n tet
ap e
Ġc or
Ġkon c
Ġh aving
Ġtr ad
Ġmov ed
Ġsz ez
he m
Ġw est
Ġe ast
mÅ± vÃ©sz
ir a
Ġro ad
j et
r Ã¡k
ĠS er
l ish
sÃ¡g i
Ġj obb
en ed
s c
Ġvisz ont
Ã¶k k
k s
Ġt ett
ĠQ u
i Ã¡ban
Ġgyak ran
ĠtÃ¡r gy
Ġr Ã³mai
Ġut c
ĠR ich
Ã³ bb
Ġl el
1 5
at ure
f aj
at ter
a ur
Ã©v Åĳ
b eli
ar n
y le
ĠAn g
omÃ¡ny os
ĠB el
ĠEz ek
k Ã©t
ĠE x
Ġar m
um b
Ġever y
Ġb or
ĠUn iversity
j egy
Ġf ok
ĠM ik
er ing
Ġwith out
jel ent
c on
Ġbec ome
Ġsz Ã¶vet
att al
ĠR ober
Ġf ia
Ġsz Ã©k
ĠÃ ĸ
Ġv izsg
Ġ198 0
Ġpos ition
ĠB ill
ĠT er
ĠEng lish
Ġszerep elt
st r
u x
ĠR iver
Ġm y
Ġre fer
Ġc ast
m ond
Ġg Ã³l
Åĳk Ã©nt
Ã¡ciÃ³ s
Ġplay er
Ã¡ro k
Ġlak ossÃ¡g
Ġkereszt Ã¼l
Ġmeg b
Ġterm Ã©szet
ĠÃŃr t
am a
ĠO ne
Ã¡s Ã¡r
sel f
g es
Ã¶l gy
Ġegy etlen
Ã³k at
Ã© bÅĳl
Ġv ette
ĠH igh
Ġl ov
Ġprodu ction
Ġ197 0
n Ã©
Ġs ound
ĠEgy etem
ĠR ep
O n
ut es
ĠC ount
b ajnoksÃ¡g
Ġnev e
c hes
Ġho use
Ġim port
Ġd ÃŃ
Ġf act
Ġmag a
ĠEn nek
Ġcon f
Ġel ect
Ġgy Åĳz
ĠK irÃ¡ly
Ġstr ong
us h
g al
amp ions
elt Ã©k
er ek
ĠR oy
Ġsug gest
ĠKÃ¡r oly
Ã¡s Ã¡nak
ĠÅĳ t
Ġfel ad
Ġmely ek
Ġcomm un
Ġtev Ã©keny
ol ogy
Ġ Ã¶rÃ¶k
Ġmegfel elÅĳ
Ġfoly Ã³
ĠB i
ĠS y
ĠidÅĳ szak
ĠD iv
uk at
Ġcl ub
Ġszem ben
e um
ĠÃ©p Ã¼lt
Ġinv ol
Ġd arab
Ã¡s ban
iv il
ap ot
Ġh old
k ap
Ġinfl u
ĠR ec
l emez
ĠR eg
et Å±
ĠDav id
ĠS o
ov jet
ear ch
Ġl ess
1 7
u h
Ġp Ã©n
k et
ĠkÃ¼l d
Ġcon tain
ĠC oll
Ġvers ion
Ġen nek
er te
Ġtelj esen
Ġt Ã¶m
ud i
Ġol asz
ĠB o
Ġ ilyen
ĠtÃ¶bb i
f Ã©le
ĠP aul
Ġfor g
c raft
ej t
ok on
Ġw ant
Ã©s Ã©re
Ġcom b
ĠG ener
Ġl ow
z al
Ġann oun
ĠD es
ĠS w
ĠN Ã©met
Ġor der
olÃ³g iai
ad Ã©m
id er
Ġhely i
Ġg ave
ĠPh il
Ġcount ry
Ġg en
ĠD o
n em
Ġellen Ã©re
Ġwrit ten
Ġh Ã³n
Ġre form
any ag
zt a
ÃŃ lus
Ġf oot
ĠT an
ĠH am
ol c
Ã¶r Ã¶s
ĠAn t
Ġreturn ed
ow s
ĠvÃ©g zett
l ang
Ã¶r tÃ©n
Ġdef e
Ġk ed
Ġg iven
se qu
Ġt ro
Ġtot al
Ġf ar
Ã¡l ta
Ġf Ã©ny
ĠF el
Åĳ zt
Ġz enek
Ġkor Ã¡bbi
j Ãº
em s
ĠrÃ©g i
Ã¶ d
Ġtart almaz
Ġegy re
in ak
Ġb rit
ĠjÃ¡tsz ott
z e
oun g
Ġor d
Ġv ict
Ġw ent
ran y
sor ban
ĠC omp
Ġs el
Ġg ood
Ġch ang
ĠM ed
Ã¶v eg
Ã© zet
ĠS up
fi eld
Ġbel Ã¼l
Ġs w
at on
ĠL aj
Ġl emez
Ġcomp any
Ġcontr ol
ip l
ĠÃ©l Åĳ
ĠP ort
Ġf ire
ĠGeor ge
Ġf riend
Ġ6 0
re am
or ies
Ġre pres
Ġkor Ã¡bban
Ġkap ta
Ġlegj obb
Ġb al
ĠSz ÃŃn
Ġr ang
Ġs ol
Ġeml ÃŃt
u el
art h
Ã¶tt e
Ġl im
Ġv Ã¡llal
p le
Ã©t Åĳl
Ġf ind
ĠkÃ¶z ep
f ed
on ban
Ġa ff
ad ta
ĠsegÃŃt sÃ©g
Ã¡lt ak
asz nÃ¡l
1 2
ĠszÃŃn Ã©sz
Ġf ail
Ġhad sereg
v ilÃ¡g
Ġl ost
Ġreport ed
ok nak
Ġproduc ed
kez d
ul at
Ġgy Ã¡rt
Ġh i
v Ã©
ĠMich ael
Ġleg t
oszt Ã¡ly
Ġl ight
Ġfe h
al ap
ad alom
Ġst ated
ĠA g
Ã©s re
Ã³ ri
ab ad
ra w
orszÃ¡g i
enc y
f al
Ġk om
Ġ18 0
Ġ et
ĠtÃ¶r t
e al
Ġf il
Ġh ÃŃv
ĠÃ¡ltal Ã¡ban
Ã¶r gy
ĠÃº jabb
Ġpubl ished
el eti
Ãº cs
Ġp ra
ĠM il
Ã¶l cs
g Ã©p
ov ered
ur ric
Ġpartic ular
ĠA p
Ã©sz eti
Ġcomm on
v an
Ã¡t us
Ġig en
Ã¼k et
ĠÃļ j
ĠE k
ĠÃ į
ip p
Ġ199 8
Ġvisz ony
Ġf egyver
Ġ199 9
Ġszer zÅĳd
Ġp Ã¡rt
Ġf iz
Ġin k
a ff
m et
er g
cc ording
a ign
ĠÃ©l t
Ġ5 00
Ġmoz g
ĠLe ague
Ġne ed
Ġel l
S z
ĠA f
ĠRober t
Ġ196 0
Ġship s
Ġbuild ing
Ã¡t or
uc ed
ĠkÃ¶zÃ¶tt i
Ġb omb
ĠAn gel
ĠvÃ¡l ogatott
ĠegyÃ¼tt es
Ãº jt
ĠtovÃ¡bb i
Ã¡l aszt
Ġpr ess
Ġfi gy
Ġ199 1
ĠÃ©v i
Ġalak ult
Ġc ross
l a
Ġrecord ed
m ag
ĠS te
g a
Ġfor ces
w ork
Ġn incs
is ing
Ġnev er
Ġv Ã©l
Ġb us
ÃŃ ciÃ³
ĠN ap
en z
Ġb Ã©k
Ġj Ã³l
Ġhely zet
Ġp olg
ĠM al
Ġus ing
Ġ Ã¡m
on i
Ġa v
ĠcsÃ¡sz Ã¡r
Ġn egyed
n ny
em ents
Ġinter est
Ġker Ã¼l
Ġn ov
Ġsh ould
iÃ³ s
Ġin n
Ġp ark
Ġm aking
Ġfejl eszt
Ġcap t
m i
ĠM er
cs ak
Ġinter n
Ġinclud e
ÃŃ k
o ff
ar r
ĠS ec
Ġhim self
Ã¶r t
Ġkaton ai
ĠkÃ¶ sz
a ut
in ess
le ar
Ġbem utat
Ġc er
eng th
Ã¡rm egy
ĠÃ¼z em
l ott
Ġhozz Ã¡
Ã¡ll ÃŃtÃ¡s
6 0
Ġf Ã¶l
om Ã¡s
es i
out her
ab ly
Ã©s sel
Ġair craft
p ar
ĠkÃ¶z Ã©
Ġ3 5
Ã¡ gy
ik k
ĠY ou
Ġs ett
Åĳ ben
e in
Ġk ÃŃn
urÃ³p ai
at ch
Ġt imes
ĠÃ©v vel
Ġl Ã©vÅĳ
Ġpop ular
Ġaut hor
Ġfeh Ã©r
Ġegy ed
Ġf ather
Ġmil itary
ĠhÃ¡z as
Ġpolit ikai
Ġsz av
Ġ Åĳs
ĠkirÃ¡ly i
ĠThe se
g in
Ġcare er
Ã¼ sp
Ġk ol
Ġs um
oz tat
Ġr ul
b oard
Ġnyil vÃ¡n
Ã³d ott
Ġre ad
Ã© ig
Ġl et
outher n
Ġd a
ens ive
iz en
Ġvan nak
Ġh ow
Ã¡j Ã¡ban
Ã¡v Ã¡
Ġhely ett
Ġserv ice
Ġcrit ic
Ġsong s
ig az
ĠAustral ia
vezet Åĳ
Ġv it
Ġez en
Ġszerk eszt
Ġin s
Ġb ajnok
qu ad
Ġellen i
ĠterÃ¼let Ã©n
ĠP res
Ġpl an
Ġo koz
Ġcsat lak
ĠfÃ©r fi
Ġ Ã¶
it ive
ĠGener al
Ġ Å±r
eg ed
Ġdest roy
ĠlÃ¡t hatÃ³
ri es
Ġg Ã¶rÃ¶g
Ġ199 7
ĠW ith
Ġ8 0
Ġremain ed
o e
Ġ18 2
ĠvalÃ³ szÃŃnÅ±
ĠLaj os
Ġar ch
Ġg round
r ation
Ġmind ig
as tern
re en
Ġhist ory
Ġbesz Ã©l
3 0
Ġkeres ked
u it
Ġf av
ĠkÃ¶z vet
Ġg azd
1 4
1 6
Ġpr im
Ġpr Ã³b
ĠAr my
it u
Ġmonth s
Ġm id
Ġszer vezet
ÃŃt mÃ©ny
ĠkÃ¶rny Ã©k
Ġs uff
v ille
Ã¡ i
Ġm el
ÃŃtott ak
Ġc m
ĠD un
Ġb all
Ġmill iÃ³
Ġrepres ent
enc ed
wo od
ett ek
ÃŃtett ek
Ġperforman ce
ĠkÃ¶ nny
Ġrom Ã¡n
Ġpar ancs
Ġdevelop ed
Ġt ÃŃpus
Ġlegt Ã¶bb
ĠSt reet
ĠrÃ©sz Ã©t
ampions hip
Ġin f
Ġf t
Ġch art
Ġen ged
ĠfÃ¼gg etlen
al th
Ġk Ã©z
Ġbet eg
Ġv ir
os ok
end ing
ĠSt ate
Ġst ÃŃlus
Ã¼sp Ã¶k
Ġd ok
ez ni
i Ã¡n
Ġdevelop ment
ĠRo ad
ĠkÃ©sÅĳbb i
Ġ199 2
Ġink Ã¡bb
Ġmeg szer
Ġk Ã©ny
ĠL Ã¡szlÃ³
Ġcharac ters
land s
Ä ĩ
ĠBl ack
Ġd ied
r ad
Ġpro ject
il k
ĠM e
Ġak t
ott sÃ¡g
ĠA lex
Ġtit le
Ġfor ce
un t
Ġor v
Ġf ull
ist ed
e ep
Ġen c
Ġd er
ĠmÅ± v
Ġn ational
Ġ199 5
ĠnÃ¶v Ã©ny
Ġl o
Ġ199 4
Ġ195 0
ĠÂ °
ĠAl though
ĠP art
ĠR uss
Ġsz ob
Ġint rod
Ġ17 9
Ġamely nek
in al
Ġk ett
Ġs on
ith er
f Ã©l
Ġa way
hat Ã¡roz
Ġcs Ã¶kk
Ġkat olikus
Ã¡s os
Ãº d
szer ep
Ġac ross
Ġp il
Å±n t
i en
Ġv onal
Ġkezd ett
Ġf un
Ġto ur
Ġv Ã¡rmegy
av al
itt ed
ol Ã³
hetÅĳ en
j Ã¡val
Ġn or
Ġny ÃŃ
ĠAmeric a
i Ã¡t
ĠkÃ¶sz Ã¶n
ban d
r ia
Ġprom ot
Ġt esz
at ic
ir l
Ġny ert
Ġchild ren
l eked
os p
att le
ĠT o
Ã¡ny a
z Ã³
1 3
Ġ Ð
ubl ic
Ġhist or
Ġs Ãºly
Ġsign ific
Ã¡ ci
id a
Ġigaz gat
Ġt Ã¡bor
Ġfejl Åĳd
ĠB en
ĠN e
ĠDiv ision
Ġtart ott
Ġcamp aign
he gy
l ik
Ġe ight
Ġ201 6
j ut
Ġl em
Ġn eg
Ġre ached
Ġ3 2
ĠP al
it z
Ġm ezÅĳ
et ben
ĠE ast
he tt
ek nek
Ġ199 6
Ġki h
ill ag
ak es
Ġcon v
Ġrel ations
Ġszab Ã¡ly
Ġoffic ial
ther n
Ġvissz av
Ġ ros
Ġn ight
og n
ĠJ os
Ġar g
ĠB al
z at
Ġfi eld
ent h
ĠS al
ĠF ranc
ĠÅ Ĳ
ĠegÃ©sz en
ĠkÃ©pvis elÅĳ
Ġv ad
ĠT e
ci ent
ĠK Ã©sÅĳbb
ĠEurÃ³p a
r Ã¡n
Ġnot ed
d om
Ġszerep el
Ġm Ã©ly
ĠIn tern
i ers
Ãºz eum
l Ã¡v
and Ã³
Ġcre ated
us es
Ġspec ial
urric ane
elm et
s en
ez Ã©se
Ġare as
Ġbl ack
Ġ194 5
Ġn on
Ġcomp et
Ġsuccess ful
ĠmÃ©rkÅĳz Ã©s
ĠlÃ©p ett
Ġkezd te
Ġmint egy
ipl om
b r
Ġannoun ced
ĠS am
ĠL ou
ra z
Ġr an
Ġgr Ã³f
im ately
Ġf ran
ay s
ĠdÃŃ sz
f ic
un y
ĠZ s
m e
n ia
Ġp al
Ġc op
Ġmag az
Ġegy Ã©b
h Ã¡t
v Ã¡ri
19 9
Ġa ver
tt al
Ġtart ozott
eket e
Ġto o
Ġfollow ed
anc es
m ost
Ġid ent
Ġst ation
ĠJapan ese
ĠC ap
Ġ ud
im n
ell ing
Ġse en
s Ã©k
Ãº s
ĠEl sÅĳ
om as
Ġtan Ã¡cs
ĠRoy al
ĠCount y
Ġp ut
ĠtÃ¶rt Ã©nt
Ġtelev ision
Ġ199 3
om ing
ĠWh ile
ĠF Åĳ
Ġvari ous
em y
Ġp Ã¡p
ric t
ĠV ir
Ġnyug ati
m p
ep h
Ã¡s okat
ĠF r
k ÃŃvÃ¼l
Ġbatt le
Ġser ved
r d
ĠT el
ar ch
ap Ã¡n
re k
ĠR ed
Ġf em
it ch
Ġjell eg
ÃŃt Ã©se
Ġplay ers
ĠGy Ã¶rgy
Ġrep Ã¼lÅĳ
Ġpolit ical
ĠM ac
ĠF Ã¶ld
fÃ¶ld i
Ã³d ik
Ġk rit
Ġal kal
Ġc y
8 0
Ġse b
ĠD Ã©l
Ġut Ã³bb
ĠS im
ĠM y
Ġp Ã¼spÃ¶k
ac es
Ġleg al
j Ã©n
ĠtÃ¡v ol
y ing
Ġl ook
ĠG l
Ã³ ta
Ġc ost
Ġexper i
it es
Ġsz or
t Ã©r
Ġtr Ã³n
Ã¡z s
ic o
id ence
Ġsp anyol
Ġdec l
lÃ³ s
Ġin sp
ĠFran k
ĠL i
Ġgy Å±jt
way s
p al
Ġ4 5
ĠH ill
ur t
Ġc irc
Ġzenek ar
Ġr en
Ġvas Ãºt
ĠW ash
ut h
Ġc ourt
Ġkill ed
Ġhel p
et ileg
ĠÃ¼ t
ĠH all
Ġs even
Ġszen ved
Ġt ropical
Ġst ar
Ġ Ã¡b
and er
Ġimp ro
ĠM Å±
ri an
ĠNemzet i
Ġ7 0
ĠD on
Ġperform ed
Ġab le
Ġe bben
Ġthrough out
Ġc Ã©g
oz ta
n ep
1 1
ul Ã¡s
Ġel Ã©g
ĠR om
d e
Ġse e
ek re
Ġpro cess
ĠEk kor
Ġf ight
ac y
Ġb ajnoksÃ¡g
Ġl ittle
le et
iz ation
ĠhÃ³n ap
ĠA ccording
Ġag re
Ġ â
am er
ĠpÃ©n z
o ice
ad i
ro k
ĠR ock
Ġtak en
ough t
Ġsok kal
ol ution
ĠAustral ian
ez i
ĠHen ry
ĠtÃ¡m ad
et et
v Åĳ
ec ut
ĠÅĳ r
B C
ÃŃt i
Ġsignific ant
Ġk Åĳ
f ilm
ag o
Ġme et
Ġc ult
en a
Ġh or
he st
ĠU gyan
Ġf ig
sz Ã©k
ĠSz er
Ġszak asz
j Ã¼k
Ġj apÃ¡n
v Ã¡lt
b el
ect s
Ã¶z ben
i j
y a
4 0
Ġak Ã¡r
z Ã©k
Ġid ej
Ġb er
o id
Ġp ri
Ġthough t
Ġear li
Ġaz az
eg et
Ġestabl ished
ĠelsÅĳ sorban
ĠkÃ¶z ben
Ġv idÃ©k
Ã¶vet sÃ©g
Ġst yle
esz er
at ÃŃv
Ġco ast
he ad
Ġmil es
Ġjellem zÅĳ
ett er
Ġazon os
Ġint Ã©z
ĠÃ©szak i
hy s
Ġbro ad
if f
Ã¼gy i
Ġak ar
ĠdÃ©l i
one y
ok ra
Ġappear ed
Ġb ody
ol f
ro sz
Ġm ester
m al
ol ja
ez ked
od es
Ġes emÃ©ny
Ġdo es
r Ã¡l
ur a
Ġh amar
Ġfel sÅĳ
Ġszolg Ã¡lt
oun c
Ġb ek
Ġwrit ing
st it
alm at
Ġ198 9
d ay
Ġs us
ĠK is
l ant
ĠMagyarorszÃ¡g on
Ġpoint s
Ġg ra
ell s
v Ã©re
Ġny it
Ġstart ed
Ġdec ided
Ġmi utÃ¡n
Ġm ult
jÃ¡t Ã©k
Ġkev Ã©s
ĠA ct
ĠT Ã¶bb
sz iget
Ġleg f
gy Å±l
ak er
Ã¡z ium
ĠH ouse
imn Ã¡zium
Ġca used
Ġb ill
ol n
Ġevent ually
Ã©k ony
Ġt ette
Ġsz o
ĠWash ington
ĠSch ool
ĠM a
ĠSzÃŃn hÃ¡z
Ġk in
ĠAf ric
d Åĳ
ĠnÃ©p szerÅ±
Ġgy Ã³gy
ĠÃ©r kez
n d
Ġw omen
ĠI tt
Ġst ruct
Ã ¤
ĠrÃ©sz Ã©n
Ġjelen leg
Ġreg ion
iv id
r Ã©sz
ĠH ol
ĠlÃ©tre hoz
ep end
Ġgener al
d en
Ġfolyam at
ĠO tt
on c
ĠszÃ¡m ÃŃt
ĠkÃ©p es
ĠÃ¶n Ã¡llÃ³
Ġbar lang
lov Ã¡k
ĠM ex
if t
rend szer
Ġm ember
omm un
Ġzs id
ĠÃ©rt elm
ĠQ ue
Ġk al
Ġro ute
Ġcs er
in ation
Ġa ge
ĠV er
r Ã¡z
elÅĳ tt
Ġfe et
ĠC om
ĠG ro
Ġa ward
en ci
ec k
op h
c o
ĠInd ian
Ġhe avy
ers t
el ep
Ġak art
ers on
Ġfel ett
ĠFran ce
Ġr it
Ġv ot
ĠM et
Ġtart omÃ¡ny
ĠT or
Ġc ut
Ġd iplom
Ġto get
Ġbel sÅĳ
Ġadd ed
Ġtoget her
ĠÃī szak
Ġel ekt
Ġj ob
Ġker et
Ġr ange
b le
Ã¡t y
Ġgro w
ĠChar les
b ar
Ġon ce
Ġegy szerÅ±
Ġa rany
ud e
Ġfeat ures
Ġut az
ell a
sÃ¡g ban
Ġcon n
ĠIt al
Ġhum an
Ġm ater
Ġform ed
Ġh ol
Ã¶s en
F A
Ġe urÃ³pai
ĠTh omas
Ġi rod
Ġwh ite
Ġin j
ĠF ilm
Ġact iv
Ġ Ã©d
igaz gat
rough t
Ġman ag
Ġt ap
Ġ194 4
ĠB ay
Ġloc ated
Ġinst ead
Ġl ik
Ġny olc
Ã©s Ã©nek
e e
os i
Ġvel e
Ġf all
ab il
Ã¡n Ã¡l
Ġ9 0
Ġkis z
ep ar
Ġr ace
av ar
t an
it ar
Ġide ig
Ġegy en
ip t
Ġc as
er al
omm al
on na
Ġs aw
Åĳ i
ĠI r
ĠF ir
oll and
ĠsegÃŃtsÃ©g Ã©vel
ag on
ĠH ot
Ġj Ã¡rt
ĠRich ard
ĠM ary
Ġc ivil
an o
t r
Ġr a
ĠD em
ax im
Ã³ ban
Ġcre w
Ġb ank
ĠSt ar
Ġimport ant
Ġcomplet ed
Ġkonc ert
7 0
ĠÃ¡ll apot
j Ã¡bÃ³l
Ġes c
ĠL os
S Z
Ġre v
f oly
em l
Ġol imp
con om
k Ã¶r
ĠS Ã¡ndor
ĠGr and
ett el
amp le
ri er
d in
Ġf ac
Ġhely et
c ast
Ġplay ing
Ġro und
us i
Ġjut ott
Ġa ction
Ġ193 0
ĠP Ã©ter
Ġell ent
Ġc over
Ġmot or
Ġa jÃ¡n
Ġm ik
Ġmen ny
Ġkl ub
i ent
Ġszerep et
Ġpr ed
Ġd ev
Ġz Ã¡r
va il
ĠÃ¶ssz es
i eld
l ess
ĠP at
Ġpop ulation
Ġbeh ind
ĠK or
ĠP eter
ĠPl ay
ĠhalÃ¡l a
Ġaz ok
Ġopen ed
ĠkÃ©r d
ĠÃŃr ta
Ġgun s
Ġvizsg Ã¡l
Ġtan Ã¡r
ĠM ark
r or
Ġnev Ã©t
Ġr ather
Ġok tat
it or
Ġh id
Ġlehet ett
Ġl y
re y
ĠvÃ©g re
Ġhaj Ã³
Ġ201 7
Ã³ c
Ġsur v
Ġj egy
Ġ194 0
Ã¡ zt
r act
ĠM ill
Ġc urr
Ġg et
Ġst age
ce ed
ign ed
ĠW il
Ġig Ã©ny
end Åĳ
ĠB or
Ġne h
ell em
Ġ Ã©g
Ġo thers
Ãº ra
Ġinv est
n nep
Ġwork ed
ĠP et
ol a
Ġm aint
at ra
d Ã¶nt
Ġ3 3
el ve
Ġh ard
Ġvezet ett
ĠSc ott
ric k
Ġoszt rÃ¡k
ĠMus ic
Ġm iss
Ġcom ment
ap t
ÃŃt Ã©l
Ġad ta
ĠIn t
ĠÃ©d es
Ġhat almas
Ġmin iszter
Ġ ï¿½
fic ult
ĠOl asz
Ġmeg hatÃ¡roz
Ġpart y
a ik
n es
ĠM ivel
Ġsz Ã¶veg
med i
sz int
Ġs ite
at ott
Ġm em
Ġmeg Ã¡ll
ĠT om
Ġt izen
j Ã¡ra
Ġl oss
Ġl ack
Ġk b
ĠAr t
ĠtÃ¶bb ek
Ġk eleti
Ġweek s
n ed
ĠkÃ¶z leked
Ġv et
Ġadd ig
Ġcl ose
Ġdif ficult
ab or
Ġ3 00
ad es
ĠB est
ot a
Ãº lt
Ġsub sequ
ish ing
Ġl ive
Ãº sz
Ġh ost
re c
Ġid eg
it te
ĠC ast
ĠmÃ¡s od
Ġked v
Ġki em
Ġm enek
ist ic
ak or
pl oy
Ġut al
Ġpe ak
Ġaz zal
Ġugyan is
Ġk im
ÃŃt eni
Ġorigin ally
es sz
at okat
Ã¼ st
ĠP e
Ġr ak
Ġel ismer
ĠEurop e
ĠB iz
Ġal most
Ġd oll
Åĳ sÃ©g
mÅ± v
ĠSm ith
Ġrelations hip
Ã ī
ol it
Ġdam age
ei ben
d al
Ġqu al
Ġs epar
Ã¡j Ã¡nak
Ġind ivid
Ġak it
ĠidÅĳ ben
ĠB ut
r ik
Ġsc ored
Ġup on
ĠT udomÃ¡ny
Ġlead ing
e inek
Ġy oung
ounc il
h an
ĠI V
Ġt ur
ĠC ro
ĠEz utÃ¡n
Ġapp oint
ir k
Ġfour th
Ġv Ã©r
Ġ ip
Ġszint e
ĠD i
h i
Ġm ut
Ġb ÃŃr
Ġtan ult
Ġn orm
j eszt
s y
Ġre ve
Ġ192 0
Ġv egy
im b
Ġd u
ĠrÃ©sz ben
Ã¶z Ã¶tt
ĠK ol
Ġf oc
Ġas soci
Åĳ sebb
Ġpr act
j on
ĠG old
ĠÃ¼ nnep
Ġwork s
it ing
ĠR oman
ak i
ang u
Ġprov ided
att ak
s a
Ġf Åĳleg
Ġsz Ã¡z
ap ja
Ġconst ruction
Ġeff ort
av es
Ġc reat
il i
Ġb rought
ĠA c
hat Ã³k
Ġcl os
ograp h
Ġ3 6
oun ter
ĠH al
Ġwant ed
Ġsc ene
ÃŃt vÃ¡ny
ĠMc C
Ġ17 8
ĠFl or
ed ett
Ġlen gyel
al i
ĠP Ã¡r
Ġmater ial
Ġsz ok
Ġallow ed
Ġh ig
Ġtart ozik
Ġaver age
st ant
Ã©v Ã©
ĠG i
ĠV ill
Ġk ing
Ġto wards
Ġwork ing
ĠcÃŃm mel
ĠkÃ¶ v
ĠMÃ¡r ia
op e
ĠÃ©v ig
Ġc ase
Ġqu ick
Ġprobl Ã©m
Ġla un
ĠT est
ĠR es
k on
Ġ iz
Ġb orn
Ã©l i
Ġalkal ommal
ev e
ad Ã©k
Ġle ast
Ġtro ops
Ġk omp
h ang
Ġfeat ured
ĠV ict
Ġsz ovjet
ent ial
Ġpl aced
ib r
Ġnemzet i
Ġp oz
Ġd ob
Ġcrit ics
Ġgond ol
Ġneh Ã©z
Ġbus iness
ĠS en
as y
Ġtrad ition
Ġprof ess
ult ak
Ġre ach
Ġind ust
il ag
ent ion
ĠL u
ĠMart in
zt e
ÃŃt jÃ¡k
ĠÃ¡b rÃ¡z
t alan
Ġrun s
ran t
Ġg e
zet es
Ġe ither
Ġj Ã¶tt
um p
A fter
ain s
ĠEz en
ĠK n
er Åĳs
ĠkÃŃn ai
ny ug
j Ã©nek
Ġf a
oun tain
ci ety
ĠL en
Ġpl ann
hes ter
om s
Ġ198 8
Ġa vail
Ġtart ozÃ³
Ġar my
Ġse x
el nÃ¶k
m ir
ĠmÅ±kÃ¶d Ã¶tt
Ã¶ nyv
o or
Ġt Ã©ny
Ġest im
r up
Ġg azdasÃ¡gi
ĠG reat
Ã¡s Ã¡ban
Ã¡ro st
ĠD ep
Ã©cs i
h old
Ġcontr act
Ġhivatal os
Ġreg Ã©ny
essÃ©g e
Ġ Ã¡g
ez Ã©st
om Ã©ter
Ġl Ã©ny
ĠG od
Ġt Å±z
ĠL o
Ġw ife
Ġim m
Ġe conom
Ġp ot
ĠvÃ©g ezte
Ġjo ined
f all
mÅ± kÃ¶d
Ġm ass
Ġgener ally
Ġex ample
v idÃ©k
man n
olog ical
Ġs om
Ġvez ette
Ġeng ine
ĠfÅĳ vÃ¡ros
Ġ3 7
Ã©ly i
s sz
Ġnev eztÃ©k
S t
l Åĳd
ĠPres ident
hat ott
ap s
Ġfor t
if orn
Ġoff ice
Ġv iz
quad ron
iÃ³ ban
cs oport
Ã©s ben
Ġol vas
ict ion
ĠmÃ³d on
Ġbeliev ed
Ġtud omÃ¡nyos
Ġmi x
Ġrec ogn
Ġacc ept
Ġdolg oz
Ġeset Ã©n
Ġr ail
Ġf und
Ġd ro
Ġh Åĳ
Ġs our
v ir
ollow ing
in ci
Ġesz kÃ¶z
Ġn omin
Ã©p ÃŃtÃ©s
Ġm other
iforn ia
Ġelh agy
ol s
Ġresp ect
Ġ3 8
am os
ĠIntern ational
as ing
ĠJack son
ĠÃį gy
A l
Ġhagy omÃ¡ny
ĠLou is
Ġpartic ip
ĠS l
Ġre b
art ment
h ar
ĠR ev
ĠP Ã¡l
ĠvalÃ³szÃŃnÅ± leg
Ġvisszat Ã©rt
al a
Ġ15 0
Ġegym Ã¡s
Ġso on
ĠcÃŃm et
Ġelt Ã©r
ĠVir gin
ĠWh ite
ent y
ĠE bben
ĠmÅ± sor
ra in
Ġm ph
Ġ3 4
eh Ã©r
ĠK er
ĠM ur
Ġakkor i
Ġvict ory
w est
Ġ194 1
ĠG ame
ĠÃŃr Ã³
Ġst e
Ġkn ow
at ors
Ġez er
at Ã¡rs
ĠBill board
us ing
Ġ198 6
Ġdesign ed
Ġrepl aced
ĠkÃ¶zvet len
r est
Ġis land
Ġsz Ã¼l
ech an
Ġfelt Ã©tel
h ib
Å ¡
iz Ã¡l
Ġpr iv
Ġid Åĳk
Ġkereszt Ã©ny
c om
m Ã¡n
ris on
Ġho urs
ĠEurop ean
Ġember ek
Ġv end
acs ony
Ġ198 7
ĠG erm
er ous
ed y
Å±r Å±
et ek
ĠC up
ent e
ĠT our
Ġt Ã¡j
ĠD an
et work
Ġel nev
Ġhis zen
Ã¡n s
ĠBro wn
Ġfor gat
het ett
Ġfin ished
ĠkÃ¶t Ã¶tt
ĠO ly
Ġd in
ĠkÃ©sz ÃŃtett
Ġr ap
Ġszez on
Ġ7 5
Ġinvol ved
T h
Ġex press
ter jed
Ġt Ã©m
Ġpers on
ed Ã©k
bb Åĳl
Ġcsapat ok
Ã¡ pl
ight s
idd le
Ġegy szer
Ġc our
Ġsz Ã©t
Ġf ree
at Ã¡t
ĠInd ia
Ġt et
ĠB attle
Ġem ploy
elt ek
Ġb ur
Ġmegt alÃ¡l
mÃ©ny ek
eb ben
ĠtÃ¶m eg
ad almi
ve i
ĠutÃ³bb i
ĠÃ¡l d
Ġw he
Ġparancs nok
id s
Ġev ents
ĠD V
ĠIs land
Ġsh ot
k l
Ġez utÃ¡n
Ġap ja
ÃŃt va
Ġsur f
Ġfel sz
sÃ¡g Ã¡t
Ġproduc er
ĠMi h
at ta
Ġott h
Ġst b
ĠComp any
i Äĩ
Ġr Ã¶g
ĠÃ©r int
Ġbre ak
um e
Ġtit k
Ġsay ing
ĠV an
Ġp ur
Ġ198 4
Ġm ad
Ġth reat
ĠAnd rÃ¡s
Ġpres ident
Ġreg ular
Ġcs illag
Ã©r i
ĠM T
ĠI f
Ã¡s ai
ik Ã¡ban
Ġp uszt
Ġv oc
ĠpÃ©ld Ã¡ny
Ġt av
Ġk eep
Ġopen ing
Ġuralkod Ã³
b i
Ġsz ÃŃv
ok bÃ³l
Ġp or
ĠT imes
ear s
ĠS ome
Ġaz Ã©rt
ĠK Ã©t
Ġs ev
Ġv eszt
ĠS ing
at ural
kÃ¼l Ã¶n
Ġro b
Ġs outhern
em at
Ġ17 7
Ġfelh asznÃ¡l
ĠCh urch
Ġtra vel
Ġan al
Ġinit ially
ĠI g
Ġocc ur
Ġnev et
Ġlar gest
om i
Ġb Åĳ
ĠEr d
Ġsup er
Ġl ength
Ġm Ã¶g
r ing
ic ated
ĠV as
ĠszÃ¼k sÃ©g
Ġearli er
ic le
Ġmin utes
d ig
Ġad min
at eg
Ġdirect or
g ar
ecut ive
Ġhig hest
ĠÃ©r te
Ġfor ced
ĠR ob
ked ett
Ġcond uct
ĠelÅĳ bb
Ġvir Ã¡g
ĠO ff
Ġrem ov
ct or
om er
Ġfel fed
ĠÃ©nek es
Ġte hÃ¡t
ĠChrist ian
Ġposs ible
Ġperc ent
Ã©v es
ĠAt lant
Ã³k Ã©nt
Ġh ull
Ġf ekete
Ã¡ll Ã¡s
Ġparticular ly
Ġcom mer
b our
ĠN avy
Ġo pt
os ition
ĠColl ege
Ġcont rib
ĠA uszt
Ġt ÃŃz
ĠMik lÃ³s
osa ur
Ġel lÃ¡t
s burg
ak t
ul f
Ġkis lemez
p e
Ġd ÃŃj
ĠG ar
pl ay
Ġhigh way
Ġpers onal
ĠB Ã¡r
ch iev
Ġel kÃ©sz
Ġavail able
olt ak
Ġtra ining
Ġend ed
ĠkÃ¶szÃ¶n hetÅĳen
Ġkor Ã¡ban
Ġo p
ag a
Ġw all
Ġturn ed
z y
Ġegy kori
Ġst op
ĠAk adÃ©m
Ġben ne
ok k
Ġcent ral
Ã ģ
ec e
t Ã©ben
ĠD el
oh a
v Ã©r
Ġk r
Ġsz Ã©p
ĠT am
y r
as ion
ĠRep ublic
Ġh orvÃ¡t
olÃ³g ia
p ly
Ġ198 5
Ġse qu
ĠelnÃ¶k e
g ely
Ã©s Å±
ar ing
Ġex ist
ĠszÃ©l es
est ed
ant ry
ĠT V
Ã©v Ã©n
Ġpra ised
Ġsz om
Ġstud io
Ġ191 0
Ġm axim
ĠKing dom
l ap
Ġresp ons
is es
Ġgo al
Ġl iter
Ã¡j uk
Ġ194 2
f ej
ev Åĳ
z ik
or a
Ġered etileg
Ġincre ased
iv Ã¡l
ĠfelesÃ©g e
Ġmeg k
Ġf if
ĠcsÃ¶kk ent
Ġser eg
Ġab ban
Ġpass ed
he ast
ĠG al
Ġkezd ve
Ð °
Ġut as
ific ation
ĠJ er
z Ã¡k
Ã¡ c
ĠUn ion
Ġ196 8
Ġt old
Ġvez Ã©r
ford ul
m ing
Ġm ust
Ġind ul
Ġl atin
Ġnor thern
ĠO per
ĠAs soci
b ajnok
ny ire
Ġso cial
II I
ĠR ad
ĠCh ic
r Ã©szt
Ð ¾
ĠhasonlÃ³ an
ĠM Ã¡s
ĠBi rodalom
as c
A F
Ġo sz
Ġl og
ist Ã¡k
ĠT ur
en et
Ġh y
d olg
l ia
Ġh urricane
ĠG o
Ġ191 8
ĠM el
est s
Ġros sz
Ġt Ã¶
Ġbel e
Ġch ange
ĠC ourt
Ġreg ard
Ġl i
ut y
ers hip
Ġ3 9
Ġgr ad
ok e
ur Ã¡lis
Ġfog ad
ĠVict or
ĠAngel es
Ġmeg old
Ġd oc
ĠK on
Ġt re
Ġqu ar
ov a
apest i
Ġb ron
Ġud var
ĠT ex
Ġhaz ai
ĠjÃ¡tÃ©k os
ĠÃ¡ll andÃ³
ĠCh ampionship
Ġm Ã©rtÃ©k
r ated
Ġp hys
Ġ198 2
Ġbef oly
ran g
Ġmus ical
ĠCl ub
ĠT em
Ġt ar
ĠÃ©rdek Ã©ben
Ġim medi
ch er
ĠS k
ĠFir st
z Ã©se
Ġnegyed ik
Ġegyetem i
Ġv ar
ĠN ev
ĠCan ada
Ġl Ã¡b
Ġrel ig
Ġdo ub
ci ence
Ġord ered
et Ã©s
ĠkÃ¶rny ezet
Ġs Ã¡r
Ġl angu
ĠtÃ¶lt Ã¶tt
ĠSup er
ĠÃ¶ssz esen
Ġun its
Ġappear ance
Ġk ommun
Ġm ikor
h al
Ġch urch
Ġun c
Ġhall gat
ĠT ra
qu are
Ġp ast
Ġr Ã©t
Ġ Ã©j
Ġszer ezte
Ġl ove
ĠEn ter
ig an
ĠU r
Ġ195 6
Ġ194 3
Ġter jed
Ġszer b
Ġbud apesti
ress ion
kor mÃ¡ny
Ġvesz Ã©ly
ont in
Ġ197 2
ugh ter
ĠM o
Ġgyakor lat
Ġw at
ry ing
m b
Ġt aking
Ġer re
ĠM ic
Ġdis p
fer ence
Ġant i
ĠM r
Ġspe ed
ĠCal ifornia
ĠÃºj sÃ¡g
Ġmov e
Ġkil omÃ©ter
Ġm eas
ol ni
ĠÃ¡ltal Ã¡nos
sor ozat
ĠC r
Ġ197 6
ĠA tt
ul ly
Ġ4 9
ir at
Ã¶l te
Ġwind s
up Ã¡n
av a
l alt
Ġen erg
ĠP an
Ã©n i
Ġsign ed
ĠJ im
Ġtud ott
ĠtÃ¶r zs
as k
Ġiskol a
Ġcs Ãºcs
Ġbizony os
ĠtÃ¶bb szÃ¶r
Ġvend Ã©g
Ġvisszat Ã©r
Ġ198 3
ĠkÃ¶vetkez tÃ©ben
het etlen
Ġwe ak
Ġnov el
Ġ4 00
Ġ197 9
ĠMi utÃ¡n
ĠvÃ¡rmegy e
itte e
ĠT wo
t ized
Ã¶ssz e
Ġen ough
ĠkÃ¼lÃ¶n Ã¶sen
Ġk Ã³r
ez nek
Ġind epend
ĠdÃ¶nt Åĳ
Ġ =
Ġb etter
p on
Ġkom oly
Ã¼z d
Ġsp ent
ĠD ay
Ġt reat
il a
Ġvezet Åĳje
Ġgo ing
ĠkÃ¶zt Ã¼k
Ġ197 4
Ġmod ell
Ġa chiev
ĠB at
Ġlak osa
Ġpos itive
ter m
ĠszÃ³l Ã³
p ec
ĠelÅĳ ad
Ġk ÃŃv
Ġed uc
ĠrepÃ¼lÅĳ gÃ©p
Ġ197 5
Ã¼lt ek
ÃŃt Ã¡st
2 5
Ġï¿½ï¿½ ï¿½ï¿½
ec ess
ĠkÃ¶zel Ã©ben
Ġfe el
Ġn Ã©z
ĠC ong
Ġmeg alap
ĠF I
Ġd ig
ar ily
Ã¡l Ã³z
hely e
ĠmÃ³d szer
Ġreve al
ĠH ad
Ġm or
Ġzsid Ã³
Ġrad io
cs ap
en ni
ĠN Ã©p
d h
Ã³d Ã³
Ġout side
ĠDV D
ĠS ar
Ġconc ern
Ġ4 8
Ġbef ej
Ġh Å±
Ġacc ording
ĠL ove
and ing
ĠH o
Ã³ val
Ã¶t Ã©t
ĠÃ¡ll at
Ġker Ã¼let
Ġfek szik
Ġ Ã¶r
ĠEgy es
id ing
Ġprevious ly
sz k
end er
Ġc lear
ol Ã¡s
Ġ Ã¼l
Ġfail ed
Ġw eb
ĠÃ¡t lag
ĠEd ward
Ġal acsony
Ã³ ni
ak kor
Ġn ine
ĠS ov
ĠAm ikor
ĠkÃ¶ tel
Ġar c
Ġmeg gy
zt Ã¡k
udomÃ¡ny i
N A
us ok
ĠC amp
Ġd omin
ĠkÃ¼l sÅĳ
res sz
u an
ĠkÃŃsÃ©r let
Ġgazd ag
Ġfel el
Ġ197 8
Ġe y
Ġzen ei
Ġqu est
ĠT hat
ĠszÃŃn hÃ¡z
Ġfilm s
Ġmet al
ĠV Ã©g
Ġ194 8
Ġcom e
out e
Åĳ ri
Ġrend kÃŃvÃ¼l
ĠN Ã©
Ġhaj t
ĠÂ £
Ġj Ã¶v
Ġpro b
Ġres earch
Ġme an
Ġc ru
l Ã©t
Ġab ove
nÅĳ tt
l eszt
and s
ĠA ward
er gy
ĠP ac
Ġ193 9
ĠÃ©v ad
Ġ197 3
r Ã©
Ġr ain
Ġp aint
19 8
ĠB ur
Ġrequ ired
Ġth ink
ĠU K
Ġlak os
u ction
pr Ã³b
Ġr Ã¡d
ĠszÃ¡r ny
op er
Ġt ax
Ġst ates
Ġp ay
Ġl ower
Ġ196 9
vers eny
uk e
ĠH an
Ġmoz d
od ott
Ġgy Åĳzt
ĠkÃ¶ ny
Ġdes pite
ĠB Ã©l
Ġraj z
ĠRec ords
e ik
use um
Ġas sz
Ġak inek
ĠÃ©r kezett
or ing
Ġmegh alt
ĠD is
Ġtag jai
Ġdirect ed
ÃŃ m
Ġc he
aszt al
ĠJ ust
Ġpart s
Ġelem ents
ast Ã©ly
Ġits elf
read y
Ġreview s
is sz
ĠB u
Ġvon atkoz
ĠFor ce
Ġoldal Ã¡n
im Ã©ter
Ġi rodalom
os ing
Ġegym Ã¡st
Ġsz eg
ell ed
ĠC re
Ġ198 1
Ġbas e
Ġd on
l or
b ack
Ġ197 7
Ġegy sÃ©g
Ġ197 1
ĠnÅĳ i
Ġhat Ã¡roz
Ġw id
omet imes
ĠR os
Ġass ist
Ġw estern
Ã¡z is
ĠS ir
Ġvi ol
ug g
ak k
t o
Ġo x
Ġo st
te bb
ĠPÃ¡r izs
Ġinter view
s hip
Ġdeb ut
ĠE v
Ġember i
Ġbeg inning
Ġacc ess
Ġt orn
al Ã©k
Ġ196 7
Ġpo or
Ġfok ozat
ĠN Y
ĠUS A
ĠEz zel
it Ã¡s
el ek
bel Ã¼l
ver t
te en
Ġal tern
Ġclaim ed
Ġfoot ball
Ġk iz
ĠK i
ĠfÅĳ szerep
ĠS un
ĠW estern
Ġh alt
ĠGerm any
Ġpre vent
ontos abb
ĠM iss
Ġmark et
Ġsz ellem
ept ion
ri ef
e ff
Ġas ked
ol i
Ġ6 5
p uszt
ĠIn ter
Ġ Î
a ud
Ġacc ount
Ġj our
Ġford ul
Ġ4 2
ĠM at
Ġph ot
ĠB oy
v Ã¡
Ġny Ãºjt
Ġ4 7
Ġrecord ing
ĠB Ã©cs
ib ility
ĠkerÃ¼lt ek
haj t
m it
Ġtrans fer
Ġcent er
Ġs ÃŃr
Ġs ection
r um
ĠG overn
ĠDes pite
t ette
ĠH ung
ac ing
Ġa gy
Ġg ive
Ġforr Ã¡s
Ġwh ose
uny t
Ġeset ben
Ġb uk
Ġgroup s
ĠF ort
sz Ã©d
Ġbro ther
Ã©s eket
A n
Ġide a
A s
r ich
sÃ©g ben
og rÃ¡
Ġ196 4
ĠK ore
pp ed
zs a
Ġa udi
ĠR oute
Ġquick ly
Ġl ines
c el
st on
Ġwh om
h ile
Ġc red
Ġvisszav on
Ġv Ã¶rÃ¶s
Ã¡t um
or es
ĠGre en
Ġg old
m es
Ġ4 4
Ġintrod uced
z Ã¡s
Ġfut ure
Ġk ics
ĠR am
ĠvÃ¡lt oz
Ġle ague
Ġegyed Ã¼l
ed elem
ĠR h
ect ions
Ġal ready
Ġ ult
p art
Ð ¸
ĠszÃ¼k sÃ©ges
air s
Ġbr idge
l evel
Ġde ep
ĠO s
ĠÃ©p pen
Ġm echan
ĠE s
ad Ã¡ly
Ġdet erm
Ġs itu
ĠT ri
szer k
Ġs at
Ġle ÃŃr
ĠH ab
sz Ã¶vetsÃ©g
Ġarr ived
Ġk elt
Ġmell Ã©k
ĠM ost
Ġkapcsol at
Ġintern ational
E gy
Ġob ject
m Ã³d
ĠD a
Ġtud ta
Ã¡r is
Ġent ire
Ġtiszt elet
ĠmÃ©g is
ĠâĢ ¦
Ġmeg erÅĳs
Ġamely ben
ĠVirgin ia
Ġde al
g o
Ġhely re
Ã³ nak
ĠS ong
g round
Ġrend Åĳr
Ġmin or
Ġgy erek
Ġev idence
Ġakt ÃŃv
ĠR Ã³m
w er
Ġh ord
af ut
Ġszem pont
ĠD eb
Ġfell Ã©p
Ġaddition al
Ġs il
ĠP est
j Ã©ben
ĠK Ã¶zt
ĠJ ean
Ã¡pl Ã¡l
Ġ5 5
ĠB as
Ġap pl
Ġocc up
Ġmunk a
t est
ĠÃ©v tized
Ġsc ore
ĠJohn son
ill a
Ġkezd ÅĳdÃ¶tt
ĠO ther
Ġfre qu
ĠChic ago
Ġus ually
s Ãºly
ĠÃ¡t v
Ġpl at
Ġr Ã©vÃ©n
Ġse a
Ġfi Ãº
ec cs
im in
ĠhÃŃr es
el eb
ÃŃtÃ¡s Ã¡t
Ġr ag
Ġcy cl
Ġf Å±
Ġal sÃ³
Ġd eg
n ow
Ġ196 6
ad o
s em
Ã¶ ny
st ein
in ct
tain ment
f ok
ĠmezÅĳ g
Ġmenny isÃ©g
k en
Ã©v e
Ã©sz ek
Ġver esÃ©g
Ġk up
ĠAl bert
Ġm oney
Ġkit er
ĠBel g
Ġhaszn Ã¡lt
j ekt
b ury
Ġfem ale
Ġleg end
eszt ivÃ¡l
he im
ĠszÃ¡rmaz ik
Ġk ey
Ġfl ood
er Åĳ
Ġspec ific
ĠM ass
Ġes pec
Ġe mer
is er
Ġtelev ÃŃz
el le
ĠL ord
Ġdec ision
ĠBrit ain
Ġf ood
Ġc ur
Ġespec ially
Ġmunk atÃ¡rs
as ons
Ġegy ben
Ã¡ Ã©rt
ĠL uc
Ġpri or
Ġmegb ÃŃz
l op
Ġmeg le
ĠAssoci ation
Ġmind kÃ©t
Ġel kezd
Ġ6 4
ĠvÃ¡laszt ottÃ¡k
ly el
ĠtanulmÃ¡ny ait
ĠH orvÃ¡t
ĠF rom
Ġestim ated
an ish
mar adt
Ġkl assz
sz olg
Ġprodu ct
Ġv Ã¡rost
ad y
Ġmagaz ine
Ġ194 6
Ġcar ried
Ġsub ject
ĠB ig
Ġ4 3
Ġbajnok i
Ġd ram
ĠszÃ¡m Ãº
Ġstud y
ny al
Ġconst ruct
Ã¡k kal
w in
Ġm ight
ric s
Ġiss ue
ĠkÃ¶zep Ã©n
Ġremain ing
Ġe astern
Ġl Åĳ
p ire
in us
Ġs ometimes
Ġdefe ated
ĠP ri
19 4
Ġcs upÃ¡n
ĠtÃ¡rs asÃ¡g
zÅĳ je
Ġvad Ã¡sz
ugh t
Ġlar ger
Ġmegv Ã¡lt
ag n
Ġel ection
Ġbec oming
koz ott
sz ich
li ament
Ġ195 7
Ġsurf ace
ect ive
Ġfel kel
Ġd en
Ġsl ow
Ġappro x
ĠJap Ã¡n
ĠJ o
ĠO ld
ĠK al
Ġw ood
ĠMih Ã¡ly
ĠOly mp
Ġter rit
ĠkÃ¶ l
Ġad omÃ¡ny
ve y
kÃ¶z el
ĠA wards
ĠÃ©p ÃŃtÃ©s
Ġs Åĳt
ir th
ĠM anc
Ġent ered
Ġf ogy
Ġellent Ã©t
Ġ196 5
ĠH ow
sz Ã¡zad
ĠszÃ¡r az
Ġel terjed
Ġshow s
Ġ193 8
Ġ +
Ġf ÅĳkÃ©nt
en ge
Ġcommun ity
Ġsh oot
Ġszom szÃ©d
ĠsÃºly os
ĠK at
Ġjav as
r id
Ġsuggest ed
ĠÃº n
Ġcompl ete
k ar
mÅ±vÃ©sz eti
v ing
u Ã¡lis
Ġfelv Ã©tel
Ġmeg elÅĳ
kÃ¶ vet
Ġpol ice
p ing
oly g
b on
Ã©r ium
ĠW ood
ch ange
Ġl atter
anc ed
Ġ4 6
Ġez Ã¼st
Ġsur round
h ol
Ġhat Ã¡sÃ¡ra
Ã¡s Ã¡hoz
ĠE ar
ĠK an
er o
Ġrel at
Ã¡l ja
Ġel ny
ĠU t
19 7
ĠQue en
all ed
Ġpress ure
or ial
Ġb rief
al og
ert y
ĠdÃ¶nt Ã¶tt
Ġent er
Ġar rÃ³l
A S
Ġconc ert
ĠkÃ©ny szer
p Ã¡r
ect ing
Ġ 00
Ġp an
mÃ©r sÃ©k
ĠS om
Ġk Ã©s
Ġszerep lÅĳ
Ġmeg f
Ġszerk ezet
Ġmeg prÃ³b
Ġteam s
ĠszÃ¡zad i
ĠÃ¡ld ozat
h Ã¶z
ess ion
ĠCar l
Ġb ig
Ġ194 9
Ġstud ents
ro v
Ġf arm
ĠkÃ¶zpont i
ĠAn na
por ary
Ġsik ert
Ġsum mer
Ġconsid er
Ã¡ it
ĠlehetÅĳ vÃ©
Ġb ord
Ġac qu
Ġs Ã¶tÃ©t
Ġpr ison
ĠA pp
ly ing
Ġappoint ed
n el
Ġny erte
Ġsc reen
elv es
Ġdestroy ed
Ġbe jelent
Ã³ ra
ar ies
Ġz aj
Ġalk alm
Ġdisc uss
ĠOr szÃ¡g
f a
Ġel hely
Ġad tÃ¡k
Ġcomm ission
ol ic
Ġk Ã¼zd
Ġhely ezked
Ġam ount
Ġr iver
Ġle aving
on se
Ġsc enes
Ġs ize
Ġmag Ã¡n
ĠT own
ĠKÃ¶zt Ã¡rsasÃ¡g
ect or
Ġ196 2
Ġco up
is k
Ġs Ã©r
Ġf leet
ut as
ĠPart y
ĠSt an
ĠvÃ¡ros i
ĠtovÃ¡bb Ã¡
Ġinvest ig
ĠF re
Ġst aff
Ġlim ited
Ġr Ã³l
Ġsc ript
ol k
az z
ĠA ut
ĠBudapest en
Ġw inning
ul ated
Ġter em
il ly
b esz
egy etem
il ities
ĠTex as
Ġ19 19
ĠK l
ĠKirÃ¡ly sÃ¡g
Ġd raw
Ġepis odes
Ġhi Ã¡ny
Ġ196 3
Ġcsatlak ozott
ĠnyÃŃ lt
mag as
ines e
ĠNy ug
z ott
ĠkÃ¶z Ã¶n
Ġmind Ã¶ssze
Ġj ud
ĠL ab
iz Ã³d
Ġmunk Ã¡s
end s
Ġmin im
onn an
ĠmÃ©rkÅĳzÃ©s en
in y
Ã¶rt Ã¶n
Ġlegy en
Ġk id
h u
ĠkÃ¶ tet
Ġelfog lal
Ã¡j Ã¡n
Ġprov ide
Ġs elf
Ġg it
Ġg irl
Ġfek vÅĳ
j akÃ©nt
ĠB ow
w ell
Ġb ow
ĠH ist
Ġfin an
ĠszÃ¡rmaz Ã¡sÃº
Ġover all
ens ion
ter Ã¼let
Ã¡v ol
M S
ĠkÃ¶rÃ¼l belÃ¼l
sz Ã¶g
Ġchang es
Ġ ÃŃtÃ©l
Ġtart oz
ĠvilÃ¡g bajnoksÃ¡g
Ġd ate
ig ade
ab ban
er ve
Ġjel Ã¶lt
Ġfav or
Ġ16 0
Ġagre ed
Ġb Å±n
c a
m itted
Ġfil ozÃ³
at ai
Ġbo x
r Ã©t
ograp hy
h ad
ĠAd am
Ġro om
Ġrun ning
Ġv ia
ĠL aw
ĠÃ¶ssz ek
Ġcer tain
am in
osz lÃ¡v
Ġprop osed
ĠEl Åĳ
ĠP i
Ġmegy e
Ġint ended
kel et
Ġte xt
ĠL ong
ĠO rosz
im ate
ĠcÃ©l ja
vir on
d i
ĠlÃ¡t ogat
Ġnyelv Å±
ad ian
ig a
Ġnear ly
Ġint ell
ĠÃ³ r
Ġmeg kap
Ġhel ped
Ġtart ottÃ¡k
Ġkor ai
Ġdiv ision
p ad
ĠW ind
Ġp urch
Ġhagy omÃ¡nyos
Ãº ttal
Ġtrans port
ĠB art
Ġw ide
ĠSp anish
Ä į
Ġsupport ed
Ġequ ip
Å± k
Ġny ar
Ġsp ir
b Ã¡n
Ġer Åĳd
ĠÃģllam ok
eth ing
ĠkÃ¶lt Ã¶zÃ¶tt
Ġh am
ĠG ra
Ġl ass
Ġright s
i att
ÃŃtÃ¡s Ã¡ra
ic ation
ol es
ĠBÃ©l a
3 3
Ġ195 8
Ġpol ic
il s
Ġhely szÃŃn
u ing
ĠmegÃ¡ll ap
oc rat
ĠszÃ¡rmaz Ã³
o o
ĠC a
ĠtÃ¡m adÃ¡s
ĠW al
sÃ©g gel
Ġg ar
Ġ5 2
ĠB ank
ĠrÃ©sz let
Ġtyp e
Ġbroad cast
re p
ĠB on
Ġrend ezÅĳ
Ġeffect s
Ġn atural
Ġlegf ontosabb
ĠkÃ¶l cs
a ult
Ġag g
Ġresp onse
Ġtem per
Ġda ughter
Ġd ark
Ġint ens
Ġalak Ãº
ĠCent er
ĠL ake
Ġteljes ÃŃtmÃ©ny
ĠF orm
en ing
Ġel puszt
Ġwrit er
ĠK ent
Ġ12 0
Ġlem ond
Ġb ÃŃrÃ³
et eg
es ked
Ġsiker es
ĠV el
k Ã¡n
Ġre act
Ġinflu ence
Ġcre ate
ad ott
ic les
it Ã¡ny
ĠT rans
Ġf unk
t Ã¶rtÃ©n
n Ã©v
A t
id ents
iskol a
Ġh ab
Ġam b
Ġv Ã¶lgy
Ġp ill
Ġl ay
Ġmeg rend
Ġev ang
9 0
ĠH it
Ġ194 7
Ġep izÃ³d
ĠSov iet
mÅ± vel
ink Ã¡bb
es k
Ġhason l
Ġcommer cial
ĠH aw
Ġjel Ã¶l
ĠkÃ¶vet Åĳ
ĠD ar
Ġ191 4
ĠJos eph
Ġmeg kezd
Ġmov ement
ous ly
Ġtud omÃ¡ny
ĠCh inese
ĠpÃ¡p a
z Åĳk
Ġstruct ure
ĠC ouncil
Ġk g
Ġst ay
Ġv Ã¡sÃ¡r
Ġsus p
ek bÅĳl
Ġ196 1
c y
el ni
Ġcapt ured
Ã³l ag
l av
ĠÃ¡llam i
Ġcs ata
Ġkor lÃ¡t
ĠelÅĳ re
ĠEn d
Ġmar ried
ut er
Ġcomp ared
Ġm ur
ost or
ĠLe e
ĠI ll
Ġplann ed
Ġmely ben
Ġf ans
Ġst ars
ĠIn f
Ã³g Ã©p
ĠAmer ikai
Ġbron z
Ġir Ã¡nt
Ġincre asing
Ġlong er
mÃ©rsÃ©k let
Ġb ird
gy ek
kÃ¶ nyv
Ġbizt on
ĠmÅ± ve
ĠInt Ã©zet
Ġk ir
ĠterÃ¼let e
en nyi
Ġmeg fi
ĠH at
ik t
hat atlan
Ġtart Ã³
sh ire
ĠAtlant ic
Ġtart otta
ĠintÃ©z mÃ©ny
ĠH or
il es
Ġhigh er
Ġchang ed
ĠPac ific
Ġar Ã¡ny
ict ed
Ġfif th
Ġapprox imately
ĠkÃ¶lcs Ã¶n
b ers
ÃŃt ik
k an
s elves
Ġd one
vÃ©d elmi
raj z
th ing
and ed
ail ed
Ġcour se
ĠJ ones
o is
Ġfolyamat osan
ĠSt ep
Ġaward ed
Ġk ocs
Ġp en
Ġte het
oz Ã¡sa
osp ital
Ġexperi ence
and id
Ġn ar
ĠemlÃŃt ik
Ġconc lud
Ġfel nÅĳtt
ĠO ver
Ġthem selves
Ġolimp iai
Ð µ
ĠCl ark
ĠtÃ¡rs adalmi
Ġl iving
Ġmost ly
ĠKol ozs
Ġut Ã³d
ĠM att
qu es
Ġarch it
Ġm Ãºl
Ġem elked
Ġatt ract
Ġen s
jÃ¡r at
Ã³ sÃ¡g
ĠkÃ¶z eli
ĠM os
Ã©s Ã©ben
Ġwith d
Ġdis s
itt ing
Ġenged Ã©ly
19 6
om es
Ġz Ã¶ld
ĠFlor ida
v ez
ĠT op
ĠH on
Ġde ad
or f
alm Ã¡t
Ġlangu age
ug e
Ġob s
i que
Ġbr ing
m is
2 2
ĠWilliam s
ĠGro up
Ġvagy is
re ak
ĠCar ol
ĠF in
ĠW all
ĠF red
ĠS a
Ġw oman
ĠCent ral
ound s
Ġszav az
ĠT y
l ament
ĠGeor g
ĠkÃŃv Ã¡n
Ġth us
p Ã¡ly
ĠmÃ¶g Ã¶tt
Ġremain s
on ic
Ġpl Ã©b
Ġutc a
Ġm it
Ġ195 3
ĠB ra
Ġsp ace
ak kal
Ġst Ãºd
ĠkÃ©sz Ã¼l
Ġkor szak
Ġcop ies
Ġ195 4
ĠNemzet kÃ¶zi
. -
3 5
Ġprob ably
Ġsold iers
Ġeset Ã©ben
Ġmed ia
ĠSec ond
Ġt Ã¡plÃ¡l
Ġrel ated
ĠtovÃ¡bb ra
ow ers
ĠterÃ¼let en
Ġre ally
Ã¡l Ã¡s
ian o
Å±n ik
ĠAr ch
Ġwe ap
ĠS ol
ĠR ail
Åĳd ik
Ġ ere
Ġstand ard
Ġterm Ã©k
c cs
m eg
ap h
Ġb oy
Ġr ank
Ġext ended
Ġerd Ã©lyi
ĠÃ©r z
Ġcs eh
ĠkÃ¶z re
Ġfor ward
Ġbre ed
Ġgu itar
Ġth r
Ġc al
ĠtÃ¶rtÃ©n elmi
Ġhamar osan
Ġif jÃº
ost on
ir Åĳl
Ã¡n k
ĠE arth
Ġk Ã©m
ĠK Ã¼l
Ġle arn
ĠSe a
Ġsuff ered
Ġrend ez
ro t
Ġk astÃ©ly
Ã¡p oly
ĠkÃ¼l fÃ¶ldi
f Åĳ
ĠM Ãºzeum
en cs
Ġwhe ther
Ġh ozott
ak ter
ĠT im
pl es
Ġ17 6
Ġh ot
Ġk ider
Ġ17 5
Ġ195 2
ĠMind en
and a
ĠorszÃ¡g os
ja it
Ð ½
Ġre j
Ġhe av
Ġch all
Ġbec s
k utat
Ġfeat ure
ĠÃ¡t alak
Ġbo ard
fog lal
Ġc eleb
ĠJ an
Ġtrack s
Ġimmedi ately
Ġel jÃ¡r
Ġ193 6
Ġdep art
Ġf ace
ecs k
m unk
ĠR og
ĠvÃ©d elm
Ġo ur
ĠS il
Ã©l t
t i
ĠKÃ¶z Ã©p
Ġh Ãºz
Ġes ett
Ġkult urÃ¡lis
Ġfel b
Ġbl ock
Ġbuild ings
v Ã¡j
Ġraj ta
Ġ195 9
Ġiss ued
Ġv oice
ĠI z
c hen
em an
Ġc ann
Ġc it
ik Ã¡t
ĠJ ac
ord in
ĠpÃ¡ly Ã¡ra
Ġaut Ã³
Ġcent imÃ©ter
ĠS erv
ce an
orn ing
Ġquar ter
o ch
ĠÃ©let Ã©t
or Ãº
ĠK e
ĠO b
ĠC D
ĠCh ris
ĠAr m
ÃŃt hatÃ³
Ġjelent ette
g it
Ġoper ations
Ġelv eszt
Ġmix ed
ĠF ox
Ġhat alom
Ġlead er
Ġmanag er
Ġm ach
ĠD ani
Ġem b
ĠB ab
h ood
Ġlegal Ã¡bb
r as
ab ility
Ġcap ital
Ġcurr ent
H L
eml Ã©k
ĠkÃ¶r ben
ant asy
Ġkeresked elmi
ĠSz Ã©k
r idge
Ã©ny ek
ter em
tain ed
Ġbatt les
Ġ6 00
Ġcount ries
Ġdi Ã¡k
ol jÃ¡k
Ã¶d ik
Ġlik ely
ĠO x
Ġremov ed
th ur
Ġle ave
Ġcomp lex
ĠhÃŃ d
Ġun s
ĠV iet
u j
ik at
Ġpriv ate
Ġsubsequ ently
ĠtÃ¡bor nok
ĠS ok
Ġherceg nÅĳ
Ġincre ase
l ie
in son
Ġfolytat ta
Ġun it
ion ed
Ġoffic ers
ĠT erm
ĠW ales
Ġinit ial
ĠÃ ĵ
ven ue
Ġmozd ony
sz ter
Ġad op
ĠD am
Ġvis it
m egy
ĠS ur
ĠCong ress
Ġal ways
r Ã¡d
Ġim pl
g ing
ĠtÃ¡rgy al
ĠSt one
osz k
Ġmeg alak
ĠrÃ³l a
ĠJ ew
Ġki adÃ¡s
Ġdem on
ĠgÃ³l t
Ġk op
ĠJ en
Ġnev ezte
ĠvÃ¡ros ban
iszt Ã©rium
Ġk an
Ġpl ant
Ġsup pl
ĠF ollowing
Ġs al
Ã¶ p
ĠManc hester
Ġost rom
k o
Ġkik Ã¶t
ĠSc ot
Ġoff ered
Ġreform Ã¡tus
Ġ17 0
oll ing
Ġn etwork
Ġlak Ã³
j Ã¡
Ġex ped
ĠT ime
ĠÃ¡ gy
Ġt ons
Ġmat emat
Ġ195 5
kor ban
ad ium
Ġah ogy
h od
ut t
Ġmag uk
ĠCh ina
Ġgo als
ĠF ed
Ġt rib
Ġb Ã¡rm
Ġt Ã¡nc
ĠP enn
ĠD en
ik er
Ġpl ans
Ġkat eg
d y
ĠvilÃ¡g bajnok
Ġvill age
Ġforr Ã¡sok
Ġsom ething
Ġirod almi
Ġcomp an
Ġinclud es
Ġb ad
Ġstat us
Ġly rics
Ġseb essÃ©g
ĠmegfelelÅĳ en
Ġhely Ã©n
Ġsz ik
ĠM od
Ġappro ach
o j
kod ott
ĠR od
ĠFrancia orszÃ¡g
Ã¡k ban
ĠP op
Ġhe alth
ĠÃ©r vÃ©ny
Ġloc ation
im a
Ġm om
Ġmajor ity
Ġcol on
ĠorszÃ¡g gyÅ±l
ĠK ÃŃn
ony i
Ġcon fl
ĠB ell
Ġsy n
Ġdam aged
Ġprobl ems
l oy
Ġ193 7
s ek
ill s
Ġc anc
Ġfl ag
g en
et Ã©t
Ġindivid ual
D uring
zs Ã©b
Ġkeret Ã©ben
Ġv Ã¡d
Ġelm ond
raj zi
k ett
ĠI l
Ġ5 6
ĠB ern
Ġkor on
ad ed
nev ezett
Ġhossz abb
Ġi gyek
ac hes
ĠCan adian
Ġre fl
Ġmin ute
at o
v it
d own
ĠG Ã¡bor
Ġadmin ist
ĠÃ¡ll omÃ¡s
2 1
Ġmeet ing
Ġg am
kez Åĳ
Ġel s
Ġm ol
Ġterm s
ĠB ec
Ġhal ad
Ġkin ev
f act
Ġc ounter
ĠL es
if y
ri age
at ory
v in
ĠW in
t enger
ÃŃt ve
ĠÅĳ sz
ar Ã¡nt
Ġhaszn Ã¡ltÃ¡k
Ġkapcsol atban
Ġb ÃŃ
Ġed dig
ĠH u
ain e
ĠS um
ĠAfric a
um ed
h ere
ĠbÅĳ v
Ġj un
ug oszlÃ¡v
ĠIt s
Ġcons ist
ul Ã¡sa
c an
ĠB ul
d es
Ġ5 4
Ġideg en
Ġreveal ed
l im
Ã³ri um
Ġ195 1
ĠHigh way
olÃ³g us
am i
Ġc ause
Ġmod el
Ġconf ir
oll Ã©g
Ġserv ices
ĠBer lin
ĠAz onban
Ġ191 7
her ceg
ass a
Ġgr and
b Ã©
ĠL ater
ĠAs s
Ä ĥ
Ġez eket
ĠAn n
ĠmÃ³d os
Ġg al
Ġ Ã¡s
ĠO ut
ĠfelesÃ©g Ã¼l
E l
j og
Ã¡m os
ĠnÃ¶v eked
eng ed
Ġpi ac
Ġran ked
k Åĳ
Ġdist rib
el e
Ġm akes
ĠN ic
Ġint eg
Ġ ÃŃz
ĠJ ud
Ġe bbÅĳl
ĠhasznÃ¡l jÃ¡k
Ġsz im
Ġattack s
Ġra ised
Ġtor ped
Ġdisc overed
Ġtud Ã³s
uk t
ĠtermÃ©szet es
Ġneed ed
Ñ Ģ
Ġki b
Ġfelel Åĳs
ĠK ap
Ġrespect ively
viron ment
Ġt Åĳ
ri al
ĠelÅĳ adÃ¡s
Ġprofess ional
Ġazon nal
Ġszer et
r ak
ĠÃģ r
se b
Ġappear s
Ġd omb
ĠS quadron
ĠO h
Ġattack ed
Ġfl ight
Ġconc ept
Ġtak es
Ġdr Ã¡m
Å Ĥ
Ġl ived
ĠL atin
qu ar
ĠVÃ©g Ã¼l
ers ey
sÃ¡g os
ĠSz ovjet
Ġt eng
Ġlaun ched
an ia
Ġfoly t
Ġnum erous
Ġnyelv en
Ġf eny
Ġdok ument
Ġs pl
ĠN ot
Ġattempt ed
ĠJ on
ub e
ĠAkadÃ©m ia
Ġa bb
Ġmov ing
ul e
Ġab s
ĠS imp
ĠelÅĳ zÅĳ
Ġinsp ired
Ġoccur red
ĠF est
Ġg ot
ri ai
Ġegy arÃ¡nt
Ġup per
szak i
Ġs ors
ĠB oth
Ġtap asztal
j en
gy Ã¡r
Ġmagyar orszÃ¡gi
aj a
Ġb Ã¶rtÃ¶n
rem e
Ġf er
ĠÃ¡r am
ing er
Ġy et
Ġalk almas
ĠF C
Ġg imnÃ¡zium
ĠRuss ian
Ġr ab
Ġassoci ated
ĠtÃŃpus Ãº
ĠR ay
ĠcsÃ¡sz Ã¡ri
ĠA rab
ĠegyhÃ¡z i
Ã¡sa it
Ã©ly es
Ã©k et
ĠC he
Ġklassz ikus
ĠAr g
sp ap
Ġtesz i
ĠhÃŃ m
ĠÃ©v en
ur ies
um n
Ġmaxim um
3 2
ĠÃºgy nevezett
ĠT Ã¡rsasÃ¡g
Ġ193 5
Ġacc omp
ĠMar c
Ġco ach
ĠD ist
ĠrÃ¶g z
Ġsec ret
Ġsl ight
ĠÃģllam okban
ĠGy ula
ĠS port
ĠIm re
ĠFer din
Ġtal Ã¡lt
ĠEm pire
art Ã³
m ai
Ã¡ciÃ³ t
j oy
Ġtart Ã³z
Ġv eh
ĠHar ry
Ġs ales
het i
Ġro y
19 5
Ġegyik e
ĠkÃ¶lt Åĳ
Ã¼l Ã©se
ort un
Ġho ur
Ġre jt
l ist
Ġbud dh
Ġsh own
Ġ184 8
ĠÃ©j szak
Ġy ards
Ġforr adalom
Ġn ature
Ġalap ÃŃtott
Ġment Ã©n
ĠCol umb
ell ow
Ã©ny i
Ġpr inci
Ġfin ally
Ġcond itions
A r
ĠJ eff
l eti
Ġs vÃ©d
any ja
iz ing
ÃŃ li
eg Ã©sz
Ġt Ã¼n
Ġresult ed
ĠLen gyel
ĠC amb
Ġleg inkÃ¡bb
Ġsmall er
p at
sz al
uk ciÃ³
Ġob ser
ĠidÅĳszak ban
Ġdefe at
Ġb irth
Ġp le
ĠD ev
Ġwh ole
2 4
2 7
i Ã¡lis
Ġaut om
Ã ¢
v ad
ĠNÃ©met orszÃ¡g
at re
ĠC ath
ĠHen rik
Ġcomp osed
Ġan ny
ĠtÃ¶lt Ã¶tte
ny om
ain ing
fel Ã©
ĠhÃ¡zas sÃ¡g
Ġinc or
Å į
Ġnev Ã©n
Ġis ten
Ġazt Ã¡n
igh ter
ĠvÃ©g ig
ĠC ons
v eg
ur ity
Ġcer em
re z
ĠvÃ©g et
Ġ192 9
p ool
ĠM int
Ġoper a
Ġd om
Ġez red
Ġrefer red
Ġp air
Ġne hez
Ġd raft
Ġlar gely
Ġfor e
Ġszerep l
Ġa w
at ikus
Ġcrit ical
Ġh olland
Ġsel ected
ĠFI FA
ĠTan Ã¡cs
oz ni
Ġh ip
ic i
Ġmegy ei
Ã¼ m
n Ã¶v
v ÃŃz
ĠP ers
Ġkiem elked
en ant
Ġ193 3
ĠEnter tainment
Ġstr at
Ġprog ress
r ol
Ġfigy elm
hat nak
ez ve
Ġt Ã¡b
Ġn ort
Ġear ned
ĠMad onna
ĠB BC
Ġt ran
Ġv ast
old al
Ġj Ã©g
ut ch
ram m
Ġass igned
ĠCor ps
Ġact ive
Ã¡j Ãº
Ġs ÃŃk
ag ing
ĠI d
Ġexp ected
Ġsing er
Ġrend ezett
Ġro kon
Ġcomment ed
Ġel ind
Ġel ected
ĠÃ©rdek lÅĳd
onal d
Ġport ray
Ġun able
ic an
Ġgyors an
ĠTe am
Ġs cient
ĠR y
Ġfel Ã¼l
Ġzen eszer
Ġh ib
Ġsz Ã¼lÅĳ
Ġm eccs
Ġfoglalkoz ott
j es
ĠtÃ¶bb nyire
ĠtÃ¶rtÃ©n Åĳ
Ġfel Ã©ben
Ġaudi ence
Ġg re
ĠkÃ©p est
C A
ĠN B
ru e
ĠAn ton
Ġas p
ĠGre ek
ac her
ĠG all
Ġtart jÃ¡k
ĠlÃ©tre j
ĠM any
stit ute
ĠSz eged
Ġb Ã¡ny
em plom
Ġref used
Ġfriend s
Ã¡ll t
ĠÃ¶ssz et
ĠkÃ¶z igazgat
h uz
Ġs af
ĠAc ad
Ã¡z ott
Ġmeg m
ĠS at
int e
ĠL ev
Ġm ission
ik et
ĠB raz
ĠA h
Ġindust ry
Ġoper ation
Ã¡rÃ³l ag
inn er
ĠÃ¡ll ÃŃt
olÃ³g i
Ã© Ã©rt
th let
ĠA v
Ġleg is
Ġinform ation
Ġsc hed
Ġnap ig
ĠÃ³ ra
Ġart ist
Ġm ale
3 7
Ġ8 5
Ġprom in
Ġ19 00
Ġhe art
Ġviszony lag
ĠItal ian
sÃ©g Ã©nek
ĠI S
Ġ Åĳk
h ouse
Ġg ran
Ġiss ues
ĠÃ¶ssz ef
ĠStep hen
ĠÃ©v esen
Ġcl osed
Ġm Ãºzeum
ĠN i
Ġal t
Ġg azdasÃ¡g
oll ed
Ġtal aj
as i
elÅĳ d
ĠM ot
Ġhang szer
Ġp szich
Ġnum bers
ur b
Ã¡ny i
Ġk ever
Ġtr ade
Ġto uch
olg Ã¡r
Ġatt ention
Ġcontain s
Ġorv os
Ġnap on
Ġkult Ãºr
h arc
Ġrendelkez ik
Ġpur p
ĠkÃ¶v ette
ez Åĳk
Ġc ikk
it ude
Ġme ant
p i
ĠEr zsÃ©b
Ġtradition al
ĠlÃ©t es
Ġdep ression
haj Ã³
ĠmÃ©ter es
Ġid Ã©ny
ĠOlasz orszÃ¡gban
Ġen joy
dÃŃj as
ĠV ol
Ġs ister
Ġdeb Ã¼t
Ġc overed
Ġhely eztÃ©k
3 8
ro ad
Ġtest vÃ©re
ĠMich igan
Ġk ind
Ġad at
ĠlÃ©ny eg
Ġcsap ata
Ġnew spap
Ġm ount
ĠM Ã©g
Ġmult ip
ro b
ĠL and
u v
Ġcont em
Ġfran ci
Ġegy Ã©ni
ĠL y
Ġhely ezett
Ġdoub le
Ġle Ã¡ny
ĠvÃ¡l asz
s k
ĠM en
ann el
ĠW ay
ĠpÃ¡ly afut
Ġl ez
Ġip ar
un a
ĠT ay
Ġa band
Ġre ason
Ġ192 8
ĠkÃ©t szer
Ġv Ã¡g
og ue
Ġab ility
Ġprim ary
Ġszenved ett
Ġ193 4
Ġ192 1
ĠIst en
Ġfight ing
ag Ã³g
Ġfilm ben
Ġv ettÃ©k
Ġdecl ared
ebb i
ag an
Ġex am
ĠF our
ĠBe at
ĠS i
ab eth
ezÃ©s Ã©t
Ġmegh al
und red
Ġg iving
Ġmet hod
Ġr u
r Ã³
Ġinter s
Ġund erst
az on
Ġel ej
Ġo da
Ġind ic
er a
Ġelm Ã©let
Ġch ief
Ġ16 8
Ġbl ood
Ġimp act
ĠV ilÃ¡g
Ã©ny es
Ġlist ed
Ġ9 5
ian a
kÃ©p pen
Ġ5 8
Ġrap id
ing u
Ġam inek
at Ã³
2 6
Ġm iddle
Ġcommand er
Ġoffic er
ĠSo ciety
kel eti
Ġh Ã³d
Ġalap vet
ĠÃ©rd em
ĠD or
Ġs en
Ġpar lament
Ġ5 7
kÃ¼lÃ¶n b
v Ã©g
Ġl es
magas abb
Ġg er
ĠkÃ©p essÃ©g
ĠB ad
Ġle b
Ġrep Ã¼l
Ġfel dolg
for g
ĠP ier
Ġmegt art
Ã©t a
Ġelv Ã©g
Ġkar akter
Ġsz ig
Ġw ord
b it
Ġvezet Ã©sÃ©vel
Ġ4 1
Ġad j
Ġvon ult
ĠK enn
Ġnap pal
Ġrelig ious
Ġsz Ã©n
et ic
ĠE ver
ĠM unk
isc o
A T
ĠM ax
Ġconfl ict
Ġr ate
ĠL ip
Ġplat form
ĠUn der
hip s
Ġser ious
Ġpl ot
ĠÃ³ ri
ĠI ly
ai ban
ĠS pr
it ÃŃv
Ġz Ã¡rt
ap ed
Ġsett l
Ġbel ow
ĠV i
Ġdis app
vÃ¡ros i
Ġ25 0
ĠF oot
Ġprodu ce
Ġ191 5
Ġlov ag
j Ã¡vÃ¡
ra i
Ġ8 00
ĠT w
ĠC ont
ĠY ear
t ettÃ©k
ep p
Ġaband on
od ies
ak a
Ġb Åĳr
d el
Ġnem csak
ã ĥ
Ġmeg ismer
Ġestabl ish
ĠC orn
ĠSz ab
Ġgy alog
Ġl er
Ġ192 6
et her
Ġleg k
ĠBr ad
ĠorszÃ¡g ban
Ġdis play
od a
Ġ193 2
Ġal ig
Ġ192 5
it ation
sz Ã³
ĠS ta
ound ed
Ã §
l am
Ġmag n
Ġtud ja
ĠOx ford
sz ab
ĠZ eal
Ã¡ szt
Ġb Ã©csi
Ġlak ott
ai re
ĠG ard
Ġd ance
ĠÃºj jÃ¡
ir es
Ġ) ;
ly wood
Ġfel szÃŃn
Ġszer zÅĳ
ell er
Ġ192 7
oz za
ab in
ĠR Ã¡k
Ġkiv Ã¡lÃ³
old og
ĠS av
ĠX I
t Ã¶r
ad el
kÃ¶ t
Ġconstruct ed
ĠM ir
ĠM ah
ĠlehetÅĳ sÃ©g
Ġbook s
Ġtra ff
Ġfel Ã©p
ĠNew s
ak ban
Ġkateg Ã³ri
sz eg
Ġ191 6
ĠAn other
Ġaz Ã³ta
Ġcompet ition
Ã³d i
ĠCre ek
Ġjob ban
ĠG ood
ĠkÃ³r hÃ¡z
ĠK im
Ġl Ã¶v
Ġpo szt
osaur us
Ġn ecess
ikus ok
Ġk Ã©k
Ġm anu
Ġcont act
Ġy ard
l as
l ok
Ġ191 2
ĠV ar
Ġâ Ī
ish op
Ġnear by
Ġszez onban
Ġhigh ly
Ġkon z
Ġt Ã©rt
Ġmat ches
Ġlehet sÃ©ges
Ġaz okat
Ġo vers
Ġcontin ue
Ã©s en
sz ent
hett e
Ġszabad sÃ¡g
ĠR aj
sz ki
ĠViet n
um a
Ġcap tain
Ġthem e
Ġ Ã©re
3 4
Ġt Ã¼
Ġn Ã©m
l ay
ĠAfric an
Ġmeg egy
Ġk egy
Ġp ontos
ĠC as
Ġlev Ã©l
Ġ Ã¶lt
Å± ek
Ġad ult
Ġtav asz
Ġs av
j Ã©vel
ic ip
ĠEz Ã©rt
Ġmik Ã¶zben
ÃŃt Ã³ja
Ġgy Ã¡r
Ġford ulÃ³
ĠEgyetem en
Ġ6 6
Ġok level
Ġsepar ate
ĠZeal and
Ġel kÃ©p
ĠX V
ĠS and
Ġcomb at
Ġred uced
ĠK a
Ġ193 1
Ã¡n ia
ab eli
ĠnÅĳ tt
vent ion
Ġdoc ument
ov ers
Ġtri ed
Ġtal Ã¡n
ĠDeb rec
Ã¡nd Ã©k
ĠÃ¼t kÃ¶z
Ġw atch
ĠB oston
s ch
ro vers
Ġalak ul
ĠP ost
Ġrecord s
ÃŃtÃ©s Ã©re
ĠMin ister
Ġdire ction
ew ay
ĠÃ¶t Ã¶dik
dÃŃj at
ĠgyÃ³gy szer
ĠF inal
Ġen ergy
Ġjelent i
Ġp Ã¡ros
ĠM ike
Ġlett er
Ġatt ended
Ã¡s nak
ĠTudomÃ¡ny os
Ġlevel s
Ġ13 0
Ġeduc ation
Ġ192 2
Ġbesz Ã©d
Ġpresent ed
m as
ÃŃt Ã©st
Ġpoz ÃŃciÃ³
ĠvÃ©l emÃ©ny
ĠT ar
Ġ192 4
S C
ĠL ew
os abb
Ġp et
Ġdirect ly
ĠpÃ¡r huz
Ġn uc
ĠszÃ¡mÃŃt Ã³gÃ©p
ĠF ar
Ġaccept ed
ĠmÅ±kÃ¶d ik
Ġann ual
Ġn ames
Ġcs om
Ġsug Ã¡r
ĠSh ow
ĠelÅĳ fordul
Ġlett ek
ĠPar is
Ġtw enty
Ġst ep
ĠMex ico
alt y
Ġtra in
Ġkiz Ã¡rÃ³lag
Ġ7 6
Ġne igh
Ġf ast
ug Ã¡l
Ġcent re
ĠjÃ³ val
sy ch
3 6
ĠmÅ±kÃ¶d Åĳ
Ġad apt
4 4
ĠÃº ton
Ġzen e
Ġn ation
Ġim press
ĠDem ocrat
gy es
Ġ191 3
Ġf Ã©m
ĠG en
se h
Ã¡l ni
r ight
Ã¶m b
h hez
Ġ Ã©t
ĠHab sburg
Ġm ob
Ġf ill
Ġh ors
Ġst ating
Ġme ans
ĠV I
u als
Ġl it
3 9
ĠIn n
Ġpop ul
ĠDep artment
rod almi
u zs
Ġfel Ãºj
sÃ¡g Ãº
Ġre in
Ġpolg Ã¡r
Ġszo ci
gy Å±jt
ĠAd mir
ĠEl iz
Ġlab or
au x
ĠBiz ottsÃ¡g
Ġalk alma
ĠmÃºl va
pr ise
Ġterv ezett
ĠErzsÃ©b et
Ġfolyam Ã¡n
Ġpract ice
sz ere
Ġkil omet
w ide
omb at
Ġth ick
asz k
ett y
Ã ´
lov Ã©n
um ber
ĠK h
Ġun ok
Ġf res
Ġse em
at ives
yl van
ĠB us
Ġcomp os
ĠelÅĳtt i
u ce
l ike
eni or
Ġdemon str
ĠMar ia
ĠV ik
Ã³ ba
Ġis t
Ã¡nc Ã©l
ie ut
Ã¨ s
ess Ã©
het nek
ĠJ oe
ĠvÃ¡lt oztat
Ġfogy aszt
Ġroy al
Ġs cience
Ã¡s on
Ġkol ostor
ĠkÃ¼ld Ã¶tt
ĠcÃŃ mer
l ight
Ġbe at
4 9
Ġmov ie
elem ben
ĠP Ã¡rt
Ġc andid
Ġel Åĳl
Ġman aged
Ġsz il
ĠB C
Ġr at
ĠB ru
Ġa rab
Ġd ed
Ġfest Åĳ
ĠPr ince
ĠSec ret
h ossz
ĠC ross
ĠG ames
Ġdro pped
p Ã¡rt
Ġszerep e
Ġb it
Ã¡s uk
Ġcoll ege
2 9
ĠerÅĳs en
2 8
av en
ri z
Ġpos itions
Ġarchit ect
Ġinc hes
Ġshow ed
ess el
Ã ¸
Ġf ot
isz er
ĠT ok
Ġrec omm
Ġend ing
or ter
Ġf Ã¼r
ans ion
Ġin side
ĠJ elen
Ġfav our
Ġt alk
b iz
ĠvÃ©g e
Ġresult ing
Ġav oid
Ġminiszter elnÃ¶k
Ġb ul
ill ery
ĠvÃ¡laszt otta
Ġ Ã¶v
Ġd alt
is ions
Ġjelent Ã©se
2 3
Ġk ept
Ġ9 7
Ġc ust
r ical
Ġki Ã¡llÃŃtÃ¡s
Ġm orning
Ġp urs
Ġc ik
Ġpre mi
Ġm Ãºlt
ĠZ olt
Ġkiv Ã©tel
Ġrespons ible
Ġs okat
ĠSt r
Ġv e
4 5
T C
ĠH ard
ĠScot land
r Ã©g
ceed ed
Ġeffort s
c le
f ehÃ©r
Ã³k kal
Ġexc ept
hely i
Ġschool s
Ġpre p
ĠP u
at Ã³rium
Ġdis m
Ġkifej ezÃ©s
E z
ĠV en
Ġkap tak
ĠszÃ¶vet sÃ©ges
Ġcycl one
ĠK ong
ub a
orv Ã©g
int end
ĠÃŃr Ã¡s
el Ã©se
ot i
ĠB a
Ġmegfi gyel
rup t
ĠAl f
d on
Ġincor por
ut ions
Ġho uses
ĠÃ©l Ã©n
Ġst ra
Ġbeg ins
alm ak
ĠSim on
ĠThe ir
ĠfilozÃ³ f
Ġv ul
Ġkiter jed
cs alÃ¡d
is a
m ark
Ġcont rovers
Ġf Ã¡j
Ġb olyg
Ġc ell
est i
ĠszolgÃ¡l at
as es
Ġhe n
T E
ĠK om
Ġun ivers
Ġsz lovÃ¡k
ĠT it
ĠM em
Ġ5 1
Ġa ud
eb all
tr ack
ĠM useum
Ġbev ezet
Ġm and
ĠSzovjet un
ĠS S
ad ja
Ġcontin ues
Ġlev eg
ĠTay lor
Ġmar riage
ed s
ĠB et
ĠJ ak
Ġen vironment
Ġ14 0
per or
Ġany ja
ĠprÃ³b Ã¡l
an na
f ect
Ġm ess
aszt ia
il ton
Ġleg gy
ĠL ittle
Ġn Åĳk
Ġobs erv
Ð ²
nyug ati
ĠF i
ĠtÅĳ le
ci p
k es
Ġfolytat ott
ĠF ri
ĠlÃ¡t ta
ĠOrszÃ¡g os
Ġo il
ra el
Ġk ies
ĠT ov
A mer
Ġintell ig
Ġvari ety
Ġmean ing
ok ba
elÅĳ le
t ag
Ġk Ã³d
ĠjelentÅĳs en
Ġrom ant
ĠH olland
Ġch ampionship
ent al
al att
ad ion
us k
zt ak
Ġd ial
ĠMar sh
ent r
Ġsch ol
Ġed ition
k n
ett Åĳl
Ġmark ed
Ġt eszt
ĠL ind
Ġegym Ã¡ssal
Ġrep e
m on
Ġcas es
ĠDis ney
Ġm es
e es
lt al
Ġhivatal osan
Ġelv esz
Ġperforman ces
g r
Ġad tak
ib ly
Ġmarad vÃ¡ny
Ġbatt al
Ġmegkap ta
Ġber end
Ġb elÅĳle
Ã©s ei
Ġfel Ã¼let
Ġa pr
szt Ã¶n
us a
ieut enant
ill er
Ġkiad ott
Ġcsat Ã¡ban
ĠkÃ¼lÃ¶n leges
gy Ã¡rt
Ġmeg Ã©r
Ġk iss
ĠhÅĳ mÃ©rsÃ©klet
ian ce
Ã¼gy min
ĠL or
Ġseg Ã©d
ĠÃºt vonal
Ġ x
Ġview ers
Ġigazgat Ã³ja
Ġ192 3
ĠgyÅ±jt emÃ©ny
Ġapp ar
t y
ĠkÃ¼lÃ¶n fÃ©le
Ġallow ing
f Ã©r
Ġjelent ek
Ġh undred
ony ol
Ã©s nek
lalt Ã¡k
Ġs ejt
Ġ15 5
ĠH Ã¡rom
ro wn
Ġconduct ed
elm e
Ġjog i
Ġqual ity
Ġny Ã¡ri
Ġmet res
ĠInf antry
Ġb Ã¶lcs
ta ble
ĠHar rison
Ġsour ce
on ok
ast ic
oz tÃ¡k
Ġismer etlen
ĠJ un
Ġto j
Ġch ap
4 8
Ġm ountain
Ġstr ugg
ĠS outhern
Ġform s
Ġstart ing
ĠkÃ¶zvetlen Ã¼l
ig mond
per ial
av i
ĠstÃºd iÃ³
ĠCh ap
ĠH ay
Ġw ords
Ġl if
hely ett
ĠD ire
ĠÃ©r ett
Ġeconom ic
Ġugyan akkor
ĠS und
Ġy our
ĠY oung
ĠZolt Ã¡n
ĠelÅĳ ny
iver pool
Ġf ont
ec es
Ġpeak ed
o es
Ġo d
ĠSp ec
i ak
od Ã¡s
ĠAcad emy
Ġmagas abb
ĠF ur
Ġtraff ic
Ġsz Ã³r
el ik
Ġs ides
Ġ5 9
ĠvÃ¡lt ak
Ġ9 6
ker eszt
Ġtransfer red
l ev
ĠN ight
v Ã©tel
ez d
Ġidej e
Ġt oll
o ir
Ġh Ã¡lÃ³z
ĠEgy pt
Ġpres ence
4 7
Ġdr um
ĠAlex ander
ĠÃ©p ÃŃtettek
Ġinst r
Ġpubl ik
Ġext ra
ĠrÃ©t eg
Ġb Ã¼ntet
ĠSy stem
ĠL ive
Ã¶k et
Ġbu sz
Ġcontr ast
Ã¡l a
ĠM ajor
ĠB ob
ĠE st
ĠszolgÃ¡lt at
ĠszÃŃnÃ©sz nÅĳ
r ig
ĠR i
Ġ188 0
enc ia
Ġ189 0
ĠvalÃ³ jÃ¡ban
Ġw ing
ĠS us
ĠH y
Ġellen Åĳr
ÃŃtÃ¡s i
Ġ191 1
ĠWil son
ĠSt ud
Ġcast le
Ġleg s
eas e
ĠS ince
is ation
ĠComm ittee
n Ã©p
Ġel Ã©
Ã¨ re
Ġbec omes
Ġen emy
Ġered etÅ±
Ġr aid
Ġdist inct
Ã¡ll omÃ¡s
ĠrÃ¡d iÃ³
Ġ9 9
anc y
ĠBudapest i
ĠO k
ĠL ine
Ġki egÃ©sz
Ġ6 8
ĠÃ ľ
Ġsc oring
Ġe jt
Ġny er
Ġopp ortun
Ġk emÃ©ny
ĠkÃ¶zÃ¶s en
Ġadv ance
ĠVictor ia
al ity
Ġport ion
Ġmell Ã©
ĠR ud
ĠÃ©p ÃŃtettÃ©k
h arm
Ġvis elked
Ġus es
ĠJ B
Ġpot ential
ĠZs igmond
ĠPar liament
Ġm is
Ġelekt ron
Ġth ings
Ġy oun
ĠkÃ¶zÃ©p kori
Ġown ed
Ġrelat ively
Ġex hib
Ġfound ed
Ġelekt rom
Ġotth on
Ġin ch
Ġkil enc
Ġpil ot
h ing
Åĳ j
ac u
Ġfore ign
el mÅ±
ar ak
n ik
Ġevang Ã©l
Ġconclud ed
ek rÅĳl
Ġgre ater
val Ã³s
ĠE p
ĠSt udi
ail s
Ġresp ond
Ġ ess
r t
ĠL ight
Ġatt end
ĠAng li
ĠD ef
Ã¡z at
Ġd og
ĠT od
ek hez
od ox
ĠÃ¶n kormÃ¡ny
Ġprim arily
ĠkÃ¶rnyÃ©k Ã©n
Ġact ually
Ġt Ã©v
j Ã©k
ĠutÃ¡n i
Ġkett Åĳ
Ġw or
ĠF inn
Ã©p ett
Ġfigy elem
Ġkor abeli
ĠDun a
Ġfel szer
ag u
Ġl Ã¡zad
ĠV ilm
ĠB ook
ĠM as
ez z
Ġwrit e
ismer tebb
Ġsz Ã³t
ad ing
u f
ĠB all
Ġd ra
3 1
es c
ĠCh ief
ĠS her
ĠL ife
ĠU N
kez ik
Ġkezd tÃ©k
Ġattempt s
ĠvalÃ³ s
Ġelnev ezÃ©s
Ġ16 9
ĠP en
Ġst ories
es szor
ĠÃ©l ete
ĠCap tain
Ġl ic
ic ations
ĠB ond
ĠP o
ĠSer ies
Ġt il
Ġfinan cial
Ġwrit ers
ert o
Ġobser ved
ot e
Ġprop erty
Ġfed eral
h agy
ogrÃ¡ f
ez red
Ġ Ä
Ġrendelkez Åĳ
Ã©s Ã©hez
ĠAnd rew
ÃŃr Ã¡s
ark as
Ġhaz a
Ġbiz ottsÃ¡g
ĠS ant
m ester
Ġw alk
Ġf esz
att y
al bum
our s
ĠBr idge
Ġpolg Ã¡ri
ĠÃ¼z let
Ġmajd nem
ran ch
er ate
ak on
Ġfut am
ĠR oss
Ġstr ength
ĠmunkatÃ¡rs a
s ter
ny el
m os
Ġp aid
Ġv ÃŃv
ĠM D
Ġrul e
ri p
p Ã¡t
ov Ã¡cs
Ġpar ents
ĠÃ©v szÃ¡zad
ĠtÃ¶rtÃ©n ete
ĠM ore
ĠjÃ¡tÃ©k vezet
Ġmultip le
y er
Ġsz Ã¡ndÃ©k
ĠK en
ĠV Ã¶rÃ¶s
Ġslight ly
Ġr ating
im s
Ġl ot
el a
Ġro ugh
Ġb es
Ġon to
ĠâĢ ľ
Ġah hoz
Ġ7 7
Ġnyil atkoz
Ġmegny erte
Ġlev Åĳ
Ġ6 7
Ġv Ã¡ll
Ã¡k on
Ġs elling
ĠAl ap
Ġanim als
ĠB attal
ig g
Ġgy ilk
ĠÃ©p ÃŃtett
iskol ai
ĠfÃ¶l Ã¶tt
zt Ã©k
Ġz ong
Ġinn ings
Ġsh are
ĠkÃ¶rÃ¼l i
Ġcoll ection
Ġtit led
ĠTudomÃ¡ny egyetem
Ġli ber
Ã©t elt
Ġact ing
Ġleg magasabb
asz er
ĠH um
Ġgrad u
Ġigaz i
Ġsitu ation
Ġinstr ument
Ġdist ance
er c
Ġbro ke
ĠB ey
Ã «
ĠC ard
Ġnev ezik
Ġsy mb
ĠAr thur
Ġvill amos
ĠMT V
u i
Ġm Ã©l
Ã©p pen
j al
ell o
Ġtar get
ĠkÃ¶nyv tÃ¡r
Ġdokument um
Ġpower ful
ĠComm ission
ĠG irl
Ġvoc al
ic ed
Ġprot est
ĠelkÃ©p zel
ĠÃ©r sek
Ġfig ure
ap or
Ã©s Ã¼k
mÃ©r kÅĳz
Ġl in
ata it
Ġgyak ori
v Ã¶lgy
Ġc at
t Ã¡rs
ĠSw ed
h ÃŃr
ĠC seh
Ġpr int
ĠA venue
Ġnem es
Ġst abil
Ġpi ece
Ġcompan ies
Ġult imately
Ã©n Ã©l
ĠEurÃ³p Ã¡ban
Ġjelleg Å±
Ġmeg valÃ³s
' s
aj Ã¡t
Ġmegsz Å±nt
oz tak
Ġter jeszt
ĠA bb
Ġdiv ided
ĠCl ass
Ġwat ers
ĠK Ã¶nyv
ĠtÃ¡rs adalom
Ġsz Åĳl
ĠâĪ Ĵ
ak ciÃ³
ar ian
ĠrÃ©g iÃ³ban
Ġindepend ent
ro f
ĠÃ¼zem elt
ĠÃ Ĺ
ron ic
Ġcoll abor
Ġforg alom
ĠEliz abeth
ĠF leet
Ġact or
ĠK Ã©p
ĠSt eve
ĠL ar
ĠkÃ¶r Ã©ben
v on
Ġto urn
pr et
Ġcomplet ely
int h
Ġjour nal
ĠÃ©v re
ĠFel sÅĳ
ylvan ia
ent i
ĠN ov
Ġdef in
Ġ11 0
Ġf ert
ĠB alt
Ġs ought
Ġmel eg
Ġh usz
Ġfej edelem
Ġf an
Ã¼ d
hat ja
ĠL iverpool
ĠvÃ©g Ã©ig
ford ulÃ³
az a
Ġnap ja
Ġol aj
ig er
om a
Ã¡ci Ã³k
os en
Ġbirtok a
l Ã¡sa
Ġpolit ikus
ĠtelevÃŃz iÃ³s
Ġer Åĳk
o ud
ci Ã³k
Ġb ot
ĠkÃ©sz ÃŃtette
Ġwin ter
k up
ipt omi
Ġh us
Ġel ev
Ãº gy
ok hoz
Ġstr uck
is p
ric ket
bl ed
6 6
i ant
Ġmeg kÃ¶zel
ence i
ĠjanuÃ¡r jÃ¡ban
ĠF e
Ġ1 000
ĠmÅ± faj
Ġmain ly
is her
z Ã©st
um i
Ġfenn tart
Ġs out
Ã¡r on
Ġhozz Ã¡j
w hile
Ġto day
Ġgy Ã¶k
ĠVal ley
g rad
Ã¼ v
Ġs u
it ution
Ġnort heast
Ġnyar Ã¡n
esz i
Ġnev ezett
ĠL inc
ĠL ov
ag er
ĠnÃ©lkÃ¼l i
ĠStudi os
sz el
Ġsecond s
Ġfeat uring
Ġp un
ĠFoot ball
Ġw ear
Ġp itch
ĠB rian
he w
ip s
ĠCro at
Ġcall ing
Ġhoz ta
Ġ190 8
b Ã¡ny
Ġb ound
Ġsc ale
Ġte her
Ġact ions
Ġsz ÃŃ
im et
ĠD al
Ġmunk Ã¡t
os es
ĠÃ³ kori
ĠkÃ¶zÃ¶n sÃ©g
ĠNyug at
ol ved
hett ek
Ġofficial s
l em
ĠE g
se y
Ġpre m
Ġhull Ã¡m
Ġel sz
Ġcult ure
ĠkevÃ©s bÃ©
Ġpart jÃ¡n
ĠWe ek
Ġben ef
Ġinflu enced
ĠNÃ© hÃ¡ny
j Ã¡ba
ĠKÃ¶z pont
ĠtÃ¶rtÃ©n elem
Ġakart a
Ġc row
ĠgyÅĳz elem
ĠHit ler
Ġdesign ated
Ġmegh ÃŃv
ĠF Ã¼l
Ġplay s
ĠAmeric ans
Ã©r d
ĠR end
Ġcomb ined
ĠServ ice
m ission
ter ed
Ġs earch
Ġs quare
Ġtri al
Ġth ous
A R
ĠTh ree
ĠJ ugoszlÃ¡v
ĠC y
an es
Ġso ciety
Ġtal Ã¡ltak
ad tÃ¡k
Ġpre par
Ġalong side
i ban
ri e
z iÃ³
Ġb atter
ov ery
szer v
Ġel ker
Ġinn en
w rit
Ġad Ã³
Ġinsp ir
Ġlel kÃ©sz
Ġfel k
ist ry
Ġalatt i
ĠW ild
s i
ĠK elet
Ġsorozat ban
Ġjelent Åĳ
w ar
Ġg ained
s ki
ĠmÃ¡s ok
ĠT ag
up er
e ivel
ez er
iz m
ĠlÃ¡ny a
Ġkapcsol atos
ĠkÃ¶zre mÅ±kÃ¶d
j ei
ĠkÃ¶zÃ©p sÅĳ
ĠvÃ¡ltozat a
Ġat om
ĠvÃ¡l ik
Ġt ol
Ġsok szor
Ġpromot ed
Ġt un
Ġem iatt
ĠCs ak
Ġc orn
ip ar
uz z
anc ing
Ġr uh
ban t
ap pen
Ġreach ing
Ġp it
Ġpro ved
Ġt Ã¼z
ĠSz ak
Ġerd Åĳ
Ġalap ÃŃtottÃ¡k
Ġt ech
ar nok
Ġjo in
Ã¼m Ã¶lcs
n an
ĠszÃŃn Å±
Ġalkalmaz ott
sz e
Ġnot es
Ġ7 00
Ġl elet
and y
Ġ190 5
szer te
Ġes Åĳ
Ġn aval
Ġalkot mÃ¡ny
tat ta
Ãº k
ĠmÃ©rtÃ©k ben
iz es
zÅĳd Ã©s
Ġprobl em
ĠmegtalÃ¡l hatÃ³
ĠIly en
ek i
ĠSz abad
het Åĳk
Ã¡sz at
Ġenc our
et es
ĠAs h
ĠComm un
Ġc le
Ġpass ing
Ġnorth west
ĠkÃ¶nny Å±
m ore
ĠkormÃ¡ny z
Ġk Ã¡p
Ġelect ric
ul ed
ĠItal y
ĠBr igade
ĠDo ug
ur d
Ġcom es
Ġam ÃŃg
Ġak adÃ©m
Ġfilm et
Ġcol or
g azd
Ġcom ing
Ġwe ather
Ġvonatkoz Ã³
ĠHe art
Ġp Ã¡ncÃ©l
Ġforgat Ã³k
Ġconfir med
Ġpolic y
ĠD er
Ġszerep Ã©t
Ġwid ely
Ġactiv ity
Ġsix th
kÃ¶ zt
rel and
ĠvÃ¡llal koz
Ġ8 7
ĠkÃ¶zpont ja
ĠJ ersey
Ġs uit
Ġhus band
Ġm ang
Ġrec ent
Ġvall Ã¡s
Ġnew s
hel ess
Ġart ists
Ġk o
Ġ ice
Ġweb s
Ġamely eket
ĠLinc oln
hat ta
Ġ8 8
Ġexpl ained
ĠAl li
ĠhalÃ¡l Ã¡ig
Ġfun ction
ĠW hat
Ġshort ly
Ġgreat est
Ġbefoly Ã¡s
ĠEurÃ³p ai
Ġmond ta
ĠegyÃ¼tt mÅ±kÃ¶d
jelent Åĳsebb
Ġtan ÃŃtvÃ¡ny
ibr ary
ĠI reland
b Ã¶l
ĠÃ¡ltal a
ĠBl ue
fr ont
Ġrendszer esen
Ġel k
Ġmut attÃ¡k
ĠT ib
ĠU p
Ġca using
Ġsubsequ ent
ĠmÅ± vel
ĠÃ¡ll atok
ĠM id
ezÃ©s i
ĠmÃ©r etÅ±
Ġhely Ã©re
Ġnyug at
ĠterÃ¼let et
yp e
Ġcount y
St ation
Ġp ath
Ġshe ll
sem mis
Ġigazgat Ã³
quar ters
Ã© h
Ġr ing
ĠT a
ur i
ĠWal ter
it ness
il ed
ĠGu ard
w orth
ĠH old
Ġ6 9
ĠÃ¶ sztÃ¶n
ĠBattal ion
Ġcont ent
Ġsl Ã¡g
w ick
Ġchar ge
am ber
Ġem ot
ĠT re
Ġt y
ĠColumb ia
Ġb urn
ĠW at
Ġinv asion
a ival
ĠÃ¶sszef Ã¼gg
Ġcs elek
Ġnomin ated
Ġ187 0
Ġ15 9
ĠFranc isco
ĠPenn s
ĠM u
igh th
Ġ7 8
ĠÃģ ltal
Ġen y
ĠM ul
t own
p olit
Ġg reen
Ġse ek
Ġser ve
Ã¡sz ati
Ã³n ia
ĠSp anyol
ad s
Ã¡ty ja
Ġbord er
k Ã¡ny
Ġ16 5
Ġmutat ja
Ġh ospital
ro tt
er d
ĠCath olic
Ġres ist
hÃ¡z a
Ġir on
oc ked
Ġk ath
iz Ã¡lt
ollÃ©g ium
Åĳ n
Ġes k
ÃŃtÃ¡s Ã¡val
ĠR a
jÃ¡t Ã³l
Ġsok Ã¡ig
A C
Åĳt Ã©r
Ġpart n
ĠEm ellett
Ġsz Ã¼r
ĠvÃ©gre hajt
Ġres idents
Ġg Ã¡z
Ġhang sÃºly
v ai
ĠW ork
Ġsound track
ĠlÃ©trej Ã¶tt
Ġsay s
ĠPlay Station
Ġad atok
Ġkar rier
ĠÃ©r zÃ©k
alt ies
Ġdel iv
Ã¡z Ã³
szerk eszt
Ġad ja
Ġbl ue
Ġmegt Ã¡m
ĠnÃ©met ek
ak ed
Ġkezd emÃ©ny
ĠD et
ĠKolozs vÃ¡r
et ni
Ġalbum s
m oz
Ġsystem s
ĠLew is
em ic
Ġexpress ed
Ġt ells
ĠKr iszt
tet ett
ĠH ug
adel ph
Ġsour ces
Ġs ense
stant in
ĠTam Ã¡s
Ġf le
ĠtevÃ©keny sÃ©g
Ġhat Ã¡s
Ġhand s
ĠS zt
Ġki adÃ³
w art
ĠkÃ©sz ÃŃt
ĠhozzÃ¡j Ã¡r
in em
it k
ĠlehetÅĳ sÃ©get
Ġkit Ã¶r
ĠTel ev
ett s
ell i
Ġa head
Ġs ÃŃ
ĠtÃ©r kÃ©p
Ġold er
it el
ateg ory
ĠÃ©nekes nÅĳ
Ġ190 6
Ġb Ã©r
v Ã¡sÃ¡r
ĠAd d
Ġad vis
Ġoff er
Ġart illery
ĠN ob
ran ge
ce Ã¡n
Ġthe ory
Ġr ival
ĠjÃ¡tÃ©k osa
ĠdÃŃj at
fÃ¶ld Ã¶n
Ġsex ual
Ġtart ja
Ñ ģ
Ġsem m
Ġaz utÃ¡n
ĠÅĳs i
us ion
vilÃ¡g bajnoksÃ¡g
Ġlen ne
Ġheav ily
ĠUn ivers
ĠvasÃºt i
ĠÃ¼ veg
N S
Ġbeg in
Ġt rue
Ġ ek
ĠC art
j Ã¶n
ĠHol lywood
ĠM ount
ĠjÃ¡r mÅ±
ic ient
st one
ĠF ord
Ġfel ismer
Ġfoc us
er b
Ġc hem
h ab
ĠP rem
Ġki Ã¡ll
ĠidÅĳ sebb
Ġphys ical
ĠF ield
Ġmeg semmis
ĠDani el
Ġer a
jÃ¡t sz
ĠL ike
ĠG ord
ĠU E
Ġneg oti
ĠkÃ¶zÃ¶s sÃ©g
Ġident ified
Ġorv osi
Ġal one
v Ã¡l
ĠB re
Ġgl ob
es ett
Ġse asons
Ġhely Ã©t
ĠC ivil
Ġweap ons
Ġï¿½ï¿½ ï¿½
Ġrequ ire
ĠO cean
Ġ190 7
Ġkev esebb
Ġkor a
jÃ¡r Ã³
Ġw ick
Ġanny ira
ri x
Ġdeb uted
Ã©l eti
ĠD utch
Ġel b
k ey
Ġmeg ak
Ġs ort
Ġm Ã¡g
Ġsz ar
ÃŃt Ã©k
Ġsp read
Ġrepresent ed
Ġnem esi
Ġex ecutive
Ġfir ed
Ġcons isted
Ġkiv Ã¡lt
Ġzs in
ĠReg iment
ĠG il
ĠBro ad
ĠszerzÅĳd Ã©st
Ġap Ã¡t
Ġcapt ure
I A
em et
Ġdist rict
Ġlov as
Ã¡r ny
ĠfÅĳ t
Ġp ack
Ġs enior
Ġfl oor
Ġraj ong
t ani
it o
Ġc ities
ann er
ĠK ev
Ġsok an
Ã©sz ett
ĠÃ©l tek
Ġmely eket
ĠnÅĳ st
Ġoldal on
Ġ8 9
Ġw ild
Ġdef ense
k ins
Ġ190 9
ĠSz Ã¡mos
Ġosz lop
ĠFest ival
kn own
Ġrend eztÃ©k
Ġmin Åĳs
Ġelh unyt
Ġmom ent
Ġt Ã¶k
ĠIn stitute
Ġg as
Ġoffic ially
ĠelÃ©r hetÅĳ
ĠcsalÃ¡d i
Ġresult s
ĠH omer
us hed
ĠÃ©v et
er i
Ġl ek
ĠM iskol
Ġpromin ent
oss al
Ġs oha
Ġst one
ĠM ountain
Ġgr aph
ĠO f
Ġleg el
ĠErd Ã©ly
ĠAdmir al
ter e
Ġalak ban
ĠK el
Ġnyit ott
ĠSz Ã¶vetsÃ©g
Ġapp eal
ĠT isz
Ġdo ing
Ġfelett i
Ġcomp ar
Ġok a
Ġszerv ezett
p ass
ett ing
Ġmag ukat
ĠArg ent
Ġreturn ing
ess e
ĠF antasy
ĠkÃ¶rÃ¼l mÃ©nyek
ÃŃ d
Ġ eth
ion Ã¡lis
Ġstud ent
ĠtelepÃ¼lÃ©s t
Ġdef end
Ġhor se
ĠCarol ina
ĠD uke
Ġ9 8
ĠK Ã¡l
Ġ201 8
p Ã¡d
Ġres c
ĠnÃ© ha
Ġarg ued
Ġh ere
Ã³ le
Ġair ed
Ġinj ury
e en
Ġis z
Ġh ers
ĠFerdin Ã¡nd
ĠPhil ipp
Ġdok tor
an ni
ĠV II
Ġcrow d
Å± nÅĳ
Ġl aid
Ġ5 3
Ġim age
ĠcsÃ¶kk en
d ÃŃ
Ġt Ã¼k
Ġszer encs
l el
ĠM Ã¡ty
Ġlaw s
Ġkezd et
ĠV ide
ĠCamb ridge
intend o
el ess
Ġp ict
ĠP ap
f ut
Ð »
ĠszÃŃn pad
ÃŃtÃ©s Ã©t
v egy
re a
Ġfog va
f Ã¼gg
Ġmaint ained
Ġab lak
Ġpat tern
or g
Ġe as
Ġcontem porary
ĠS quare
ĠLe on
ĠP a
Ã¡ciÃ³ ja
Ġstud ies
Ġmozg alom
Ġm ilyen
ĠA zt
Ġ16 7
Ġpe ace
ĠvÃ¡llal at
Ġfel Åĳl
Ġmi elÅĳtt
Ġsz ek
ĠG ab
Ġequip ment
ĠPhil adelph
Ġaff ected
Ġfig ures
ĠG ram
Ġappear ances
ez hetÅĳ
Ġmind egy
sz em
b ox
Ä ģ
r Ã¡t
Ġcs ont
ĠB urn
4 2
Ġtrans l
Ġrest aur
h Ã¡rom
Ã¼l ni
ter v
Ġassz ony
i as
Ġb ott
Ã¨ res
B y
ac ity
ĠJ am
Ġpi eces
ĠNor thern
j anak
Ġv irt
Ġorgan ization
ĠlÃ©t ezik
Ġk ort
Ã¡sok kal
Ġvall Ã¡si
Ġcritic ized
l ines
Ã¡j Ã¡ra
Ġdr ug
Ġt ettÃ©k
Ġleg jelentÅĳsebb
ĠChrist mas
Ġlead ers
Ġegyetem en
Ġgrow th
Ġpo et
Ġback ground
ĠO szt
ph ere
Ġmat ter
Ġinter pret
ĠÃ¡ll Ã¡s
Ġocc asion
Ġb ab
ĠR Ã³
Ġvis ited
irt y
sz ky
ĠB and
g om
ĠN intendo
ĠS everal
Ġkezd etben
ĠDav is
Ġon line
ĠellentÃ©t ben
ĠB ak
4 6
ÃŃt Ã³k
el nek
ĠK Ã¶r
ĠkÃ¶nny en
Ġatt rib
Ġszak mai
ĠL ady
Ġalak ja
emb ly
iv atal
Ġcoup le
Ã©n nyel
ĠBelg ium
ĠH art
Ġtech ni
alk ot
ĠM oz
Ã ±
Ġquest ion
uc ky
ĠÃ¶t let
in Ã¡l
ru it
faj ta
Ġhiv atkoz
Ġh Åĳs
ĠmÅ±vÃ©sz eti
Ġgy Ã¼mÃ¶lcs
ĠHist or
Ġto ward
ĠA C
Ġhelyett es
Ġtemplom ot
sÃ©g re
ĠCar ey
ĠszÃ¡m ÃŃtott
Ġtre es
ĠkirÃ¡ly nÃ©
Ġur alom
Ġraj t
ĠAnt al
Ġd ress
Ġr ac
Ġteng ely
ap csol
ĠD ark
Ġanyag i
Ã©rt elmÅ±
ĠP rod
ĠLa ur
Ġt rying
ĠgyÅĳzt es
Ġo lt
ĠtÃ¡mogat ta
ĠSer b
on ia
ent ed
Ġch air
ĠBro ok
ys ter
ĠO pen
Ġprop os
ĠT ony
Ġvers ions
ĠSy d
ĠveresÃ©g et
ĠU l
ĠG Ã©z
Ġtan szÃ©k
i Ã¡ba
ad ai
ĠPenns ylvania
h id
ĠS ub
ĠmÃ©r nÃ¶k
Ġph il
ĠAlex and
ĠK oss
ĠDist rict
ĠS ound
Ġterrit ory
ĠP ict
Ġdel ay
Ġalap ÃŃtÃ³
ĠCh art
Ġworld wide
ĠS u
Ġrain fall
ĠnÃ© zet
ĠAtt ila
ĠR em
Ġkil og
ed d
Ġz Ã¡szlÃ³
Ġ190 4
f est
ĠMill er
Ġd im
or ation
sz ob
ĠH ome
op ter
ex t
Ġex ec
ĠfÃ©r je
Ġte ach
uszt rÃ¡l
res p
ĠvÃ©g sÅĳ
ĠN HL
il is
ĠSan ta
g u
ĠVilm os
Ġe arth
ran ce
ĠJelen leg
ĠGold en
ĠterÃ¼let ek
ĠT urn
ĠE le
Ġmed ical
4 1
Ġs ens
ĠÃ©rt ek
cial ista
Ġmunk Ã¡ja
Ġkaton Ã¡k
Ġcon ver
kod Ã¡s
t ori
ok rat
b urn
Ġ186 0
c z
Ġ185 7
Ġf ully
ac ement
Ġ7 9
ĠB os
Ġch osen
Ġbo cs
ĠAuszt rÃ¡l
Ġhy d
Ġpont ot
ĠÃ¡t mÃ©r
Ġfokozat osan
Ġl ink
artÃ³ zt
Ġegy iptomi
ĠJoh ann
Ġr id
ĠT ak
Ġg od
Ġkol ozs
ĠÃģr pÃ¡d
ĠM oszk
ĠC z
Ġfiz ikai
Ġbe jÃ¡r
ĠÃ¡ll nak
Ġmenek Ã¼lt
ĠE szter
Ġsing les
ĠG rant
ĠB ol
Ġmach ine
ĠD ream
Ġform ation
ph as
ĠHam ilton
ĠBec ause
Ġbird s
u ous
lus ion
Ġspe ech
Ġmin ÅĳsÃ©g
ez Åĳd
ra v
ĠU k
ĠScott ish
Ġle aves
Ġthere fore
d Ã©k
Ġher o
Ġrep Ã¼lÃ©s
ĠkÃ¶zt Ã¡rsasÃ¡g
Ġre ign
Ġspec iÃ¡lis
Ġc ong
ĠO sc
Ġzeneszer zÅĳ
Ġfor int
ys is
oh ol
ĠE astern
Ġsett ing
Ġgu est
ĠW W
Ġfe ed
ĠdÃ©l re
ĠAl b
Ġf aced
ĠÃ©rtÃ©k es
ĠT ech
Ġclaim s
land Ã³
Ġtourn ament
Ġmeg Ã¶l
Ġrefer ence
W hen
hÃ¡z i
ĠSzovjetun iÃ³
Ġvett ek
Ġg rew
Ġam ivel
ĠvÃ©g Ã©re
Ġem ellett
foly am
Ġfrequ ently
v Ã¶s
ĠtÃ¶rtÃ©n ik
Ġcsat orn
Ġmur der
Ġent ir
ol Ã¡sa
b irtok
Ġf air
ĠA ny
ĠKar l
Ġtw ice
Ġc amer
Â ²
Ã¡sok on
ĠBar b
er Ã¼lt
Ġker t
je bb
Ġacc ident
Ġvoc als
Ġun iversity
Ġf ear
ĠIn c
ecs ap
Ġbill ion
p et
Ġkap itÃ¡ny
ĠKÃ¼l Ã¶n
ĠCast le
Ġrem ark
Ġhistor ian
fej leszt
Ã©d ia
Ġkelet kezett
at Ã©r
ĠÃ¶ssz eh
Åĳs en
t ing
Ġhers elf
ett a
ir ing
j i
gy ilk
Ġlab el
4 3
Ġsz Ã¡n
Ġzong or
Ġspir it
ĠF ried
Ġind ÃŃtott
Ġw ounded
ĠT al
ĠMar s
Ġsup ply
Ġst ations
Ġmunk Ã¡l
Ġhon or
Ġesc ape
m outh
Ġv ert
Ġgovern or
j Ã¡hoz
ĠÃ©rtelm Ã©ben
Ġhors es
ĠmezÅĳg azdasÃ¡g
Ġ12 5
Ġpre c
Ġho p
Ġreport s
is ters
op ron
ĠB our
stit ution
Ġwall s
Ġpass es
ĠH ind
Ġnemzet isÃ©g
Ġip ari
ant ly
Ġkiemelked Åĳ
gy al
Ġgy eng
Ġcontain ed
iv ity
Ġplan et
ĠOh io
Ġexper iment
Ġtyp ically
ipt om
ĠJ r
Ġutaz ott
r ate
ĠH un
ĠÃ©v e
Ġtan Ã¡ra
ĠUE FA
Ġsor rend
Ġnorm al
ezÃ©s ek
Ġmarad tak
elm es
ed ik
che st
Ġsurround ing
ĠeltÃ©r Åĳ
Ġf iction
re ct
w all
Ġtest vÃ©r
ocs Ã¡t
ĠL yn
ĠerÅĳ szak
Ġwe ight
Ġ189 6
Ġvast ag
Ġhum or
ĠD u
r Ã¡ny
Ġd ang
Ġval Ã³di
ĠvÃ©d ett
Ġfran ch
Ġrein for
ĠS ky
ĠH MS
ess ions
Ġbejelent ette
Ġtor ony
Ġlaun ch
Ġtreat ment
Ġv en
ĠAl bum
sz lovÃ¡k
Ġdeg ree
mÃ©r nÃ¶k
Ã¡n ok
Ġr eng
ĠvÃ©g leg
Ġaccomp an
en kÃ©nt
Ġsim ply
Ġtan k
ĠAnd erson
Â °
Ġcond ition
Ġoper ated
Ñ Ĥ
Ġb Ãºcs
ĠP oint
Ġch ose
Ãº ak
Ġgy Å±l
ul cs
Ġform Ã¡ban
ĠP ress
Ġmanu fact
ĠKoss uth
ĠkirÃ¡ly nÅĳ
Ã¡rm ester
Ġbeteg sÃ©g
Ġc ert
ĠÃ¡t men
Ġel eg
ors hip
Ġactiv ities
ĠFri gyes
st ream
ĠAlli ed
Ġco al
r ong
esz ked
Ġpap er
Ġmegak adÃ¡ly
m Ã¡r
if ying
Ġ16 6
Ġel ement
Ġass ault
Ġd yn
Ġadd ress
Ġval ue
Ġnot hing
ad d
ĠF am
ÃŃtÃ¡s ok
Ġh ird
av ig
Ġt end
Ġegy sÃ©ges
ĠAr n
Ġopp osed
Ã³c zi
Ġb oldog
ĠcsalÃ¡d ok
ĠdebÃ¼t Ã¡lt
Ġpre fer
Ġar atott
Ã¡j Ã¡val
Ġwork ers
s eg
zÅĳd ik
ĠPol ish
Ġp sych
Ġkolozs vÃ¡ri
aw a
Ġgra f
Ġprof esszor
Ġelterjed t
Ġproduc ers
ĠF all
Ġparticip ated
Ġf uel
Ġrendel kezett
ri f
ÃŃr t
ĠF A
Ġserv ing
Ġtisztelet Ã©re
Ġkid olg
Ã³k nak
s et
ĠP re
Ġellen fel
Ġ190 3
Ġa szt
Ġl osing
ĠÃĸ ssz
o ft
Ġk ont
Ġverseny en
sz ÃŃ
ĠX X
Ġord ers
Ġop in
ĠH az
ĠfÃ¶ld es
Ġnew ly
ĠÃ¼gy vÃ©d
Ġjelenleg i
ef on
ĠÃ©pÃŃt kez
Ġgrow ing
z on
eng t
Ġl ives
led ge
Ġcons ecutive
ĠCon n
Ġmegszer ezte
app y
Ġadv anced
a is
ĠmÅ±vÃ©sz et
Ġauthor ity
Ġvot e
ĠszomszÃ©d os
ĠGovern or
Ġb ales
Ġak ciÃ³
Ġgyermek e
f ort
Ġkult Ãºra
ĠsÃ©r Ã¼lÃ©s
Ġn ative
Ġel rend
Ġmind kett
Ġed zÅĳ
ĠG reg
ric ult
Ġr isk
ej e
ĠM ak
Ġ8 6
e ed
Ġhat Ã¡ssal
ĠSen ate
Ġg Åĳz
ezt et
Ġbro wn
ĠtÃ¶rÃ¶k Ã¶k
ĠW ars
C h
Ġem phas
erv ation
Ġhat Ã¡sa
Ġhad jÃ¡r
Ġsev ere
Ġ190 2
ĠCo ast
Ġun known
ĠG imnÃ¡zium
ol na
izs i
ĠÃģ g
ĠkÃ¶lt sÃ©g
Ġcann ot
ĠidÅĳ re
sz Ã¼l
ic ial
on ents
Ġpoz itÃŃv
Ġrail way
Ġs quadron
Ġm aster
Ġtart ottak
Ġkett Åĳs
Ġï¿½ï¿½ï¿½ï¿½ ï¿½ï¿½
Ã© je
ĠS eg
ĠM ov
ĠL ig
Ġel jut
Ġfir m
ĠP Ã©ld
Ġprom pt
ĠW alk
um ents
Ġb an
Ġed itor
Ġnewspap er
w are
ĠEl ek
ĠÃ©sz re
Ġtenger i
Ġalap ÃŃtotta
Ġgu ard
ĠvÃ©d Åĳ
ezÃ©s Ã©re
Ġ ug
Ġtem etÅĳ
Ã¡st Ã³l
Ġsy m
ik Ã³
Ġfilm ing
Ġhe ard
Ġtekint ve
Ġegy et
ĠelÅĳ d
Ġnyom Ã¡n
Ġabandon ed
Ġ Ã¼lt
Ã© c
ĠT Ã¶rÃ¶k
Ġadv ant
ĠMer c
i el
Ġg all
Ġadop ted
Ġwebs ite
ĠMÃ¡ty Ã¡s
ĠDo ctor
l Ã¡m
Ġtitk os
ess ed
Ġact ors
Ġh appen
Ġoff ensive
om y
hel m
ĠpÃ¡rhuz am
ĠU s
Ġ iv
am m
Ġverseny t
Ġleg fel
Ġnek ik
Ġopp osition
ĠO d
Ð º
Ġv o
ĠIs lands
ĠPhiladelph ia
ĠD om
Ġne ut
ol is
ĠrÃ©sz es
mÃ©ny e
Ġend s
Ġkezd Åĳd
Ġsel ejt
ok l
Ġtud tÃ¡k
Ġarm s
ach us
Ġpill an
ĠÃ¶n mag
ro c
ĠJ ord
il ies
Ġmill i
jÃ¡r Ã³l
reg Ã©ny
Ġfelad at
Ġvesz i
Ġam ik
Ã©re k
Ã©tel e
Ã¼ h
kor d
assz ony
Ġhaszn os
k at
ancs nok
Ġgyakor l
Ġinit i
Ġdis z
Ġhat Ã©kony
ĠÃ¼l d
ov ics
Ã©sek or
ĠCon c
Ġc ouncil
Ġspl it
Ã©r met
Ġsh ar
ĠIr ish
et on
Ã¼l ly
Ġcap acity
Ġfr iss
Ġhom es
Ġenc ounter
Ġpar all
Ġkal and
Ġsil ver
Ġk ard
oc ated
Ġmegsz Ã¡ll
ĠGeorg ia
Ġ Ã¶nt
ok tÃ³l
ek nÃ©l
Ġbi rodalom
ĠmÃ¡jus Ã¡ban
ĠD zs
ĠhÃ¡t tÃ©r
Ġrendez vÃ©ny
ĠT en
ĠB ir
Ġfilm ed
Ġcreat ing
iszt ikus
Ġtulajdon sÃ¡g
ĠGovern ment
Ġf lying
anc ell
ĠM it
Ġbas is
Ġp ull
k in
ĠS R
ul mÃ¡ny
Ġtan ÃŃtott
Ġegy Ã©rtelmÅ±
ĠJ our
Ã¡n ci
ny elv
Ġpar aszt
ĠbÃ©k eszer
Ġbe y
Ġki jelent
ĠCol on
Ġregard ed
B S
ĠElÅĳ szÃ¶r
Ġsp ring
Ġigaz sÃ¡g
Ġar rang
ĠB urg
Ġp oll
ĠkormÃ¡ny zÃ³
Ġk Ã¡rt
csap at
Ġ15 6
ĠÅ±r haj
ĠÃ©let Ã©ben
Ġagre ement
Ġl Ã©l
ĠÃ©szak ra
ĠR A
ĠlÅĳ tt
ĠH urricane
ĠSyd ney
ĠN ar
er ation
Ġszeptember Ã©ben
Ġhelyezked ik
Ġz avar
ĠFÃ¼l Ã¶p
ann on
ĠlÃ¡t ott
ĠC op
engt hen
uk or
Ġey e
Ġak adÃ¡ly
Ġv Ã¡ndor
Ġsaj tÃ³
Ġdism iss
Ãº ton
ĠÃ©v ente
Ġill eg
Ġegyes Ã¼let
ĠtÃ¶bb sÃ©ge
Ġpal ot
Ġs ail
Ġmeg ind
Ġdr ive
Ġindivid uals
Ġsp ect
ĠOper ation
ĠmÃ©l tÃ³
ad al
F L
ed om
Ġford ult
Ġfail ure
ock s
ul s
Ġjel kÃ©p
ĠAn th
ĠB oard
ĠhÃ¡t sÃ³
Ã¡ f
Ġsport s
ok r
ĠP ozs
Ã¡ro zta
Ġt Å±nik
iv at
Ġelt Ã¡vol
Ġgyakorlat ilag
ĠP ak
ĠR on
rist Ã¡ly
Ġbo at
Ġsequ ence
Ġachiev ed
i i
Ġf ak
szerÅ± en
ĠG aga
ĠÃ¡ll omÃ¡ny
ĠutÃ¡n a
ĠMÅ± vÃ©sz
Ġv ac
Ġdep loy
ĠszemÃ©ly isÃ©g
Ġnar row
Ġmagaz in
Ġm essz
Ġrem ix
Ġ190 1
Ġlegy Åĳz
an te
id ay
ĠA st
ĠG ill
est ic
Ġbey ond
ĠB ah
Ġbizony ult
ab a
Ġhom lok
ĠelÃ©r te
Ġa f
Ġd iam
ĠajÃ¡n l
ĠCh ild
Ġt ip
ÃŃt anak
Ġpart ner
Ġposs ibly
Ġkiad vÃ¡ny
Ġre ar
Ã³t Ã³l
ĠrÃ©g iÃ³
ĠrÃ©szt v
ĠtÃ©r sÃ©g
Ġbeliev e
ĠpÃ¡ly a
ript ion
ath an
ĠmÃ¡rcius Ã¡ban
ir Ã¡ny
ĠNÃ©met orszÃ¡gban
Ġtorped o
iv a
r us
kÃ¶z ben
ĠOsc ar
Ġsz Å±k
ĠSz il
Ġmegjelen Ã©se
ĠSp ain
Ġszempont bÃ³l
ĠM oh
Ġsiker esen
Ġlegy Åĳzt
ĠjÃ¡tsz otta
Ġhid eg
Ġh air
ĠN ik
ann ing
ean while
Ġmeas ure
Ġdel eg
ĠRad io
uk i
Ġper man
ĠnÃ© zÅĳ
Ġker Ã©k
amp ion
ĠjÃ¡tÃ©k vezetÅĳ
g i
ĠtÃ¶k Ã©let
ĠidÅĳ t
iz ens
Ġbrief ly
Ġb odies
ĠA rany
Ġkill ing
p Ã³t
Ġl ep
Ġfelad ata
R A
ar io
Ã©t len
Ġid eas
ĠIs kol
Ġneg ative
ĠegymÃ¡st Ã³l
asz n
ĠjÃ¡r Ã³
ell enes
ĠEl ect
Ġinc ident
p ut
Ġhab it
Ġim ag
Ġfell ow
Ġcritic ism
Ġmeg ment
Ã¡lis an
Ġfam ous
Ġ ik
ĠoktÃ³ber Ã©ben
ĠM Ã¼n
Ġg ross
Ġud v
ĠRog er
Ã©s be
Ġkez elÃ©s
Ġfl u
uc cess
Ġstr ike
ĠEgyes Ã¼let
Ġ7 2
Ġinter change
ul nak
Ġkiv Ã©g
Ġ185 0
Ġto wer
orszÃ¡g ba
dÃ¶nt Åĳ
f elv
eny Ã©szt
is ers
Ġb onyol
Ġmeg maradt
Ġar med
Ġember t
Ġbud get
Ġint Ã©zet
Ġexp ansion
Ġdecember Ã©ben
Ġelhagy ta
Ġrej ected
Ġsz ub
ion e
Ġ6 2
Ġrece ive
Ġkilomet res
h ard
ĠH ans
ĠP ed
zs i
ah a
b ach
ĠM iddle
sz av
Ġeffect ive
Ġroad s
Ġgran ted
ĠF al
Ġjelent ett
ful ly
Ġret ired
ack s
c ing
Ġleg ismertebb
i ew
Ġaut Ã³b
ĠszemÃ©ly es
ĠGÃ©z a
Ġb ass
ut her
ard o
ic ked
Ġsur rend
Ġnagy jÃ¡bÃ³l
Ġfollow s
Ġturn s
Ġrepe ated
ĠhasznÃ¡l ta
Ġvel Ã¼k
Ġhistor ical
ĠvilÃ¡gbajnok i
ã Ĥ
ot o
Ġk ontin
Ġimpro ved
n ic
v ement
Ġbek Ã¶vet
egy hÃ¡z
Ġv itt
as a
Ġb ed
ĠP ass
aj Ã¡n
ĠtÃºl Ã©l
Ġtw elve
Ġstra ight
ip ari
Ġev acu
ĠÃī des
ĠfÃ©ny kÃ©p
ĠE red
st ead
Ġext ensive
Ġdid n
Ġpont osan
Ġem ig
ĠÃ©l nek
ĠK az
if ik
Ġb Ã¡n
Ã¡l d
Ġrendszer es
Ġcross ing
Ġinter act
in ity
ĠÃ©des anyja
Ġel utas
Ġr oles
ĠÃ©p p
am erikai
ĠhasznÃ¡l at
Ġland s
Ġexp anded
Ġso ft
ĠmeghatÃ¡roz Ã³
Ġdoll Ã¡r
Ġsuccessful ly
Ġ eszt
Ġ189 3
Ġf Ã¼l
v Ã¡laszt
ĠN ick
Ġinf antry
Ġ15 7
Ġver ziÃ³
ĠelsÅĳ kÃ©nt
ĠTh ough
ĠtÃ¶ rek
Ġland ing
Ġnecess ary
Ġc ig
ĠGord on
ĠRev olution
ĠkÃ©p esek
ond er
Ġt a
ĠDebrec en
Ġch or
ĠrÃ©sz Ã©re
w ater
ĠÃ¡ll tak
Ġbro ken
ĠkÃ©szÃ¼lt ek
um es
est e
Ġmutat kozott
Ġt Å±
Ġca ught
r oll
Ġcol umn
Ġszeg Ã©ny
ff y
Ġm ile
ĠszÃ©k hely
ĠÃº r
Ġa jt
Ġcom edy
j enek
elm Ã©t
Ġch oice
Ġy ellow
Ġmad Ã¡r
ĠBru ce
app al
Ġgen us
Ġse at
Ġdis ease
Ġt ree
eg o
Ġtouch down
Ġ189 5
Ġ189 8
od or
Ġch o
Ġcommission ed
Ġjelen ik
k Ã³
Ġadminist ration
Ġm ic
Ġm Ã©sz
im ents
Ġd b
Ã³d nak
Ġf ought
Ã©se it
ĠBe fore
Ġexpl os
Ġl Ã³
ĠC at
Ġvalam ely
Ġ186 1
Ġorgan ized
p a
en berg
Ġs ac
ĠRepublic an
Ã©r ia
ĠSz em
Ġanim al
Ġk am
ĠJ el
Ġb olt
ig ny
ten i
Ġst reet
A m
ĠK atal
Ġh yp
ra h
ac he
Ġd ata
Ġacqu ired
ĠÃī rd
Ġfin ish
aval ry
Al though
Ġs ark
Ġpl ants
Ġsuggest s
Ġt Ã©li
ĠmezÅĳg azdasÃ¡gi
Ġfog adta
Ġmegle het
ĠE ric
Ġlet artÃ³zt
at us
Ġj Ã¶n
Ġsev enth
ul es
Ġdis pl
ok tat
id ae
our ed
ĠJ u
ol aj
Ġr iv
Ġg ard
Ġgy arm
ĠN az
Ã¡ll ÃŃtott
ĠHe ad
w ich
ĠlÃ©g i
Ġr Ã¡k
Ġkapcsol atot
Ġf ish
ÃŃt hetÅĳ
ĠfÅĳ s
ĠlakossÃ¡g a
b o
Ġpro te
Ġa thlet
ete or
ĠeredmÃ©ny ek
Ġpurp ose
ĠF air
Ġmen et
Ġlead ership
Ġh unyt
ĠR en
Ġhad mÅ±vel
Ġsol o
ĠMass achus
Ġcsapat ban
l Ã¡n
g Ã©
Ã³d tak
Ġm al
ĠD own
Ġ6 1
Ã¡t Ã©k
Ġcomm ittee
ĠÃ¶ ccs
h aps
ĠK ey
Ġro of
h attak
Ġmegv Ã¡laszt
sen al
ĠeszkÃ¶z Ã¶k
ĠT ro
Ġmagyar ul
ĠFer r
ĠAs ia
Ġegyszer re
Ġmegny it
Ġnovember Ã©ben
Ġterem t
Ġveh icles
h ass
ĠPro g
Ġjun ior
Ġbet Å±
f it
ad er
iz Ã¡ciÃ³
ĠjÃ¡tsz ik
k os
re al
ĠS eb
ĠG lo
ĠL in
op her
ĠSt orm
ĠAl an
on ent
Ġdescrib es
Ã¡sz ok
ĠK u
Ġkit Ã¼ntet
Ġeset leg
Ġez Ãºttal
ĠorszÃ¡ggyÅ±l Ã©si
st ruction
Ġlook ing
v est
Ġpl aces
Ġdram a
Ġ Ã¶z
Ġkap u
cs Åĳ
Ġjel zÃ©s
Ġn ob
Ġauthor ities
B I
Ġt urr
ĠP or
Ġugyan csak
Ġatt Ã³l
Ġg ives
ĠJ ay
bour ne
ro om
Ġd ur
Ġvagy on
Ġtartalmaz Ã³
Ġan cient
Ġfind s
Ġmanag ement
F ollowing
ĠMassachus etts
Ġp ain
Ġcas u
ell en
Ġmag Ã¡nak
Ġhouse hold
r ons
Ġhead quarters
Ġenerg ia
Ã©d i
ĠegyÃ©b kÃ©nt
ĠOff ice
Ġw ave
n o
ott en
Ġcontr olled
ĠR olling
ĠDa ily
Ġ6 3
Ġdeterm ined
r in
t attÃ¡k
Ġ Ã©k
ĠL ud
er ny
Ġbe aut
ĠÃ¡ll ÃŃtotta
ĠSum mer
Ġmeg lÃ¡t
aw n
Ġin g
Ġfej ezte
ĠirÃ¡ny ban
ĠtalÃ¡lkoz ott
ĠSecret ary
ek ezet
ĠLi ber
m ot
ĠS em
Ġis lands
Ġfin n
Ġfel ker
h on
m ad
ĠelÅĳ kÃ©sz
ĠjÃ¡tsz ottak
ĠM un
ĠbarÃ¡t ja
ĠÃī let
Ġa im
et Ã©ben
ĠJ Ã©z
ĠZ en
ĠE ach
Ġrend es
Ġp ick
sÃ¡g ba
Ġelektrom os
ĠF il
ot ed
Ġrec ently
Ġszabad on
ĠpÃ¡r izsi
ĠslÃ¡g er
Ġinter c
ĠB ert
ĠevangÃ©l ikus
ĠWh it
Ġkialak ult
ĠÃ©rkez tek
r ag
ĠMo ore
Ġfranch ise
hat unk
ry st
Ġur ban
ĠS ix
p o
ut ing
Ġkommun ik
Ġmind ent
Ġkap cs
Ġstand ing
Ġfel te
Ġhogy an
ĠnÃ©p essÃ©g
Ġ189 2
b ÃŃr
ĠkÃ¶vetkez ett
Ġcommon ly
Ġhat odik
Ġal Ã³l
Ã¡rt Ã¡k
Ġbattal ion
ut ation
Ġny Ãºl
Ġjelent ÅĳsÃ©g
eng ers
out s
Ġsup por
mar ad
Ġg Ã¡t
ĠU ni
Ġel kÃ¶vet
ĠgyÅĳz elmet
ĠFr ont
Ġlass an
ag ement
Ġfam ilies
ony m
Ġgy erm
ĠvÃ¡ros a
ĠvasÃºt vonal
iszt ikai
fl ikt
Ġt at
ĠT echn
ĠComm on
Ġcon vers
Ġn arr
Ġnemzet sÃ©g
er ick
ĠlÃ¡t vÃ¡ny
ĠBraz il
por ation
Ġhe ight
fel d
Ġsing ing
Ġcre ation
Ġflood ing
Ġveszt esÃ©g
F or
ĠF ire
Ġkezd tek
Ã©l zet
Ġverseny zÅĳ
Ġr ug
O S
utat Ã³
ist ics
ĠPe ople
ĠMic hel
Ġor g
Ġentir ely
Ġszerkeszt Åĳ
Ġfres h
Ġh Ã¡zt
ĠG a
Ġmagyar ok
etlen Ã¼l
pont ja
ĠSh ort
ĠPro v
Ġtra v
if orm
Ġart icle
ĠajÃ¡n dÃ©k
Ġf esztivÃ¡l
Ã¼l nek
ĠEgy iptom
Ġprot ect
Ġnuc lear
ĠsÃ¡r ga
ossz Ãº
Ġt im
Ã¼ sz
ig e
F C
ĠV Ã¡r
Ġcsapat Ã¡ban
ĠSzer b
ĠSz Ã©
Ġper fect
ent in
Ġlemond ott
ĠY our
ĠS el
Ġt ry
Ġm ist
Ġkommun ista
M ar
Ġ ort
ĠterÃ¼let eken
ay er
Ġ188 8
ĠWh o
Ġwithd raw
Ġprot ot
kÃ¼lÃ¶nb Ã¶zt
Åĳk Ã©p
Ġad vert
hat juk
Ġ uk
Ġs ession
ĠK ir
Ġpurch ased
ul i
ĠR ome
Ġun ique
Ġspec im
Ġ189 9
Ġt as
Ġext rem
Ġkiss Ã©
i bb
ĠK o
Ġdef ensive
Ġdep ict
ĠmÃ¡sod per
besz Ã©l
ĠlÃ¡t sz
Ġill ust
ez s
Ã¡n g
ĠR Ã¡d
Ġtechn ik
ĠPier re
on z
Ġfal ut
Ġac ad
Ġtyp es
or na
ĠM ain
Ġth ing
ud a
ab les
ĠPr ime
Ã³ ly
Ġyoun ger
Ġdec re
ĠGy Åĳr
ĠForm ula
Ġsec urity
Ġm Ã©rt
Ġarr ival
ĠRail way
szab Ã¡ly
ov iÄĩ
ĠrÃ©g Ã©szeti
Ġs ets
Ġsz Ã¼n
ic it
Ġsik ere
Ġin fr
Ġ189 1
Ġ189 4
ĠszÃ©k helye
Ġadvant age
È Ļ
iz ett
Ġbas eball
Ġcontrib uted
ĠegÃ©sz sÃ©g
Ġlim it
Ġsched uled
en h
Ġel imin
Ã³p usi
Ġment ioned
ĠRuss ia
Ġaccompan ied
ĠAl sÃ³
ĠÃģllam i
szerÅ± bb
r ac
p el
Ġh Ãºs
Ġqu ite
Ġmon arch
Ġg ather
ĠP ower
Ġdiplom Ã¡t
ĠFur ther
Ġpro jekt
ĠMc G
Ġw orth
8 8
Ġc atch
Ġp ir
ĠA D
Ġun us
Ġsiker rel
Ġc art
pr Ã©m
l aim
I t
ĠKent ucky
Ġszig orÃº
ĠM oon
obb y
Ġminden ki
Ġpro s
ĠKer eszt
Ġcomp uter
al y
Ġb ez
ĠMag az
ĠKenn edy
int Ã©zet
ĠH om
Ġrequ est
el son
Ġcontain ing
Ġlegf Åĳbb
os is
ikus an
ÃŃtÃ¡s Ã¡ban
tat ott
ÃŃ lia
ik Ã³i
Ġmunk Ã¡jÃ¡t
Ġintens ity
Ã¡l at
Ġperform ing
z er
Ġbar okk
k ezet
Ġkor ban
Ġsem mi
Ġkon flikt
or ok
ĠR el
Ġ189 7
w en
Ġsz al
ran ged
Ġlegis lat
Ġsiker Ã¼l
Ġs le
ker esked
Ġm ig
Ġdec k
Ã© gy
Ġt ail
Ġ188 9
Ġexist ing
resp ond
Ġoccup ied
ĠM ikor
ĠKirÃ¡ly i
Ġste am
ĠL ap
ĠG un
Ġellen Ã¡ll
ĠtÃ¡vol sÃ¡g
ĠInd ust
ĠS in
ĠTh rough
Ġdi agn
tek int
u a
ĠfebruÃ¡r jÃ¡ban
Ġreng eteg
z ant
bi zt
ĠP lan
aj zs
ĠJew ish
ĠW olf
Ġad vent
ĠAnd y
Ġp owers
Ġd all
Ġfelt Ã¡r
vÃ¡j ci
M i
ol o
rog Ã©n
Ġamely en
j ekÃ©nt
Ġjelen lÃ©t
Ã¼gymin iszter
ĠKev in
l ett
ĠW ell
ist ol
Ġtem et
Ġprov ides
Ġdig ital
Ġcerem ony
Ġ14 5
ĠkÃ©ny telen
El sÅĳ
Ġmount ed
Ġphil os
Ġre mÃ©ny
ĠR et
ĠR ain
Ġokoz ott
Ġclos ely
Ã¡s ba
ĠP C
Ġst ore
Ġm outh
ĠKore an
Ġc old
Ġcar ry
Ġtit les
onc Ã©
ul ate
Ġvis ual
ib li
vÃ¡lt ozat
ĠM aur
Ġmagyar Ã¡z
ĠJ Ãº
ei re
ĠCon ference
Ġhold ing
Ã¡poly i
Ġexped ition
ĠD ean
we et
it enger
ĠC ape
Ġh un
Ġ186 7
M agyar
ĠBe ach
ĠOlymp ic
ĠJac ob
Ã©r mes
ep lay
Ġwh y
Ġesc ort
Ġd zs
Ġr ated
Ġspe ak
Ġny el
ĠIg az
on ta
ad ni
ĠD ig
Ġbo ats
Ġhat Ã³sÃ¡g
Ġcl imb
ĠSong s
Ġcult ural
k it
Ġt Ã³
Ġfoglal ta
Ã¡rok at
Ġt all
se jt
Ġhoz tÃ¡k
ĠW ater
ĠAr ts
Ġeg g
Ġtra il
Ġalapvet Åĳ
ol v
ĠH el
ĠÃ©let ben
adÃ¡s ul
Ġbizony ÃŃtÃ©k
l Ã©k
Ġrend ezte
Ġeml ÃŃtett
Ġ188 5
Ġloc ations
ot ic
Ġah onnan
w ing
Ġport ugÃ¡l
Ġindust rial
l Ã³k
Ġex port
ĠSt ock
ino is
ail ag
ezÃ©s Ã©ben
Ġakar ja
in er
Ġded icated
ĠD ur
ĠkÃ¶r zet
Ġ12 7
onn el
Ġegy kor
Ġfe ud
Ġl ig
ĠpÃ©n zt
and o
Ã¡ll om
Ġter ror
szer vezet
Ġmellett i
ĠpÃ¡ly Ã¡n
Ġsupport ing
ket ball
19 0
sÃ©g nek
ĠPrem ier
m und
Ġfl ow
ĠTor ont
ĠE ven
ĠÃºjsÃ¡g ÃŃrÃ³
ia b
ĠPÃ¡rizs ban
szki j
ĠFranc is
Ġtra ins
Ġrak Ã©t
ĠC os
ĠÃ¡ll ÃŃtottÃ¡k
Ġkaton a
Ġcent uries
Ġpolit ik
lev Ã©l
Ġk ur
Ġbel ong
Ġhal ott
Ġkomp on
ĠSzab Ã³
Ã¡s hoz
ĠJen Åĳ
Ġ Ã¼lÃ©s
Ġtr ag
Ġdra wn
ĠHow ard
ĠD ick
Ġprot ected
Ġmot ion
y les
ĠK am
er ved
ĠÃ©rvÃ©ny es
Ġleg rÃ©g
ĠÃŃ g
ĠStan ley
Ġsz ult
Ġstr engthen
ĠÃ¡ll om
Ġopportun ity
hes s
Ġcons ists
Ġhot el
ĠDoug las
Ġeng aged
Ã¡zs iai
ĠszerzÅĳd Ã©s
ĠPr in
ĠtalÃ¡l hatÃ³k
it led
ink ban
Ġun f
Ġfoc used
ir Ã³l
Ġaugusztus Ã¡ban
ul Ã¡sÃ¡t
ĠN a
Ġk ong
Ġey es
Ã©st Åĳl
Ġrece iving
Ġsout heast
Ġv ont
Ġa id
en burg
ĠGerman s
ĠBow l
ĠH ÃŃr
Ġer k
y e
Ġs and
ul ni
ĠvÃ¡lt ozÃ¡s
Ġhagy ta
Ġv ezett
Ġcs al
Ġpi ros
Ġs quad
eas ed
Ġcom ic
k ert
ek ul
ans as
Ġcall s
Ġa st
ĠvÃ©g eztek
fÃ©l Ã©k
ĠszÃ¡z alÃ©k
m od
ĠG ulf
ĠÃ©rkez Åĳ
ÃŃt s
Ġreg ions
ĠE bbÅĳl
ĠBy zant
Ġfaj t
ĠAl so
Ġ188 4
Ġth row
Ġ14 9
Ġsub mar
Ġharm ad
os h
ag i
Ġexperi enced
Ġakkori ban
Ġc ard
ĠEr n
Ġc ricket
Ġfalu ban
ĠSpr ing
ĠPozs ony
jel Ã¶lt
Ġh ired
att an
Ġhaj Ã³t
ĠRe form
ĠC irc
Ġsh ark
ĠSp ace
ĠJapÃ¡n ban
Ġprot ection
Ġideig len
Ġshoot ing
Ġis ol
ĠvÃ¡l ogat
Ġrapid ly
w a
Ġcs od
ĠOrosz orszÃ¡g
s ons
b al
Ġfenn maradt
Ġa er
Ġcit izens
Ġr ise
szÃ¡m a
Ġleveg Åĳ
W hile
us c
Ġfolyam atos
unt ing
Ġs ar
Ġs Ã¡v
t Ã¶n
ĠK iss
Ġnev ezet
ĠkÃ¶ny ve
ĠEm peror
ĠK up
Ġturn Ã©
Ġ ÃŃv
Ġd rop
Ġ9 00
Ġthem es
mÅ±v ek
ograph ic
ĠBat man
ĠN etwork
Ġform Ã¡jÃ¡ban
ĠBÃ©cs ben
ĠEar l
Ġszer t
ĠmÃ©rkÅĳz Ã©st
Ġt Å±nt
Ġsz ex
Ġres ident
ĠkÃ©s Åĳ
t udomÃ¡nyi
Ġview ed
ĠSpec ial
Ġapr Ã³
Ġ10 5
ĠÃ¡prilis Ã¡ban
ĠR oc
Ġl ondon
ĠtelepÃ¼lÃ©s en
Ġsim ple
Åĳleg es
Ġhit el
Ġkan adai
ĠB ry
Ġhar ang
ĠD omin
ĠV Ã¡ros
ut s
ĠmÅ± szaki
Ġmer ch
par ancsnok
ĠelkÃ©sz Ã¼lt
Ġtartoz nak
Ġmeg kÃ¼lÃ¶nbÃ¶zt
ĠhÃ¡borÃº ban
tt Ã©
ĠWind ows
Ġd Ã¡n
Ġg ain
ĠF a
m agyar
ĠNap Ã³le
om pl
Ġel even
T A
Ġ7 4
Ġbet Ã¶lt
Ġ188 1
ol va
ĠÃ©rett sÃ©g
ĠJ ane
m Ã¡s
Ġstruct ures
Ġleggy ak
Ġprov iding
ĠszÅĳl Åĳ
Ġcasu alties
Ġr oll
ĠeredmÃ©ny e
Ġb ont
ÃŃ ni
Ġs Å±rÅ±
Ġtri p
se a
Ġw arm
l Ã©s
ĠP ear
ĠR ick
ov Ã¡
Ġinters ection
Ã¡rt on
Ġfelsz abad
ĠBey oncÃ©
ĠR un
Ġhaj tÃ³
ĠH av
ĠMar ie
ĠBr un
ĠÃ¶sszek Ã¶t
Ġed ge
Ġvol ume
Ġcon ference
ĠRe al
ĠtÃ¡mad Ã¡st
ed tek
Ġb ranch
Ġcurr ently
M A
ol as
ĠP ont
ast y
ĠGu y
Ġegy ez
ĠWar ner
Ġfunk ciÃ³
szÃ¡m Ãº
Ġstrat Ã©g
r Ã¡lt
ile y
all gat
Ġrit kÃ¡n
Ã¡j Ã¡ba
Ġk ore
Ġbev on
ĠF ekete
el Ã©st
ĠT ropical
ĠÃ³ v
Ġcor respond
ĠAn im
Ġhossz a
ĠrÃ©sz Ã©ben
Ġsh ared
ĠkÃ©rd Ã©s
w an
Ġe hhez
olog ist
ĠP ublic
ia ble
ĠV l
Ġfel osz
Ġdevelop ing
Ã³ zs
Ġch ance
ĠChar lie
Ġfac ilities
ik i
ĠpÃ¡rhuzam osan
Ġ ign
Ġtud tak
ĠSing ap
ĠAdam s
Ã³p Ã¡ly
ĠRÃ¡k Ã³czi
okr ata
el Åĳk
Ġj oint
hÃ¡z ban
ĠAr senal
in ary
Ġp ad
Ġsub stant
ĠbajnoksÃ¡g ban
ĠplÃ©b Ã¡ni
is hes
ĠÃ³ri Ã¡si
v izsg
Ġk ulcs
Ġtartalmaz za
ĠBeat les
ĠÃ¶rÃ¶k Ã¶s
Ġthe at
Ġ184 9
Ġnot able
u il
Ġschol ars
ĠPÃ©ld Ã¡ul
om ot
ĠF ehÃ©r
Ġin hab
Ġr are
Ġlak Ã³i
Ġ187 6
ĠR ose
ink ron
ĠS vÃ©d
vers e
Ġhom ok
Ġfi x
ĠJ es
Ġ |
ĠV inc
jÃ¡r Ã¡s
ĠkÃ¶zigazgat Ã¡si
ĠJÃ©z us
ek tÅĳl
Ġtemper ature
ĠÃ©pÃŃt Ã©sz
Ġ ettÅĳl
ĠV is
Ġappro ved
Ġrecogn ized
Ġh Ãºsz
ev ille
Ġ188 6
Ġelny erte
at ures
ĠÅĳsz Ã©n
Ġpolg Ã¡rmester
ert ed
ĠÃ¶ssz etett
Ġeconom y
p ir
Ġs ave
Ġsignificant ly
Ġkedv ezÅĳ
ĠDemocrat ic
ĠD y
oss Ã¡
ĠvalÃ³ ban
Ġdef ined
Ġuns uccess
ĠnÃ¶v ek
Ġszem l
ĠOr igin
ocs i
Ġsouth west
Ġutc ai
Ġfesz Ã¼lt
ĠvÃ¡ll alt
Ġkort Ã¡rs
ĠR ic
sÃ¡g gal
Ġak ivel
Ġkn ew
Ġhad i
ĠHad sereg
ĠjÃºnius Ã¡ban
Ġvisszavon ult
Ġsecond ary
tel ep
Ġloss es
if ul
ĠThe atre
Ġelm enek
8 5
G N
Ġfor est
Ġ187 3
Ġalkalm Ã¡val
ib Åĳl
Ġsel ection
ĠMar git
Ġhead s
ĠmegelÅĳ zÅĳ
ra eli
Ġcont est
ĠSingap ore
Ã¶r ny
ĠidÅĳ n
ĠRy an
Ġgo es
Ġste el
Ġchart s
Ġlondon i
Ġs i
Ġprep ared
at Ã¡s
un te
ĠL ock
ogrÃ¡ fi
8 6
Ġco ol
Ġvalam ennyi
Ġband s
ok nÃ¡l
sÃ©g Å±
ul y
ert heless
ĠF ej
Ġinst ruct
Ġneg atÃŃv
usz ta
Ġgam eplay
Ġrough ly
Ġs ites
ol nak
Ġa usztrÃ¡l
Ġw ait
ĠC rit
Ġhe t
Ã¡ h
ĠOn ly
Ġsem i
P A
em Ã©t
ĠÃºj onnan
Ġ13 5
ĠT Ã¡rs
Ġw itness
ĠMag n
Ġtur b
ezÅĳ je
Ġwat ched
ci ous
Ġex act
s s
et ch
ces szor
Ġkider Ã¼l
Ġh itt
Ġas k
ĠV III
Ġimpl ement
esz kÃ¶z
ed zs
ly al
Ã¡t h
ĠL ieutenant
os ter
Ġfel jegy
l ar
ĠR ang
at art
et ik
Ġbiz Ã¡nci
b reak
ut ies
Ġstory line
ad or
b ÃŃrÃ³
ĠÃ¶ssz eg
ĠB eth
irt elen
Ġl at
ĠMc K
Ġkiv Ã¡laszt
ĠÃ©pÃ¼let et
Ġfal v
Ġc ars
ĠkÃ¶zt i
Th ere
ĠÃ¶n kÃ©nt
Ġb ak
Ġbro thers
Ġinj ured
Ġszerkeszt Åĳje
Ġmy th
W ith
um ot
Ã¡k nak
ĠcsalÃ¡d ja
Ġany thing
s Ã©rt
Ã¶lt Ã©k
ĠEl len
Ġb om
Ġv ic
Ġlett ers
Ġpublic ation
Ġangol ul
ĠtevÃ©keny kedett
Ġtran sz
an th
it ter
Î ±
ĠF arkas
ĠCo oper
ĠAp ja
z Ã¡r
Ġenerg i
Ġenjoy ed
Ġsymb ol
sz Ã¡z
Ġfel Ã¼gy
Ġemploy ed
Ġneigh bor
Ã© e
um in
Ġfed Ã©lzet
Ġjobb Ã¡gy
Ġsikert elen
ĠJugoszlÃ¡v ia
Ġbuddh ista
Ġt ork
ĠU pon
elm Ã©let
Ġf ash
Ġg etting
Ġigaz Ã¡n
a ug
sÃ¡g Ã¡nak
ĠSt ation
ĠtalÃ¡l ta
g n
Ġbel ief
Ġact ress
Ġconc ent
hen s
darÃºg Ã³
for r
ĠcÃŃm e
ĠÃ©rt elemben
Ġdecl ined
int on
Ġsh ape
ĠCh annel
ĠforgatÃ³k Ã¶nyv
kÃ¶z pont
Ġund ert
ĠegyszerÅ± en
Ġk ick
ĠfÅĳ herceg
ĠEr re
Ġmeglehet Åĳsen
Ġc ore
ĠB Ã©k
uk ra
ĠvilÃ¡gbajnoksÃ¡g on
ĠAdd ition
ub le
ĠKÃ¶z ben
Ġeny h
ar o
ĠtÃ¡b l
Ġigaz olt
Ġda ily
Ġk ÃŃ
et eket
id i
Ġpaint ing
Ġk ock
ĠszÃ¡zad tÃ³l
ĠMus lim
Ġkifej leszt
rop ri
Ġsh aped
Ġsz t
Ġker ek
Ã¡k ra
Ġkutat Ã³
ĠkikÃ¶t Åĳ
any ar
Ġadd ing
Ġp iano
v iz
Ġjavas lat
Ġor ient
ian us
Ġd ry
ed i
ĠKÃ¡r pÃ¡t
Ġnehez en
ĠL ow
ĠAp oll
Ġd rew
aj t
szerk ezet
ĠÃ¡ll amp
el hetÅĳ
ĠP as
ild ing
ad Ã¡sa
ĠB ush
Ġre asons
ĠKirÃ¡ly sÃ¡gban
ĠNapÃ³le on
n s
Ġs ej
Ġmegjelen ik
ar on
Ġhaj Ã³k
ĠpÃ¡p ai
ic z
ĠÃ©l elm
Ġren amed
Ġa wards
Ġw rest
ĠInd epend
em i
Ġ7 3
ĠL anc
elÅĳ je
Ġanal ysis
Ġtechn ology
p ear
kod Ã³
ĠH i
Ġinst all
Ġal elnÃ¶k
Ġs un
Ġm os
Ã¶ bÃ¶l
Ġrel ief
ĠWil helm
j an
Ġ188 7
ograp her
Ġsz lovÃ©n
Ġr Ã¡j
Ġ8 2
Ġhaszn Ã¡ltak
ĠnyÃºjt ott
b ound
ĠW rit
Ġnagy lemez
let on
fok Ãº
Åĳ re
Ġper haps
ĠAn ne
Ġm ex
ĠAir port
Ġdig it
Ġhead ed
ac hel
ĠbÃŃrÃ³ sÃ¡g
Ġmeg vÃ©d
ĠÃ¶ssz ecsap
Ġkelet kez
w eg
akes pear
Ġconver ted
Ãº v
Ġ187 2
r Ã³mai
Ġconn ected
h ogy
Ġallow s
Ġresist ance
ĠT enn
ĠSt and
Ġappro ached
ĠB ened
ce ived
ĠCol or
ĠPat rick
Ġ11 5
Ġszint en
Ġ188 3
Ġpopular ity
Ġort odox
ĠB ang
Ġbemutat ott
Ġhoz tak
ĠC am
ĠI b
hely en
Ġest ate
Ġequ al
Ġincreasing ly
Ġk arm
Ġg Ã³t
Ġst adion
te enth
kutat Ã³
v Ã¡z
egy es
Ġag ricult
ÃŃ a
end es
ann ed
Ġ *
Ġfel kÃ©sz
ĠBr and
g or
Ġegy enes
ĠH end
hegy sÃ©g
ĠAmer ikÃ¡ban
ĠSup reme
ĠH op
Ã©z ia
c ome
Ġs oul
Ġut at
ink ing
Ġrep utation
Ġturn ing
Ġelfoglal ta
ĠD og
ĠM ans
Ã©r te
ja inak
Ġcsak nem
ressz us
Ġcsat orna
ĠVide o
E urÃ³p
ĠC ru
Ġs vÃ¡jci
ĠL as
ja v
Ġel e
Ġg Ã¶r
Ġdep th
Ġkrit ikus
Ġfenn hatÃ³
vÃ¡j c
Ġmindegy ik
Ġtal Ã¡ltÃ¡k
ĠG h
Ġhen ger
ĠP etÅĳ
ĠGram my
ill es
ĠpÃ©nz Ã¼gyi
Ġk az
Ġrul es
Ġag ent
ĠszÃ¶vet sÃ©gi
Ġst adium
ĠO reg
ĠEz eket
Ġscient ific
Ġjelleg zetes
Ġsz Ã¶k
Ġfog ja
Ġb enn
Ġtekint hetÅĳ
Ġeas ily
Ġdist ingu
Ġfut Ã³
ĠfÃ©rfi ak
Ġmiss ing
Ġszer zetes
ens is
ĠMary land
Ġst ock
ĠkÃ¶rny ezÅĳ
ĠNor way
ĠkÃ©pviselÅĳ je
Ġun p
Ġrespond ed
Ġparall el
ĠU TC
ĠGer gely
t emplom
Ã¼let e
ĠAl len
ĠtrÃ³n ra
Ġpor osz
hes sen
Ġs ell
ĠÃ¶ reg
Ġur adalom
Ġregard ing
od Ã³
Ġest e
p osed
Ġopin ion
Ġaltern ative
z Ã©sek
ĠC E
Ġ187 1
ĠIm perial
e ing
Ġsc hem
Ãºt i
Ġsus tained
ĠhÃ¡zt art
Ġwe alth
Ġ Ã©n
Ġc ited
Ġre kl
ĠG len
Ġlearn ed
ag g
Ã³d Ã¡s
Ġsuc ceeded
Ġcoll ected
Ġ187 8
k ot
Ġst ages
Ġkiv itel
Ġjour ney
ĠSzÃ©k ely
Ġex erc
ĠA I
alma zta
Ġm useum
ust on
Ġt onn
ĠR ey
Ġvalam ilyen
ĠÃ©des apja
it ors
ĠN ich
Ġ188 2
Ġsz uper
ĠT ol
Ġre k
ĠFÅĳ iskol
Ġliter ature
ĠJord an
ir atok
Ġuralkod Ã¡sa
ing ham
Ġbel ga
ĠN elson
ĠH ere
ĠMc L
ĠLengyel orszÃ¡g
Ġproject s
rab ban
i os
ĠPhil ip
Ġtrans form
Ġweak ened
d ok
or gan
al f
th m
ĠtermÃ©szet esen
Ġbocs Ã¡t
ĠrepÃ¼l ÅĳtÃ©r
ĠA fr
Ġkilog ramm
ign ment
Ġplann ing
oz nak
Ġszob r
ul pt
Ġv eter
ĠS opron
rog ram
ĠÃ¡llapot ban
Ġm un
ĠhÃ¡borÃº s
k Ã©
ĠMul der
ock ey
ĠB an
ĠMar os
Ġv Ã¡gy
Ġon nan
ĠAm ong
ĠB ack
Ġ7 1
Ġknow ledge
or ozat
ossÃ¡g a
ĠN aval
Ġhat Ã¡st
eny om
Ġocc as
atlan ul
evel and
Ġconst itution
Ã©se inek
D S
Ġm o
Ġp Ã³t
Ġperc ben
Ġc ells
ÃŃt sa
Ġrab szolg
Ġakik et
ell el
ew here
ĠÃ¶z vegy
Ġv eget
Ġret ire
Ġcar rying
ĠHaw ai
Ã¡r ium
ĠÃ¼ d
ĠW y
Ġnyel vet
ĠP ur
Ġ8 1
Ġse ems
Ġiskol ai
Ġlast ed
Ġfre eway
Ġlel k
Ġreact ion
Ġr hy
Ġcon front
ĠbÃ©keszer zÅĳdÃ©s
w ise
ar en
up t
Ġsaf ety
ly n
ni uk
Ġ18 00
ĠSh akespear
Ġszent Ã©ly
ĠSimp sons
sz Ã¶vet
Ġ187 5
Ġh ind
Ġn it
Ġland fall
ĠautÃ³b usz
ol hatÃ³
Ġoper ating
ĠVietn am
os em
iss ance
ĠMed ia
ĠIll inois
ĠkÃ©m iai
C s
r ett
Ġnagy b
Ġbirtok os
ĠM L
Ġret ained
p an
Ġel se
b ell
Ġ14 7
ĠOr der
ĠNor man
Ġh its
Ġszer zet
Ġsz lÃ¡v
Ġelhely ezked
ĠA ge
Ġdef ence
ĠUgyan akkor
h Åĳ
Ġb elt
ed Ã©s
Ġsz Åĳr
Ġimpro ve
Ġrekl Ã¡m
Ġy outh
ĠvÃ¡ros Ã¡ban
ĠOn ce
ĠOreg on
ig en
Ġreb u
ĠM ess
ĠOlasz orszÃ¡g
ĠL ang
Ġfl at
Ġshow ing
ĠhasznÃ¡l ja
Ġac res
Ġview s
Ġintrod uction
Ġaut h
ĠRes earch
Ġexist ence
egy Ã¼tt
oh n
Ġbur ied
Ġl b
Ġpers onnel
Ġst ream
ĠpolgÃ¡r hÃ¡borÃº
ĠMor gan
ĠÃ¡tlag os
Ġn avig
Ġar ranged
szÃ¡m l
ĠD E
Ġob jekt
S aint
Ġ10 9
ĠCar ter
ĠR ow
ĠMagaz ine
ĠSt adium
ĠRh odes
f esztivÃ¡l
ĠTh or
Ġele inte
Ġsz Ã¡l
ĠD ue
Ġpl atin
Ġgy an
Ġ9 4
ĠFor est
Ġpat ak
ĠvizsgÃ¡l at
Ġt Ã¼ntet
Ġex change
Ġtel efon
Ġmilli Ã¡rd
Ġrepl ace
Ġgen re
ĠL abor
ĠÃ©g haj
Ġdesign s
ĠK rist
ÃŃv um
ĠOl iv
Ġes ik
Ġdin asztia
ĠV ers
Ġn Ã¡d
Ġtud at
val Ã³
Ġap art
ecsk emÃ©t
ĠszabadsÃ¡g harc
ĠCh er
Ġtan Ã¡ri
Ġearli est
ĠIndian a
Ġcred ited
Ġt ized
Ġcoast al
ĠMÃ¼n chen
Ġuk rÃ¡n
el lyel
ĠJ uan
Ã¡ll am
Ġ186 9
ni Ã¼k
Ġplay off
Ġalkot ott
ok es
ins ula
ĠrÃ¶g tÃ¶n
Ġl Ã¨s
Ġd up
ĠH orn
ĠtÃ¼k r
m ill
ĠszÃ¡m ban
Ġgrad ually
Ġcust om
Ġm ocs
ĠkÃ¶zÃ©p korban
ĠAlf red
ĠKel ly
Ġcsapat ot
Ġproduc ing
Ġdom estic
ĠfÅĳszerep l
ĠH alÃ¡l
Ġfi Ã¡t
Ġfel szÃ¡m
idd en
isp Ã¡n
Ġaut on
ĠkÃ©r te
y t
ell Ã¡t
Ġtavasz Ã¡n
c ia
ĠL am
Ġfi gyel
Ġjut ottak
ĠÃį r
Ġstop ped
ĠszÃ³r ak
ĠColon el
Ġpro ceed
Ġtemplom a
ĠI ron
Ġmod els
Ġprop ag
Ġbatter y
ĠTur k
ĠtÃ¡plÃ¡l Ã©k
ush ing
Ġellen sÃ©ges
Ġent rance
Ġ186 5
ĠS Z
ĠS cience
Ġkih asznÃ¡l
u ro
ĠA th
Ġcamer a
Ã© jÃ©t
Ġt ick
ĠS vÃ¡jc
ĠorszÃ¡g ot
Ġpo em
Ġkrit ik
Ġleg sz
ĠCl eveland
Ġmegalap ÃŃtotta
on ikus
ĠT s
vidÃ©k i
ĠH arm
Ġdolg ozik
Ġj azz
ik ing
k irÃ¡ly
ĠB ed
amp ton
Ġszolg Ã¡lÃ³
Ġsettl ement
ĠP Ã©cs
Ã¡ly i
ĠrÃ©sz vÃ©tel
ival ent
Ġmaint ain
ĠR ap
ĠSz Ã¶vet
Ġre kord
ĠH ong
Ġmag Ã¡val
re ets
ĠPro f
ill ing
Ġfej ezet
Ġcamp us
ĠPro ject
Ġres erve
Ġrec ept
ĠH Ã¡z
Ã¶v ide
ist an
Ġmegt ud
Ġlakos ai
Ġfill ed
ĠKatal in
ĠC ur
Ã¶tt ek
Ġm ez
id el
Ġ14 6
ĠKÃ¡l mÃ¡n
Ġfaj ok
ĠOlymp ics
Ġbas sz
Ġmegle p
Ġh av
Ġexc lus
Ġsz Ã¶v
ĠK Åĳ
ĠN ow
ĠPh ill
ĠkÃ¶zÃ¼l Ã¼k
er land
Ġnot e
ĠSte wart
Ġappl ied
Ġk omb
Ġ186 4
ĠAb out
Ġit ems
ĠC all
ĠUS S
Ġrendszer t
ĠÃŃr Ã¡sos
Ġzs Ã¡k
ĠOtt oman
Ã¡n sz
Ã©m on
h n
v Ã¡llal
ĠP itt
Ġ186 8
k ai
re i
air a
ĠRÃ³m a
chest ra
Ġsuppl ies
ĠjelÃ¶lt Ã©k
hÃ¡z y
igh ters
Ġszerint i
ĠM eanwhile
ĠPu erto
em ies
cs er
ĠU lt
Ã¶zt ek
Ġdeliv ered
Ġh irtelen
Ġel f
Ġmil it
ĠbÃ©k e
Ġviol ence
ĠI GN
ĠM aj
ĠC our
Ġres our
Ãī v
ĠPol and
Ġv ent
ĠI van
Ã¡g a
Ġbesz Ã¡m
Ġgl ass
ĠÃŃr ja
Ġdal a
Ġcandid ate
ĠM es
Ġcon sequ
Ġprogram s
izm ust
Ġa x
Ġm ort
omb ard
ĠÃļ gy
ĠW omen
Ġsh all
ĠAl ban
Ġmegalak ult
Ġm ak
Ġhaj landÃ³
Ã¶n gy
ĠifjÃº sÃ¡gi
Ã¡r am
Ġt act
Ġez Ã¡ltal
Ġind icated
Ġextrem ely
Ġv ess
Ġf olk
ĠVal Ã³
Ġg on
Ġreg iment
ĠszÃ¶vet sÃ©g
ĠstÃŃlus Ãº
Ġhasonl ÃŃt
ĠG ri
Ġkin y
Ġprison ers
ĠmÅ± hold
ĠCon fed
Ġ187 9
Ġsp ot
Ġreg ister
ot hes
ut ak
ar ia
Ġt able
koz ik
ĠRuss ell
Ġt ell
ĠN AS
ĠEar ly
Ġ186 3
ĠPark er
Ġrob ban
th y
ĠvÃ¡r at
Ġvar Ã¡zs
egy en
ĠMcC art
Ġind iai
ĠÃ©l vonal
o ci
ĠrÃ©sz esÃ¼lt
as hed
id ej
ĠjÃºlius Ã¡ban
Ġv ak
Ġeven ing
Ġtown s
Ã¡g Ã³
Ġb Ã¡zis
Ġalap ul
ĠCor poration
Ġn orvÃ©g
un ch
Ġor bit
Ġfind ing
Ġcsap adÃ©k
Ġhum ans
Ġs ections
at Åĳr
mÃ©ny t
Î ¿
Ġb ought
Ġ182 8
es fehÃ©r
Ġk ip
Ġeng ines
ĠrendÅĳr sÃ©g
Ã¶vide bb
ol nok
Ġharm inc
l Ã¡ny
Ġ183 0
ĠMic ros
ek sz
Ġkik Ã©p
Ġ186 2
g ency
ĠvÃ¡lt ozott
ĠesemÃ©ny ek
ĠlÃ©t ezett
Ġform al
Ġrep air
Ġsc ulpt
Ġstat ement
Ġcser Ã©l
id Åĳ
Ġfr ag
ĠV esz
ĠErd Ã©lyi
Ġrit ka
Ġindepend ence
n ai
Ġdec ade
ĠelÅĳ adÃ³
ĠÃŃr tÃ¡k
haj tÃ³
ĠComm and
Ġthreat ened
ĠMatt hew
A ccording
r ÃŃ
Ġkon k
Ġkonz erv
Ġprinci pal
Ġbe fog
Ġpart ies
ÃŃtÃ©s Ã©vel
Ġk v
ĠL ot
Ġcomb ination
ific ations
ĠLab darÃºgÃ³
Ġkn ots
Ġway s
ro it
Ġv enni
or ni
ĠM aster
ĠfolyÃ³ irat
ĠÃ©rettsÃ©g izett
st anding
uck s
Ġbe Ã©p
Ġmess age
ĠAnth ony
ap es
ĠR u
op hy
Ġm ales
l ers
g ond
ĠR Ã©g
Ġdeath s
Ġ187 7
ĠL im
szer t
t ime
ĠT at
ĠM Ã¡rton
Ġel Ã©rt
ĠF ound
Ġ184 0
Ġbemutat Ã³
Ġh almaz
ol at
Ġfoglalkoz ik
ĠpÃ¡lyafut Ã¡sÃ¡t
ĠT u
Ġmex ikÃ³i
ur ban
am ing
Ġ8 4
abin et
ĠJour nal
ok rÃ³l
ĠkirÃ¡ly sÃ¡g
Ġerd Åĳk
Ġstud ied
nap i
Ãģ V
ĠvilÃ¡g szerte
Ġrul ed
Ġkiem elt
Ġszil Ã¡rd
Ġcs el
ĠSt ra
Ġ9 1
Ġm ir
ĠF ame
old ali
ĠKore a
ĠM ach
Ġterm inus
ul us
Ġ12 9
Ġrit k
ĠP ok
Ġsurv ived
ĠMarsh all
Å ¾
Ġfel e
ĠjÃ¡r at
Ġtor ny
ĠSar ah
Ġhad jÃ¡rat
ie u
ĠNB A
ĠH ud
ĠkÃ¶vetkez tet
ĠRob inson
ĠC er
Ġact s
Ġfoglal ja
Ġmeg Ã©p
Ġc rown
Ġpre ced
Ġt Ã©g
ĠJ ason
og en
ĠWeek ly
ĠSzÃŃnhÃ¡z ban
oz va
Ġlehet nek
Ġconv in
ĠL isa
Ġred uce
ch o
ĠhÃŃv tÃ¡k
Ġpropos al
Ġnagy rÃ©szt
Ġellen sÃ©g
any a
Ġfoglalkoz tak
Ġent itled
Ġb on
Ġes Ã©ly
Ġ Ã¡p
Ġrend elet
ĠtÃ¶ bben
Ã¡s d
ĠMad rid
ĠAuszt ri
Ġfranci Ã¡k
ĠszÃŃn es
ĠemlÃŃt Ã©se
ĠSam uel
ĠM ort
Ġvot ed
Ġbott om
B N
oly ai
Ġsec ure
Ġpromot ion
Ã©p Ã¼let
ĠÃ©l ett
ĠÃī v
omp son
ĠBr istol
em en
ÃŃt Ã©let
Ġgy enge
Ġevery thing
Ġp up
ĠAl i
ĠrÃ©sz ekÃ©nt
8 9
ĠC u
Ġintern et
Ã¶z ik
Ġalbum a
Ġmond ja
olit an
ĠWW E
Ã¡l i
Ġs now
ag en
ĠjÃ¡r Ã¡sÃ¡hoz
Ġtechn ikai
ĠL enn
Ġspecific ally
Ġmegny ert
Ġbreed ing
Ġt Ã©tel
ok ing
Ġcons um
I S
ĠS E
ĠJ Ã¡tÃ©k
Ġcap able
i at
Ġw ides
Ġe c
ĠÃ¶ssz egy
ĠMem orial
ĠfÃ¼gg vÃ©ny
oc c
Ġwrit es
Ġzen Ã©sz
Ġarr ested
ĠPol it
Ġid Åĳs
Ġpap ÃŃr
Ġtesz ik
Ġszult Ã¡n
c ent
Ġrec alled
Ġnap i
Ġd uty
Ġbe jut
urr ing
Ġking dom
Ġparancsnok a
y ard
Ġk ristÃ¡ly
Ġcross ed
ĠvilÃ¡ghÃ¡borÃº ban
ĠT i
ĠSund ay
ÃŃtÃ¡s Ã¡nak
Ġinv ited
Ġudv ari
g azdasÃ¡gi
Ġ #
ĠD ave
ĠO p
Ġalkot Ã³
ĠA R
Ġtan ks
ivers ary
Ġrev olution
Ġsk Ã³t
Ġsz inkron
tt Åĳl
Ġmet ers
Ġ187 4
Ġmegv Ã¡sÃ¡r
h ull
il ing
Ã¡ltal Ã¡n
Ġassist ant
Ġp ow
ĠB aj
Ġbe av
ĠIn stead
Ġro t
ĠMed iter
ennyi ben
Ġw ars
iz ations
Ġjog ot
Ġro w
Ġag o
Ġad mitted
gyÅ±l Ã©s
Ġdolgoz ni
Ġs ever
j ak
Ġ9 3
ĠSc ully
Ġlesz Ã¡rmaz
ĠstÃŃlus ban
Ġr i
Ġmeg Ãºj
Ġmely en
ĠlÃ©trehoz ott
ĠnÅĳst Ã©ny
Ġcomp osition
Ġinterest ed
r im
t Åĳ
ĠEng ine
Ġinst alled
Ġconv oy
ĠbÃŃ bor
Ġoff ers
erv ative
ĠrÃ³mai ak
Ġharc ok
Ġm ire
ĠP A
Ġshe l
bor ne
Ġportray ed
ford ult
Ġszor os
ent ially
ĠMor ris
Ġf ly
ut a
ĠL et
Ã¡sok ban
Ġac id
ĠhasznÃ¡l ata
ic ide
ĠHar ris
o oth
Ġf ict
Ġtart ani
ĠBar cel
Ġstart s
i Ã³t
Ġsp ons
ĠhasznÃ¡l nak
ri um
et nek
Ġal bÃ¡n
Ġhe ted
Ġdo or
ĠnÃ©gy zet
Ġgit Ã¡r
c ol
Ġimport ance
Ġinvestig ation
esk eny
Ġp unk
ĠtÃ¶rek v
oz zÃ¡k
Ġim pr
ĠJust ice
Ġf it
lo ad
Ġelfog laltÃ¡k
Ġegyed i
ay a
B rit
s ÃŃk
Ġsz Ã¶g
Ġca uses
Ġmeg szak
Ġter vei
Ġkr Ã³n
Ġmon ument
Ã¡s Ã¡rÃ³l
Ġszellem i
Ġlez Ã¡r
Ġrecomm ended
Ġpolit ics
Ġfem ales
ÃŃli ai
ĠS Ã¡r
Ġent ry
Ġvel encei
ĠB ros
Ġfel der
Ġzaj lott
ĠÃºj bÃ³l
ĠvÃ¡lt ozÃ³
iev al
ol id
Ġair port
Ġrad i
Ġrelig ion
w estern
ĠMar io
Ġup grad
Ġremain der
Ġsol id
Ġmind enn
Ġsz Ã¡sz
ch ar
Ġ13 9
ĠmÃ©r et
ĠOper a
8 7
Ġki Ã©p
Ġdet ails
ĠJ enn
Ġelveszt ette
ĠkivÃ©tel Ã©vel
Ġmeg ÃŃr
ran ean
jÃ©t Åĳl
Ġre z
olÃ³g iÃ¡t
Ġown er
S p
em Å±
Ġor r
Ġ186 6
Ġequip ped
s Ã©
ĠszÃ¡m on
Ġinter nal
Ġkider Ã¼lt
M E
Ġter ve
ĠtÃ¶bb Ã©
ĠbÃ¡rm ely
Ġkor szerÅ±
Ġ9 2
Ã Ł
em pl
Ġer rÅĳl
Ġret reat
Ġprov in
ĠMT A
ĠM iam
ĠK ovÃ¡cs
Ġleg Ã©ny
ĠkÃ¶vet i
Ġchar ged
ĠÃ©let et
Ġtulajdon kÃ©ppen
p read
Ġmutat ta
ĠhÃ³n appal
ĠShakespear e
ĠS or
ong ol
j ected
ĠK ezd
Ġam ellyel
Ġd ie
Ġon es
ezz Ã¼k
ĠH aj
r ence
Ġc ens
Ġr Ã¡juk
uc ing
acs k
er k
ĠD ol
rap h
Ġm Ã¡ig
ĠS ony
Ġconsider able
Ġez elÅĳtt
Ġbizton sÃ¡gi
Ġgit Ã¡ros
ĠnÃ©met Ã¼l
Ġrom b
m ont
ĠY ank
t len
ĠD C
Ġact ual
Ġd olog
Ġr ural
Ġind iÃ¡n
ĠN orm
Ġnev es
Ġfin om
em ing
ĠM ol
Ġmed al
Ġcr ime
Ġconcern s
if orni
Ġmin Ã©l
ĠtÃ¡j Ã©k
Ġtak ar
Ġr ich
Ġcon qu
Ġk ud
ĠS on
Ġfund s
b ev
Ã³ th
Ġegy Ã¡ltalÃ¡n
Ġpro per
ĠE P
Ġny ak
ĠAng lia
ciÃ³ s
Ġvalam i
Ġd ic
ow a
Ġfel mÃ©r
ĠszÃ¡rmaz ott
ap i
Ġsome one
Ġr Ã©z
els en
ĠFÅĳ iskola
ĠToront o
Ġn om
Ġismer te
Ġl ane
Ġe ighth
Ġpr ice
Ġbeh av
ĠE L
Ġem leg
Ġpromot e
b oy
Ġs an
Ġw inner
ĠK op
ant on
ĠkÃ©p regÃ©ny
Ġkelet re
ic ate
Ġnagy dÃŃj
enz ÃŃv
Ġigyek ezett
Ġk uty
ĠH ely
ekt or
Ġopt im
ĠjÃ¡r Ã¡s
Ġhiv at
Ġokoz ta
ĠP ot
Ġnomin ation
ĠhÃ¡t ra
ĠA ur
Ġsz apor
cs ont
Ġ3 50
ĠkÃ©p zÅĳ
Ġz one
ĠMon arch
Ġtyp ical
ĠM anu
Ġmeg nÃ¶v
ĠX box
H e
ĠH ell
ĠszÃ¼l ei
Ġ Ã¶l
il ation
ran e
Ġdec ades
vez Ã©r
it i
ic ian
os ite
ĠM ÃģV
Ġhar ck
Ġf ant
it age
Ġszer tart
Ġcsom ag
ek be
Ġro utes
ĠSing les
ĠirÃ¡nt i
j o
int Ã©n
Ġconsist ing
g Åĳ
iv an
Ġegy Ã©n
hed ral
Ġalak ÃŃtotta
Ġesz m
Ġph ase
ĠAnton io
Ġreg gel
ĠszÃ©k ely
ĠPort ug
g l
Ġbassz us
ott er
Ġground s
Ġdr iving
Ġproduct s
g ers
el Ã©g
ri be
Ġinst it
ĠBen j
ĠÃ¡tv ette
ĠFried rich
ĠK ate
le e
het ic
Ġem elet
v Ã¶z
Ġgy Å±rÅ±
Ġchall enge
Ġtil tak
Ġd uties
ĠK un
Ġro ham
Ġm Ã¡ra
ph oon
Å Ħ
Ġsz Ã¶rny
Ġcom pr
t Ã¡b
Ġmeg jegy
ĠD ance
uk ban
ct ions
Ġu j
a fter
ens Ãºly
ĠM and
ĠG or
ĠMar gar
ĠÃ©vek tÅĳl
Ġnyug atra
Ġal c
ĠL Ã©g
ather ine
iszer int
Ġp ati
Ã¡l iai
ĠAngli Ã¡ban
od tak
Ġp age
Ġtett ek
Ġslow ly
Ġt Ã³t
Ġcor rect
ik um
Ġtiszt a
Ġread ing
Ġm iszerint
ĠHot el
Ġb aj
ĠTh ompson
Ġfegyver es
ĠP av
Ġlel ki
ĠW he
ĠszÃ¡m ot
ĠGab ri
Ġbr igade
ĠegyhÃ¡z megy
ĠKriszt us
Ġnot ing
ĠP lat
Ã¡m i
ĠtÃ¶bb et
Ġext ension
ĠN ether
Ġ3 60
ind er
Ã³k er
ĠÃģ l
Ġperman ent
ag le
Ġseg ÃŃtett
ĠÃ¡llÃŃt Ã³lag
ĠC ook
al o
ĠNÃ© gy
ĠNor weg
ĠPetÅĳ fi
et Ã©se
ĠSz lovÃ¡k
Ġim ages
Ġocc urs
Ġfoglalkoz Ã³
Ġpost ed
im inal
ĠP ad
Ġnev Ã©hez
Ġall eg
ĠmegvÃ¡lt oztat
Ġpil Ã³t
c ement
ak en
ĠT un
Ġtet sz
Ġm anner
alm Ãº
Ġsuppor ters
Ġvess els
Ġp on
Ãº ri
Ġt Ã©l
ĠD ob
ĠW right
Ġen emies
ĠmÅ± vei
ĠhasznÃ¡l ni
Ġrad ar
ĠB uk
T V
ĠB ald
het jÃ¼k
Ġd ated
Ġent ering
Ġobject s
ĠInd ones
ĠÅ ł
het ik
Ġterv ezte
ĠApp le
sz Ã¡ll
Ġmeg fog
sÃ©g Ã¼k
ĠerÅĳ tel
Ġmegh Ã³d
ĠAr k
ix on
Ġtri an
Ġalacsony abb
c est
Ġf oss
ab d
ezÃ©s re
Ġcert ified
ĠMicros oft
Ġn est
B e
an z
Ġd ates
Ãº li
ĠP ic
ch i
leg esen
f riend
juk at
Ġhon vÃ©d
Ġsett led
ĠB ull
Ġtan Ãºs
ĠhÃ¡borÃº t
Ġcol our
ĠEx press
ĠT ed
Ġcle an
l ock
Ġ ib
Ã¡l jÃ¡k
Ġsub t
ĠfÃ¡j d
Ġf Ã©sz
Ġten ni
Ġfeny eg
Ġleg nÃ©p
ĠfÃ¼gg Åĳen
ĠlehetÅĳ sÃ©ge
Ġsyn t
Ġk W
Ġpurch ase
ed Åĳ
ĠP S
ĠelsÅĳ d
l ini
Ġfel Ã©pÃŃtÃ©s
Ġami ben
ier Åĳ
ott ed
ug u
aw are
Ġfash ion
Ġheted ik
us ter
ck now
ĠAg ain
a ft
Ġv Ã©kony
ac on
ĠÃ¶n gyilk
ig s
ipp i
dÃ¶nt Åĳben
Ġconcern ed
Ġtrian oni
Ġcsap att
Ġmegszer v
ĠJak ab
Ã³ ceÃ¡n
Ġdep artment
Ġmegjelen Åĳ
Ġvegy es
Ġasp ects
ĠlegyÅĳzt e
6 5
oth ing
ĠGy ak
Ġdisapp oint
ĠmÃ¡sod osztÃ¡ly
ĠRev iew
Ġisz lÃ¡m
at ur
ĠAss embly
he astern
agon ist
Ġwides pread
sÃ©g eket
ĠnyilvÃ¡n ossÃ¡g
Ġwear ing
ĠnÃ©p i
ĠÃºt jÃ¡n
m ph
v ard
Ġel beszÃ©l
un ak
omm od
Ġcompos er
Mi utÃ¡n
ÃŃ l
Ġinvol ving
ĠM ons
Ġinc ome
ĠTov Ã¡bb
y o
ug os
evelop ment
ĠHist ory
Ã¡ inak
ĠN BC
Ġtart alÃ©k
Ġ15 00
Ġold est
ig ur
Ġatt ached
Ġmod e
Ġdescrib ing
Ġelpuszt ult
Ġal ul
ph y
Ã¶rtÃ©n eti
ĠdÃ¶nt Ã©s
ĠM inn
ĠC ass
Ġacc used
essÃ©g Ã©t
s ok
Ġass umed
Ġv etett
zÃ©s Ã©re
Ġsk in
Åĳk kel
Ġequ ivalent
Ġdistrib ution
Ġharc olt
Ġk Ã¡ros
Ġc Ã¡r
ĠB od
Ġpar liament
el er
el ine
em elked
ĠÃ¡s vÃ¡ny
ĠirÃ¡ny ÃŃtotta
Ġrendszer int
Ġmagas sÃ¡g
ĠtÃ¼z Ã©r
Ġge omet
ĠvÃ©g zÅĳd
ĠvilÃ¡g os
Ġclass es
ĠCh ron
v esz
ĠD in
Ġwick ets
Ġtud jÃ¡k
ĠTod ay
Ġprotest Ã¡ns
ĠlÃ¡t tÃ¡k
ĠÃī p
Ġakt iv
Ġarm or
Ġconn ection
z Ã©sÃ©t
ĠA cc
Ġter Ã©n
ĠidÅĳk ben
ĠTib or
A fr
ĠO ak
Ġszab vÃ¡ny
ag ues
d or
Ġfel ajÃ¡n
ĠszÃ¡m Ã¡t
Ã¡ zta
ĠvÃ¡lt otta
ris is
ĠSz al
Ġrec on
ĠmennyisÃ©g Å±
oz ÃŃciÃ³
ĠSt ev
Ġsur vey
Ġegyen lÅĳ
o i
ĠW alt
ĠvilÃ¡g on
Ġreturn s
l ation
Ġc ip
Ġan s
hat jÃ¡k
Ġterm Ã©szeti
ĠSp ears
Ġhor ror
Ã¡l Ã¡sa
Ġprof it
Ġcorn er
m un
Ã©rt ve
ĠszÃ¡m ok
Ġbas ic
Ġfigy elmet
Ġk Ã©rt
Ġel kÃ¼lÃ¶n
Ã¶n k
ĠkÃ¼lÃ¶n Ã¶s
Ġszav ak
Ġminim um
ĠS ax
ens ions
Ġacc laim
ĠSch um
Ġob tained
em ed
Ã¡n us
Ġt ask
ĠterÃ¼let eket
Ġden ied
ĠtÃ¶rtÃ©net Ã©t
Ġident ity
r ine
ĠTerm Ã©szet
ro st
Ġ8 3
ĠorszÃ¡g ok
ĠeredmÃ©ny ekÃ©nt
ĠrÃ©sztv ev
Ġin her
ĠL og
okl ip
all as
Ġval ley
d r
ĠDet roit
Ġa cknow
Ġs essions
Ġm art
ĠW ol
ette bb
Ġacc ur
oz Ã¡st
Ġkezd Åĳdik
ĠmÅ±kÃ¶d Ã©sÃ©t
ĠDi ego
ÃŃ ci
ĠL iszt
ĠV it
Ġdeb ate
Ġszempont jÃ¡bÃ³l
Ġak k
Ġsequ el
Ġ Ã¶k
Ġmeg oszt
for rÃ¡s
ĠSt u
pt ion
b Ã©r
Ġs ailed
Ġseg ment
Ġfa ith
Ġcontrovers y
Ġthous ands
Ġf ine
ud den
Ã¶r Åĳ
Ġcirc ulation
g Ã¡
rop hy
m ezÅĳ
ĠSimp son
S h
ĠjÃ¶v Åĳ
ĠDire ctor
c ikk
o en
ĠI ra
Ġ13 7
Ġlen ni
r Ã³f
ott sÃ¡ga
Ġfran k
ĠE ug
Ġsh ots
Ġbel se
ĠPro t
ad Ã¡st
Ġad ap
esz Ã¡nsz
Ġcomm itted
Ġdepart ure
Ġpopul ations
st ate
ĠSz at
Åĳs Ã¶k
j ev
Ã©s hez
Ġto w
ĠL ast
ĠW els
Ġsup posed
ip e
Ġhely e
ek Ã©ly
oz Ã³k
Ġalakult ak
u hÃ¡z
ĠR oll
eg es
ĠT ud
ok ed
Ġszak Ã©rt
ĠemlÃŃt i
ĠmeghatÃ¡roz ott
Ġtem ple
Ã³p ont
Ġdem and
ez sÅĳ
Ġhely ezÃ©st
200 8
ĠDe ath
F Ã©nyes
ĠW ag
Ġismer ttÃ©
Ġstrong ly
Ġdec line
Ġcirc um
ĠB Ã¡n
Ġa sz
ĠB ach
em p
ĠMediter ranean
b es
Ġkon fer
Ġhost ed
ĠWin ter
at Ã©k
ust ed
Ġchar ges
Ġtenger part
5 5
z Ã©si
Ġdown town
200 9
Ġmiss ed
h asznÃ¡l
dar ab
rog en
Ġterjed t
d ie
Ï Ĥ
ĠS ab
ĠÃī r
Ġh ill
ett i
Ġreg ional
Ġrag ad
Ġder ived
N agy
ĠN FL
ep s
ĠbÃ¡r Ã³
ĠHo uston
ĠM Ã¡t
Ġdal ok
Ġmeg Ã©rt
ÃŃz iÃ³
burg h
cs i
Ġiskol Ã¡t
Ã©z i
ĠjÃ¡tÃ©k ok
Ġth irty
ĠsegÃŃt sÃ©get
ĠtÃ¶rtÃ©net Ã©ben
Ġvez Ã©ny
ÃŃg jÃ¡tÃ©k
Ġszik l
ĠK ur
av art
Ġvis elte
l on
ĠL ad
ĠNorweg ian
ed elm
ro id
ĠN ord
Ġtrans ition
ĠtrÃ³n Ã¶rÃ¶k
Ġox id
8 2
ĠB uck
ter g
ĠCon stitution
pat ak
Ã©k ek
Ġalbum ot
ĠbajnoksÃ¡g ot
ĠÃ¶nkormÃ¡ny z
ou x
ĠMur ray
ĠÃ¼gy nÃ¶k
Ġfeel ing
Ġr um
oz Ã¡si
sÃ©g be
Ġfl o
ĠHorvÃ¡t orszÃ¡g
is f
ÃŃtÃ©s i
ĠAd vent
ĠChrist opher
Ġposs ibility
is ebb
Ġev olution
Ġakik nek
ez ÅĳdÃ¶tt
ĠcÃŃm en
ek or
am s
oz Ã¡sÃ¡t
kÃ¶z Ã©p
Ġoklevel et
es ar
Ġsh op
Ġcsapat ai
Ġintellig ence
Ġn ed
ik on
ĠÅ±rhaj Ã³s
im ir
ĠJim my
Ġbehav ior
T S
ĠV all
Ġkatolikus ok
ĠLip Ã³t
atkoz ott
ĠIS BN
Ġglob al
ĠC amer
Ġbeg un
Ġgyilk ossÃ¡g
Ġf ruit
Ġr ar
ĠB enn
id ges
ĠW rest
Ġmen edzs
Ġliter ary
ĠA BC
Ġolimp iÃ¡n
ĠnÃ©p szÃ¡ml
Ġpro cesszor
Ġhigh light
cs a
Ġszok Ã¡s
Ġphot ograph
Ġbring ing
el Ã©si
ed t
ĠLe x
Ġexc eption
ĠÃĸ r
ĠMex ican
ĠEv ans
Ġstay ed
Ġ185 1
vilÃ¡g ot
Ġfigyelem be
b Ã©li
e u
Ġcl oud
ens es
Ġped agÃ³g
ĠvÃ¡ros ok
Ġread y
ĠÃ¶r Ã¶m
f egyver
Ġkies ett
m ers
ĠfÃ¶ld i
Ġanim ated
ĠPal ace
ĠB illy
ĠTem ple
ĠTrans port
Ġp ale
Ġmin ister
ĠterÃ¼let Ã©t
Ġfiatal abb
Ġp ajzs
ĠF ive
ĠCent re
Ġemer ged
ĠeljÃ¡r Ã¡s
) -
ĠG Ã¶rÃ¶g
Ġtart anak
Ã¡sz l
essÃ©g et
ĠFed eral
ĠA S
ta h
Ġrepl acement
k ant
200 7
Ã¡l ia
Ã©re g
szak asz
Ġpass engers
Ġgen et
ad alm
ĠMel bourne
ĠGil bert
zs Ã¡k
ag re
kor ong
ĠMin isztÃ©rium
Ġcommand ed
okrat ikus
Ġcost s
Ġn Ã¡la
amp s
Ġterm Ã©keny
ĠD ub
Ġpro fi
Ġdec or
Ġmag Ã¡ra
Ġ185 9
Ġmegm utat
Ġt ied
or ney
ĠI an
Ġad mir
hat Ã¡r
Ġrec overed
ĠMagyarorszÃ¡g ra
ros e
Ġellen zÃ©k
Ġvon z
ĠkÅĳ zet
8 1
in ter
Ġk eskeny
ĠP ir
Ġgener ation
ĠIg n
ond s
ug Ã¡r
koz Ã³
Ã¡ri us
Ġdest ruction
ĠÃĸ n
Ã¶ der
Ġegy Ãºttal
ci ally
20 10
Ġfict ional
ĠEgy ik
ĠhasznÃ¡l hatÃ³
Ġopp osite
Ġincorpor ated
Ã¡r ia
Ġsp in
kel Åĳ
nes es
ri ers
Ġint ention
ĠHe in
tet Åĳ
Ġ ion
Ġs osem
Ġmem orial
Ġunus ual
Ġkapcsol Ã³dÃ³
Ġfre edom
ĠH ivatal
Ġs ed
ĠC hel
ĠK urt
Ġhely es
ĠHung arian
ĠBet ween
ĠÃģ m
ĠnyÃŃ l
Ġk amar
ag ne
Ġsub s
Ġvol unte
mÃ©r etÅ±
Ã¶tt Ã©k
Ġb raz
ing ly
ĠT reat
ĠM P
Ġassist ance
Ġsen ki
l Ã¡b
Ġmiss ions
Ġdem ol
ĠkÃ¶zÃ©p iskol
ĠhalÃ¡l os
Ġbre aking
ĠalÃ¡ ÃŃr
um an
Ġfin ishing
ĠMc D
Ġdr iven
Ġclass ic
ĠFred erick
Ġ Ã¡rt
im ore
ab led
Ġterm in
i ja
or al
ĠB og
Ġfest ett
Ġregular ly
Ġdiss ip
g Ã¡s
Ġro var
ĠÃ©let mÃ³d
Ġattrib uted
ĠC ra
ĠL ane
ert ies
Ġkapcsol atok
Ġeffect ively
Ġlegfel jebb
ĠT rek
ĠP il
Ġvide oklip
mos phere
sz Ã¡rny
Ġfel gy
Ġsorozat ot
Ġserv es
ĠEnd re
n ight
Ġpre y
Ġspe aking
Ġoccasion ally
Ġr Ã¡t
Ġhad osztÃ¡ly
Ġur alma
Ġszob or
ob i
et a
ĠF ern
Åĳl Ã¼k
ĠÃ¶ssz ev
ĠAm b
Ġall eged
Ġstr ateg
ows ki
ar in
Ġcr ash
let s
Ġsound s
ul ations
un es
ĠÃ¡ll Ã¡st
ĠfÃ©r j
Ġrob ot
Ġmessz e
Ġs ons
ment es
Ġpers u
ĠD Ã¡ni
Ġtag jakÃ©nt
Ġmad arak
D es
h in
ĠR Ã³mai
Ġattract ed
Ġpremi ere
Ġfl ank
Ġport ra
Ġmeg Åĳr
Ġsziget en
i ben
ĠL uk
ĠvÃ©d ek
ĠBer g
Ġchor us
ĠSte f
Ġd ream
est on
ĠMiss iss
Ġout er
ÃŃtÃ©s sel
ĠEm iatt
vÃ¡ros Ã¡ban
ĠbeszÃ©l t
al ja
ason l
Ġprov ince
Ġkutat Ã¡sok
Ġkonc entr
Ġc avalry
ec z
ac ter
vÃ©d Åĳ
Ġkonflikt us
r and
Ġsz Ã¡j
ĠC O
Ġk Ã¡r
ĠvÃ¡ros rÃ©sz
Ġvers e
emb le
bor ough
Ġb az
ĠT ir
ond a
Ġper ces
Ġk Ã¡n
ĠelÅĳtt e
Ġkifej ezett
Ġp esti
Ġf Ã¼
ĠMar ine
Ġhall hatÃ³
r Ã¡ciÃ³
Ġf at
ĠS cient
ĠbeszÃ©l get
Ġd ivers
szor os
szint es
b ody
Ġro v
ĠSt even
ĠkÃ¶lt emÃ©ny
Ġcomplet ion
ĠN ag
ĠTelev ision
he ll
Ġs am
ĠS ig
Ġat mosphere
ĠhÃ¡borÃº k
ĠMiam i
Ġkiv Ã©ve
Ġdisc over
ĠN ations
Ġrespons ibility
oc al
Ġe ur
Ġab oard
Ġacc ommod
Ġcal c
Ġestablish ment
bb ed
Ġnap jÃ¡n
ĠdÃ¶nt Åĳben
Ġreal ity
Ġwar ning
ĠQue ens
itenger Ã©szet
Ġv ary
Ġtulajdon os
Ġsw im
Ġoktat Ã¡s
Ġthe atre
Ġmegsz Å±n
ĠAb d
Ġâ Ĥ
ĠLuc as
ĠWels h
n g
Ġmag Ã¡ba
Ġros e
Ġst ood
ki adÃ³
Ġfelv on
Ġegy fajta
ĠB obby
Ġro oms
Ġrec eption
ĠkÃ©sz ÃŃtettek
ĠtÃ¶rtÃ©n eti
ĠbekÃ¶vet kezett
M I
p ective
el Ã©sÃ©t
Ġb rain
Ġb Ã¡tyja
sz Ã¡l
av er
Ġlak osok
Ġhar ci
el in
Ġf iv
ob ban
Ġsurv iving
rep Ã¼lÅĳ
M P
ÃŃtÃ¡s ra
Ë Ī
sz abad
ĠvidÃ©k i
ĠLaw rence
Ġk Ã¡
Ġho ped
ĠfÅĳ nÃ¶k
ĠhÃ¡z Ã¡ban
ĠSzÃ© che
ĠColor ado
Ġbolyg Ã³
ĠFrank lin
ĠUgyan ebben
ĠvÃ©g ez
Ġelm Ãºlt
Ġrecogn ition
Ġt etÅĳ
ĠR AF
it Ã¡k
Ġvissz ak
mÅ± ves
Ġszak ember
Ġbattles hips
rop olitan
ĠlÃ¡t ja
enn is
Ġrequ ested
og i
Ġseem ed
og Ã³
Ġdiffer ences
cs at
ĠÃ¡ll ÃŃtott
Ġne ither
Ġac Ã©l
k Ã©k
Ã ª
ĠR and
ruct ure
Ġsepar ated
ĠB ishop
Ġbe oszt
Ġ10 7
ĠMod ern
Ġt ilt
our i
Ġmaterial s
Ã¡m p
ĠJohn ny
Ġinn ov
Ð¾ Ð²
ĠÃ©l Ã©re
v iv
ra f
Ġtud ni
k odik
s Ã¡
Ġtechn ical
ĠK le
Ã¼k ben
Ġmegjelent ek
ĠTisz a
ĠM ajd
ĠD ie
Ġszer etett
h o
Ġdes ire
ĠmÃ©r sÃ©k
Ġseg ÃŃtette
ĠhÃ¡z i
Ġpass age
Ġpont ja
ĠrÃ¡ adÃ¡sul
Ġfield s
Ã³z ott
8 4
m ith
ĠszÃ¼let Ã©s
Ġsur pr
ol vas
ĠE t
Ġval aki
ĠtÃ©r en
Ġdiv isions
vÃ¡lt Ã¡s
Ġpred ecess
ĠutÃ¡n pÃ³t
ch t
ĠV a
Ġclass ified
ĠMinn es
ĠT ower
est ek
Ġszem be
ĠIs rael
ĠnyilvÃ¡n os
Ġelm ar
I V
h one
w ald
Ã ¥
ul Ã¡st
Åĳk nek
Ġmar gin
Ġn one
Ġhe at
Ġcons ult
ĠtÃ¡rs ulat
ĠMind kÃ©t
ub s
Ġdok tori
foly Ã³
Ġassoci ation
Ð¸ Ñ
Ġrat ings
Ã©s es
Ġalak ÃŃtottÃ¡k
Ġrep rod
ĠSt ory
ĠNob el
Ġout break
ĠBenj amin
sp ec
Ġfert Åĳz
Ġprod ukciÃ³
ĠH oly
Ġszez ont
fal u
Ġvot es
ĠBal Ã¡zs
Ġam int
id Åĳsebb
Ġclub s
Ġkomp lex
Ġelmond ja
ĠJel ent
Ġm ap
Ġr ip
ĠE xt
ert s
ĠmÅ± emlÃ©k
Ġqu ant
Ġdifficult y
Ġdelay ed
Ġra ise
ill ed
Ġab sz
ĠÃ©p Ã¼l
ism s
Ġdarab ot
ĠKn ight
ĠmÃ¡sodper c
Ġrest ored
ĠkÃ¼ld te
ĠVill a
he k
al j
Ã¡m a
Ġnyug alom
Ġpict ure
i ek
Ġa fr
Ġcoll ect
Ġfelh ÃŃv
vÃ¡r ad
Ġmem ory
Ġsuper ior
ĠE U
Ġalap ja
ĠRo os
ĠDe ad
Ġmethod s
ĠS ev
ĠS ay
Ġinfr ast
ĠÃ©v fordulÃ³
ac ent
ĠV eg
Ġhistor ians
ĠKÃŃn a
il vÃ¡n
Ġfejl ÅĳdÃ¶tt
uzs Ã¡l
ny Ã©k
Ġmint ha
Ġte en
Ġtelep edett
p est
Ġh ajd
Ġgy Ã¼l
ĠF ree
ĠG ran
se i
Ġbatt ing
Ġvegy Ã¼let
ĠB eck
Ġol v
Ġs akk
Ġan cest
eszt ett
ĠelÅĳ z
Ġexp ect
ĠM ack
Ġtan Ãº
ĠBal aton
Ġre akciÃ³
ĠÃ¶t ven
Ġinj uries
ĠAddition ally
Ġv Ã¡rt
Ġst ri
Ġbel Ã©p
Ġemelked ett
Ġveh icle
ĠSwed en
Ġ ic
ĠJ ar
ĠSz intÃ©n
ĠkÃŃsÃ©r leti
ĠkategÃ³ri Ã¡ban
w ig
Ġrem ember
18 9
ĠtalÃ¡lkoz Ã³
Ġv Ã¡z
eg er
Ġkezd Åĳ
ĠH ospital
ĠV ic
ak u
Ġrel ative
ach t
hÃŃr esebb
sz en
ĠRud olf
ĠSzÃ©che nyi
Ġc rop
Ġv evÅĳ
Ġfel Ã¡ll
ĠszÃ©l sÅĳ
Ġgreat ly
Ġsurround ed
ĠF ut
ĠÃŃtÃ©l tÃ©k
ĠTov Ã¡bbi
8 3
p ap
ĠC S
ĠR eb
ell es
ĠProg ram
ĠRÃ¡d iÃ³
hÃ¡z at
ĠNy it
Ġd ens
ĠH and
ĠSp e
Ġcig Ã¡ny
ĠS eas
ĠB ird
Ġinform Ã¡ciÃ³
Ġind ulÃ³
Ġweap on
Ġsz k
Ġtr ap
ĠEver y
ĠI X
Ġvit te
Ġolvas hatÃ³
ĠByzant ine
ĠLenn on
as m
ĠB ag
Ġfejl ett
K Ã¶z
Ġcommun ities
ac o
Ġpil Ã³ta
Ġbele Ã©rtve
Ġcru iser
Ġki ind
Ġcross es
ĠfÅĳszerep lÅĳ
Ġim Ã¡d
ĠNi elsen
ĠT rib
ine a
Ġaddig i
ĠvilÃ¡g i
Ġclaim ing
Ġmass ive
tÃ¶rtÃ©n eti
Ġk atal
Ã¼k re
Ġrec ru
vis ed
bajnoksÃ¡g on
Ġfund ing
k ult
on ne
Ġfl ed
Ġszint Å±
ĠEm il
che ll
ess ee
Ġtri es
aik at
edd ing
Ġf Ã©k
ĠT ig
Ġny ers
Ġfoly ik
Ġmot iv
ad tak
ĠUS D
ĠhalÃ¡l Ã¡t
Ġterv eztÃ©k
ĠLondon ban
ĠVik tor
Ã© bb
ĠfÅĳ szerkeszt
Ġneed s
Ġesk Ã¼
ĠO m
Ġszo cialista
ĠÃ¶nkormÃ¡ny zat
Ġm usz
Ġjelent kezett
Ġbr and
Ġkisz abad
Ġwor st
ĠÃģ d
ha us
Ġprogram me
ĠfÅ± zÅĳdik
Ġ Ã©tel
ĠK ath
ĠkÃ¶z Ã¶lte
ĠrÃ©sz Ã©nek
Ġmov ements
ĠTh ird
ew hat
Ġesz terg
Ġk oz
ĠP le
Ġbomb ard
E S
Ġf on
ci pl
Ġsp oke
Ġmusic ians
iz z
Ġlist Ã¡jÃ¡n
ĠvÃ¡logatott ban
ull ivan
ĠMr s
ĠkÃ¡p oln
kÃ¶z sÃ©g
Ġkutat Ã³k
Ġgirl s
ĠEl l
tÃ³ bb
ĠNether lands
ĠAuszt ria
Ġth er
ĠAr men
200 6
Ġszoci Ã¡lis
i gy
v Ã©t
mÃ©ny ei
Ġelfog adott
is ch
AT O
Ġw rong
Ġl Ã¶veg
Ġconvin ced
Ġrem n
Ġpra ise
u in
ur kol
Ã©r a
Ġleg kor
ĠMan h
let es
Ġform ing
Ġmob il
ĠFam ily
en ance
ezÃ©s Ã©vel
Åĳ zÅĳ
ĠJos Ã©
Ġdismiss ed
Ġcsoport ok
ĠBl ood
ol and
Ġprop erties
Ġinspir ation
Ġf eket
ĠK ub
Ġtenger alatt
ĠintÃ©z ked
Ġmarket ing
iker esebb
ĠPict ures
ĠkilomÃ©ter re
r ete
ol in
Ã¡s Ã¡bÃ³l
ul ta
ĠBl ues
ĠhÃ¡z a
Ġnincs enek
Ġchem ical
Ġpen alty
s ky
ĠH ur
oz z
ĠsajÃ¡t os
Ġhon os
Ġmun icip
Ġem elt
Ġtan ÃŃt
Ġellen e
ĠtelepÃ¼lÃ©s ek
Ġbas ketball
Ġbl ues
Ġmutat ott
ĠBalt imore
ul va
ĠB uff
k Ã¶lt
Ġh Ã¡rm
Ġmeg terem
Ġ12 6
Ġaccount s
Ġb at
Ġstand s
ĠhatÃ¡roz ott
ĠJew s
Ã¶n ny
Ġfelte hetÅĳen
Ġan nyi
Ġinter jÃº
em or
ĠE b
Ġut ol
Ġmag Ã¡ban
ĠHung ary
Ġsemm ilyen
° r
Ġmov es
Ġob tain
Ġkontin ens
and in
Ġnagy herceg
ĠMar vel
Ġfog ly
Ġdeterm ine
Ġgyerek ek
Ġl ÃŃ
Ġch ampion
kÃ©p zÅĳ
ĠSe attle
Ġtulajdon osa
Ġfar ag
Ġhe ged
Ġiskol Ã¡ban
Ġhold s
Ġstrat egy
Ġsc rap
Ġtem porary
Ġdisc overy
Ġsom ewhat
ir m
ar es
if er
Ġens ure
Ã¼l d
Ġbr ight
Ġimmedi ate
Ġc irk
Ġl oy
ĠnÃ¶vÃ©ny ek
Ġerk Ã¶lcs
Ġs ight
Ġv ÃŃr
ĠÃŃg Ã©r
ĠkÃ¶z z
20 11
Ġrendelkez Ã©sre
f urt
Ġst reets
Ġchair man
ĠtÃ¶kÃ©let es
as er
ĠIra q
oz d
ĠR ing
Ġegg s
ĠK il
ĠZ ala
i Ã¡s
ĠcÃŃm Ã©t
Ġgond os
Ġcl imate
Ġren eszÃ¡nsz
Ġl ip
ĠpÃ©ld a
Ġkud arc
n os
Ġor n
Ġpl ane
Ġother wise
ĠTem es
ĠCroat ian
Ġme ets
Ġreview er
Ġimm un
Ġelker Ã¼l
Ġg ab
Ġapp re
Ġkore ai
Ġn inth
Ġmeg l
Ġcon vent
ozÃ¡s Ã¡ban
Ġelismer t
h l
ĠW ard
het Ã¼nk
ĠShort ly
ĠD S
Ġkat aszt
Ġfall ing
ab ella
ĠCl inton
app ing
Ġo bl
Ġr ay
Ġstar red
Ġleb ont
Ġf ark
ĠÃ©v Ã©ben
Ã¼let ett
ĠMind ez
Ġadult s
Ġal ag
Ã¼k Ã¶n
ens on
ĠÃĸ t
Ġminim al
ĠGard en
G y
U n
am o
Ġres erv
Ġc ul
Ġp in
ĠH elen
Ġal ien
vis elÅĳ
lat ot
af r
Ġeleg endÅĳ
Ġast ron
Ġs ale
ĠâĢ ²
Ġbek erÃ¼lt
L e
ev elt
ÃŃtÃ¡s sal
ĠszÃŃnhÃ¡z i
ĠszolgÃ¡l atot
ĠMil itary
ĠidÃ©ny ben
Ġker ing
v o
ĠC R
Ġromant ic
od ore
Ġkiv on
ĠM I
ow ed
Ġun ion
isz i
ĠWalk er
t al
Ġ ÃŃtÃ©let
ĠE y
ĠkÃ©p et
E R
Ġf ighter
Ġin ner
p rogram
om or
ĠCh i
ĠcÃ©l jÃ¡bÃ³l
Ġschem e
um ul
io x
ĠerÅĳ sebb
Ġconv ection
Ġpremi ered
ĠB alk
Ġab sor
Ġent h
enci es
Ġsurv iv
f u
Ġk ollÃ©gium
ĠH ockey
Ġam in
Ġf olt
Ġmeg nev
Ġann iversary
Ġpal ota
Ġthr one
ĠKÃ¶zpont i
ĠR ena
Ġkezd eti
Ġalk otta
Ġsee ing
Ġfavor ite
vÃ¡l ogatott
Ġf itted
ĠEgy hÃ¡z
we alth
Ġc ategory
ĠÃŃ rott
ĠkÃ¶ny vet
list Ã¡n
ĠCs illag
ĠfÃ¼ggetlen Ã¼l
Ġfelkel Åĳk
Ġcolon ial
z Ã¶tt
Ġbet elep
ĠkirÃ¡ly a
Ġcred it
Ġkiter jeszt
Ã¡cs i
Ġinvol vement
Ġlegk isebb
ÃŃt se
ĠS oul
ĠmÅ± hely
Ġattack ing
Ġarch ae
h ire
op es
Ġleg idÅĳsebb
Ġnyom Ã¡s
es et
Ġl ibrary
ok a
Ġde emed
ĠHill s
ĠkÃ¶tel ezÅĳ
ĠSil ver
ĠrendkÃŃvÃ¼l i
Ã¡sok ra
Ġabs ence
Ġrhy thm
Ġas h
Ġro k
enek ar
n Ã¡
Ġinter ior
Ġcar bon
Ġmed ieval
Ġland ed
ĠmÅ±vÃ©sz i
Ġresour ces
Ġappear ing
elv Ã©ny
fÃ©l sziget
ch ang
Ġrend eztek
ect ic
ĠÃ¡ll att
ĠfejlÅĳd Ã©s
ĠlÃ©l ek
ĠTenn essee
Ġafter wards
oss ible
Ġp oly
ak nak
ĠKon stantin
Ġham is
ĠChel sea
r ative
Ġm yster
Ġapp ropri
ick n
est y
ĠhÃ¡lÃ³z at
ro x
Ġclass ification
Ġel Ã¡r
Ġ10 6
Ġdep end
Ġpass enger
Ġclass ical
Ġencour aged
ĠRÃ³ bert
ĠJ up
Ġvis ible
ĠtÃ¡m asz
ĠB h
ĠtÃ¡v ozott
Ġinterest s
Ġszo ft
cs arnok
aw ay
ĠszerzÅĳd Ã¶tt
ĠGlo be
al Ã¡lt
ĠCh amber
ĠDr agon
Ġan ime
ĠH ep
ere i
Ġtag ok
Ġevery one
eik et
go ing
ĠnÃ¶vek vÅĳ
Ã ł
Ġsz imb
Ġle jt
ĠSport s
tart Ã³
ĠVesz prÃ©m
Ã¶r g
ĠÃº sz
Ġconc lusion
Ġc raft
Ġsuff ering
ĠCamp bell
ac c
ĠP ope
igazgat Ã³
Ġhad test
esÃ©g e
ĠCon stant
Ġarchitect ure
Ġp av
Ġegy be
Åĳ tt
Ãº p
ĠAl ice
M ind
Ġg one
Ġcol ony
Ġg rant
egy ven
ĠOszt rÃ¡k
re es
Ġlead s
Ġsubmar ine
sÃ¡g ok
d am
Ġsec ured
Ġoper ate
ĠA qu
Ġd ating
ezÃ©s sel
Ġbeliev es
bar na
ĠlÃ©nyeg Ã©ben
ĠArn old
ĠtÃ¡m adÃ³
ĠjÃ¡tÃ©k okon
ĠÃ©jszak a
we ight
Ġacc ompl
Ġlook ed
Ġtemper atures
ey er
ĠFound ation
ĠK ansas
ĠPol ice
ĠGra ham
d o
á »
Ġbiztos ÃŃt
f Ã¼r
Ã¶t vÃ¶s
Ġattempt ing
br idge
Ġr aces
ab da
alm Ã¡nak
Ġfac ility
Ġgraph ics
Ġtechni ques
Ġorosz ul
ĠelÃ©r ni
ĠMinnes ota
Ġsong writ
a zt
Ġp Ã¡l
Ġlegs ikeresebb
e urÃ³pai
Ġany a
Ġacad emic
Ġunsuccess ful
Ġj ump
ĠIs lam
Ġfiz et
Ġafr ikai
k ort
ek tet
Ġszer ette
Ġpol e
Ġaut Ã³pÃ¡ly
ĠR ub
Ġfelv ette
ĠSom ers
ĠarÃ¡ny ban
Ġdistrib uted
Ġdocument ary
kup a
ĠA thlet
Ġdo ct
Ã ¦
ĠÃ©pÃ¼let ek
ĠhatÃ¡r Ã¡ban
ĠgyÃ¡rt ott
Ġbig gest
ĠRoos evelt
it Ã¡sa
um ban
Ġit teni
sc ape
Ġcontrovers ial
Ġl ies
ĠM ob
ĠvÃ¡laszt ott
Ġren ew
ĠL ibrary
Åĳr sÃ©g
ĠfÃ¶ld rajzi
ĠBern ard
C C
ĠCh Ã¢
Ġbu y
Ġhe k
ĠAl p
Ġmod ified
Ġgr ass
inc st
ĠfÃ¼r dÅĳ
og ether
Ġami Ã©rt
Ġl Ã¡nc
Ã¡l nak
Ġmeg kÃ¶t
Ġok levÃ©l
ĠcsalÃ¡d ban
Ġdolg ozÃ³
Ġdomin ated
el and
Ġw ings
Ġhat almat
Ġp ound
Ġd ics
Ġmol ekul
ĠU tÃ³bb
ĠSz Ã©p
emet ery
Ġs end
ĠA y
ĠB oul
Ġlak e
Ġrajz film
Ġchall eng
Ġany one
Ġler omb
c u
almaz ott
Ġmegrend ezett
ud es
Ã¡lt at
Ã¡rs a
b olt
ĠK ass
Ġad m
ei bÅĳl
Ġott ani
Ġ185 8
Ġkl ip
ĠTan ulmÃ¡ny
Ã¡z ni
Ġ0 6
Ġto mb
ĠInd ians
ĠtÃºl nyom
hem at
Ã©szett udomÃ¡nyi
j Ã©be
Ġmegt an
Ġcontin u
ĠComm ander
Ġte x
Ġan nÃ¡l
ĠV olt
Ġle Ã¡nya
ĠszÃ¡m talan
let et
Ġcontin uing
Ġmegsz Ã¼n
ĠCommon wealth
l Ã¡st
pp ing
Ġpaint ed
ĠÃģd Ã¡m
D P
i Ã¡ja
ok i
ĠK irk
ĠvÃ¡lt ott
Ġanyag ok
Ġmarad Ã©k
Ġt Ã¶nk
kÃ¶zt Ã¡rsasÃ¡g
ĠA T
ph a
ĠjÃ¡tÃ©k osok
Ġtra ined
Ġgal ax
ĠszÃŃ nek
ÃŃ zt
os ure
ur ches
Ġmeg Åĳri
Ġrail road
Ġf antasy
ig Ã©n
ult ane
Ġcol le
ĠMerc ury
ĠBar ry
ili ar
ĠVinc ent
Ġs udden
Ġnyelv i
Ġhe ar
Ġlong est
ĠAust ria
Ġimm ig
Ã©v al
ĠkÃ¶vetkez ik
ĠkÃ©pviselÅĳ i
ĠszÃ¡ll t
ĠInn en
Ã ĸ
Ġk amp
Ġauth ors
ĠvÃ©g leges
ĠtartÃ³z kod
ĠHorvÃ¡t h
Ġtem por
Ġlegis lation
ĠBroad way
Ġover l
Ġismer tÃ©k
ĠOr gan
Ġere j
Ġadapt ation
k ov
al ing
Ġl end
Ġ11 7
Ġresc ue
ĠÃ¡llamp olgÃ¡r
d ha
Ã³ sz
rom e
Ġinform ed
P S
Ġs ov
Ġford ÃŃtÃ¡s
Ġgar rison
Ã¡g az
Ġugyan az
Ġrefer ences
on so
ĠE Ã¶tvÃ¶s
se x
ĠtelepÃ¼lÃ©s nek
ĠH amp
Ġr Ã³zs
ĠAlbum s
ĠD NA
Ġp ozs
Ã¼l ei
Ġkap it
ĠgÃ³l jÃ¡t
Ġel ÃŃtÃ©l
ĠW ing
Ġfig ur
kÃ¶ ny
ĠA round
Ġcsap attal
Ġt ej
Ã¡s akor
Ġalap ÃŃtÃ³ja
Ġtem ettÃ©k
ĠBoy s
Ġdep icted
ĠzsÃ¡k mÃ¡ny
Ã³r Ã©szt
Ġelect ions
Ġked vel
is cher
ĠK ft
ov en
Ġkiad ta
Ġn ickn
vas Ãºt
Ġjud ge
Amer ikÃ¡ban
ĠvÃŃv ott
ĠMargar et
Ġfel fog
Ġleg ut
Ġun iform
ĠkÃ¼lÃ¶nb sÃ©g
ĠMississ ippi
Ġse es
ĠKn ow
Ġalapvet Åĳen
or ia
Ġho pe
ĠÃ¡llam ok
ĠTh us
ĠÃ©r i
Ġpi hen
n ers
Ġdif f
Ġkop ony
Ġappar ent
ĠManh attan
ĠR aw
Ġrem ek
ĠkerÃ¼l nek
ĠP ink
f are
og a
Ġrendszer ben
Ġgyermek ekÃ©nt
Ġstand ards
Ġpresident ial
Ġacknow led
ro z
Ġdeb rec
eszt Ã©s
Ġimm Ã¡r
Ġeddig i
l ow
Ġk anyar
Ġbar na
Ġachiev e
ĠN ATO
Ġterv ezÅĳ
Ġkrit ikusok
ĠfordulÃ³ ban
Ã¶r vÃ©ny
Ġmod erate
Ġindult ak
ĠfÃ¶l Ã©
Ġclos er
Ġbi rod
ĠB und
Ġ3 000
Ġgener ated
Ã £
Å «
Ġf Ã¡zis
ĠÃ¡brÃ¡z ol
ĠUk raj
atok kal
Ġcar rier
Ġemot ional
ĠmÃ©r ete
Magyar orszÃ¡g
ĠleszÃ¡rmaz ott
ist ration
Ġter j
Ġkapcsolat ba
ĠSchum acher
Ġbraz il
ĠAl ab
Ġg ets
ĠSus an
szÃ¼l Ã¶tt
Ġh ur
ĠSp art
ĠEd u
vÃ¡ros ban
ĠkÃ©sÅĳbbi ekben
ick s
Ġ Ï
ĠA re
us al
Ġr Ã¶videbb
Ġmeg ker
ĠF og
Ġcon vention
ĠÅĳ ri
Ġdeploy ed
Ġvitt Ã©k
ĠPrin cess
Ġb ats
Ġkor ona
Åĳ v
Ġpr ol
Ġmain stream
end a
ĠShe l
Ġmeas ures
ĠJes us
ĠÃ¶ccs e
Ã¶ ly
ĠtÃ¶m Ã¶r
Ġst ead
ĠelÅĳ seg
Ġ185 4
ĠFÅĳiskol Ã¡n
Ġo cean
ac le
ĠHa ute
Ġrepresent ing
ĠtÃ¶rtÃ©n Ã©sz
Ġown ers
ĠtevÃ©keny sÃ©ge
n oon
szer zÅĳ
ĠEd uc
Ġide al
Ġsuccess or
ugos lav
ĠR io
Ġbasszus git
ven ci
Ġinflu ential
ĠirÃ¡ny Ã¡ba
Ã¡sok nak
c oming
Ġr ig
Ġb ok
Ġal ter
ĠszÃ¡m l
Ġszak os
ĠÃ¡tmÃ©r Åĳj
al u
ĠMÅ± szaki
Ġen nÃ©l
cc el
ĠgyÅĳz elm
an Ã¡cs
Ġleg kÃ¶zel
aw s
Ġrang sor
ĠSwed ish
Ġf Åĳk
ossz abb
Ġfelkel Ã©s
Ġsi ege
ĠT ang
Ġ184 7
ar ap
Ġmeg eml
Ã©l and
Ġgr ade
Ġnyelv ek
Ġselejt ezÅĳ
Ġnarr ative
ĠE N
Ġcsat oltÃ¡k
Ġlist Ã¡n
Ġfest ival
tan Ã¡cs
Ġfogad tÃ¡k
Ġemer gency
il ers
ark ed
Ġrest rict
Ġs n
Ġm ine
Ġcsoport os
ĠNAS A
Des pite
Ġw ins
Ġdef ended
ĠkÃ¶zÃ©p pont
ĠRe ich
ĠIm p
din asztia
Ġdolgoz tak
ĠRA AF
m osz
Ġvis eli
ĠrÃ©sz Ã©rÅĳl
asz Ã¡m
bl ing
Ġhistor ic
bar lang
Ġoktat Ã¡si
ĠA ud
ĠB ajnok
ĠC yr
ĠN orvÃ©g
ĠG ary
h Ã¡lÃ³z
ik es
ĠL ux
Ġfel oszt
Ġeszterg omi
Ġj Ã³t
szÃŃn hÃ¡z
ĠPort land
Ġexperi ences
ap se
Ġquest ions
aszt ikus
ĠT oy
Ġretire ment
ĠA ri
Ġle ar
Ġdep os
Ġceleb r
Ġsz Ã¡nt
Ġszer ez
b ro
Ġin gy
em bled
ĠM ezÅĳ
ĠI owa
Ġfel irat
Ġkialak ÃŃtott
eged i
Ġbuddh izmus
Ġpar am
Ġidej Ã©ben
Ġk os
Ġn in
Ġember eket
ar as
ĠB ure
Ġlelet ek
Ġform Ã¡ja
int s
ĠO t
Ġco ins
re ck
Ã¡s bÃ³l
Ġor b
ĠvÃ©d elmi
ĠkÃ¶szÃ¶n hetÅĳ
Ġtre ated
Ġex cess
Ãºz ott
Ġappar ently
f esz
j obb
ĠK han
Ġfiatal ok
at ik
Î ¹
Ġb ajor
em ont
ut o
Ġg iant
Ġtri als
Ġexec uted
Ġideiglen es
Ġr idge
ĠR Ã¶vid
ĠD NS
Ġtud nak
Ġford ÃŃtott
Ġadap ted
d ale
Ġm eteor
Ġent ers
loy d
Ġr ide
nyug at
Ġe at
Ġ0 9
ĠM axim
ĠAl t
Ġcomm it
es tt
ming ham
ĠBab y
Ġcanc er
ban k
Ġg omb
ĠK it
Ã¶z i
Ġfoly adÃ©k
ins ter
Ġdiscuss ed
L A
ut az
Ġres igned
ĠX III
Ġh Ã¡ny
ĠP am
Ġbe ar
ĠV ice
ĠSz lovÃ©n
ĠellÃ¡t ott
Ġstr ukt
Ġgu ilt
Ġreve als
Ġwood en
Ġdebrec eni
g azdasÃ¡g
ĠÃ©l es
ĠCroat ia
g ets
ĠegyÃ©rtelmÅ± en
ĠelsÅĳd leges
ĠhÃ¡zas sÃ¡got
ĠegyedÃ¼l Ã¡llÃ³
ĠA M
ak ar
ĠM ÃŃg
ĠB orn
Ãº ny
Ġg um
Ġzsid Ã³k
ĠAnd re
Ġd ug
ĠE is
Ġear n
ĠRÃ³m Ã¡ban
Ġc inem
Ġl ux
ĠÃ¼zem anyag
ĠWith in
Ġkim ond
Ġhundred s
Ġp ushed
uc at
ĠtalÃ¡lkoz ik
Ġth ir
ĠrÃ©sz re
ĠhÃŃv ta
al ed
ĠC ategory
Ġj ur
Ġvall Ã¡sÃº
Ġprevent ed
Ġbes or
ĠM ond
Ġg ay
Ġpro ced
sÃ¡g Ã¡ban
telen Ã¼l
ĠosztÃ¡ly Ãº
Ġellent mond
ĠMiss ouri
ĠN O
b ec
ĠH im
Ġmel lyel
ĠSta ff
Ġwatch ing
Ġkapcs Ã¡n
ĠC hen
Ġformer ly
Ġgon osz
ĠH as
ĠD od
Ġper zsa
let ek
Ġdet ail
ĠHam burg
i Ã³k
Ġs ky
ĠÃ©v ezred
ĠnÃ©z ve
Ġjog os
ĠJon athan
Ġkomb in
Ġh unting
ĠmÃ¡s fÃ©l
ĠGuard ian
l ig
Ġh Ãº
Ġb olgÃ¡r
Ġen for
Ġoffic es
ĠlÃ¡ny Ã¡t
ĠC ow
Ġ13 6
ou ver
Ġfle w
ri or
Ġfilm je
k Ã³d
Ġnap vilÃ¡got
Ġarrang ement
Åĳ vel
ak ra
ik tat
Ġch annel
ĠUnivers al
ĠA P
uc es
Ġhely isÃ©g
Ġpoint ed
ri ft
Ġprefer red
ag os
ĠÃ©szak nyugati
Ġveszt ette
ĠEg Ã©sz
ĠhozzÃ¡jÃ¡r ult
Ġszobr Ã¡sz
Ġvers es
Ġsk ills
ress ive
ĠirÃ¡ny ÃŃtÃ¡sa
Ġmol ec
Ġh appy
Ã¡s Ã¡n
ĠY ugoslav
Ġass ass
Ġchild hood
ĠMex ikÃ³
ĠS C
ĠkirÃ¡ly t
Ġthere after
Ġhappen ed
Ã¡j t
osz i
ĠAs ian
orv os
ĠSte in
ĠÃ©v eiben
Ġszim bÃ³l
ĠÃ©rkez ik
ĠL ib
Ġleg it
ĠÃ¶ssz pont
Ġcourt s
Ġenvironment al
t Ã©t
ĠC ontin
r Ã¡lis
ĠM egy
ĠvÃ¡ltozat os
Ġnov els
Ġmor al
ĠKan ad
ĠÃģltal Ã¡ban
ĠJ Ã³
Ġte olÃ³giai
Ġco in
Ġap ost
Ġdepart ed
Ġint ense
Ġvict ims
Ġreb ell
Ġparlament i
Ġl ever
ĠhasznÃ¡l atos
Ġfac ing
Ġk incs
ic ians
ai bÃ³l
20 12
Ġreported ly
ĠA riz
ak adÃ©m
ic us
ĠK ings
Ġ0 5
ĠDig ital
d orf
ĠHe avy
Ġev ol
Ġ184 5
b em
Ġg ramm
Ġszint et
ĠCan al
Ġbiztos ÃŃtott
ĠP el
ri en
ĠvÃ¡lt ozik
Ġanim Ã¡ciÃ³s
ĠfÅĳ Ãºt
ĠMont e
ĠÃīrd ek
ĠE li
Ġcs in
Ġfir ing
ĠX II
ĠkÃ©pvis elte
Ġjournal ist
B Ã¡r
ĠB ark
ĠE S
Ġen h
ĠBe a
Ġoldal i
ĠtÃ¶rtÃ©net Ã©nek
ressz ÃŃv
Ã©s Ã©rÅĳl
Ġtr Ã³pusi
let e
ĠSo cial
ot on
Ġint ent
Ġdisapp ear
egyÃ¼tt es
ac ional
Ġst yles
Ġex isted
ĠszÃ¡m Å±
Ġform ally
ĠÃ©let Ã©nek
Ġdel iver
Ġaltern atÃŃv
ĠHor se
ĠnÃ©pszÃ¡ml Ã¡lÃ¡s
Ġvissza utas
ĠSomers et
szer es
kor szak
til t
Ġinst rum
ori ous
Ġinstrum ents
g alom
ĠH erm
uk le
Ġbattles hip
en eg
ĠD est
Ġsh ut
Ġanim ation
ĠGi ov
ĠGi ants
ĠÃ©rz Ã©keny
ï¿½ï¿½ ï¿½ï¿½
ĠSh aw
Ġviz et
ĠÃ³ri Ã¡s
r h
ĠN ash
ezt etett
Ġform at
Ġunder ground
ĠÃ©pÃ¼let e
tÃ©r ium
ĠEnter prise
ĠAlab ama
hett Ã©k
Ã¡g r
ĠL iz
Ġch ain
as ure
Ġbe ach
ill o
Ġres ign
ĠÃ©pÃŃt Åĳ
Ġthous and
or age
Ġf atal
ol Ã³k
act ive
Ġpre gn
Ġbar n
ĠpÃ¡lyafut Ã¡sa
o a
ĠB ib
ast s
ĠCs Ã¡sz
ĠPer ry
ĠB aker
ĠÃģltal Ã¡nos
Ġvis ion
ach ment
ĠÃīszak i
Ġvisit ors
ĠM ann
ig o
Ġsurrend er
Ġsynt hes
ĠnÃ©p ek
Ã¡n nyal
Ġexp osed
Ġopp onents
ĠproblÃ©m Ã¡k
Ġabb Ã³l
Ġimpress ed
ĠTurk ish
b ed
ĠK in
ĠÃ¡t tÃ¶r
Ġdev ice
Ġaccomp any
Ġs ci
ĠJ Ã¡sz
Ġhand ed
Ġfoot age
k Ã¡t
at l
it ially
am is
oh Ã¡ny
mÅ±vÃ©sz et
Ġemploy ees
Ġe asy
ĠM idd
am on
ĠL ombard
ĠÃ¼ reg
rend ezÅĳ
Ġcru isers
Ġt ub
Ġel d
Ã©n z
Ġut il
ram s
olog ists
Ġnot ably
ĠdÃ¶nt etlen
Ġtenger szint
ĠEL TE
Ġg Ã¶mb
ĠjÃ¡tsz ottÃ¡k
Ġ24 0
Ã³r ia
Ġchap ter
polit ikai
Ġkifejezett en
Ġfi Ã³k
ĠÃ¼z leti
es egyhÃ¡z
Ġkap tÃ¡k
ĠAd v
Ġkics i
Ġm aj
Ġfl otta
ĠFran z
Ġ185 6
gyÅ±jt emÃ©ny
st ances
ĠH amar
ĠPh oen
ĠSpanyol orszÃ¡g
Ġmi Ã©rt
Ġelem i
Ġlin ked
Ġmang a
Ã¼ ssz
id Ã¡k
iszt Ã¡n
ĠNagy vÃ¡rad
Ã¼l ve
Ġball ad
Ġparticip ate
ĠstÃºdiÃ³ album
Ġconst ant
ĠWay ne
Ġaszt al
ĠÃ©pÃŃt Ã©se
vÃ¡r on
Ġk Ã¡b
Ġafter noon
Ġfl ash
Ġvi har
Ġcser Ã©be
Ġdial ogue
Ã¶ ccs
ĠBul gar
Ġszerepel nek
Ġmester sÃ©ges
Ġszer ves
Ġelfog ad
ĠP y
Ġre ag
ĠZ rt
Ġinst ance
Ġ184 6
ĠF ab
Ġresident ial
Ġsubstant ial
h attÃ¡k
ĠOr v
Ġst em
qu id
ĠidÅĳ pont
Ġsh ore
ell ite
Ġat y
Ġloc omot
ĠÃ©pÃŃt Ã©szet
ĠÃ¡tlag osan
ĠJup iter
ĠJ ur
Ġvon at
Ġdiffer ence
Ġbuk Ã¡sa
ĠHon vÃ©d
Ġh ier
ĠE hhez
ĠPr im
ĠCount ry
Ġinhab it
Ġelem ek
Ġreview ers
Ġj ezs
ĠidÅĳ vel
Ġhegy i
Ġaud io
Ġgyakorl ati
Ġlear ning
s av
Ġk Ã¡v
ĠKÃ©p zÅĳ
ic ine
Ã¼ gyel
ĠK ecskemÃ©t
Ġhe aring
Ġcy cle
ĠAut hor
Ġszar vas
n Ã©met
Ġh uge
Ġkislemez e
ĠDy lan
r ikus
Ġb Ã¡b
Ġd Ã¡tum
ĠH Ã©t
Ġmegsz Ã¼ntet
Ġfar ok
Ġdr iver
ĠKom Ã¡rom
ĠUni Ã³
Ġleg hÃŃresebb
Ã³k Ã©p
Ġext ent
Ġfact ors
Ġfem in
Ġalak ÃŃtottak
p ent
ĠSaint e
any elv
ath ers
iver z
Ġkar Ã¡cs
c op
w d
Ġb urg
ĠM S
ĠSt ars
ĠXI V
ĠszÃŃn eiben
ĠCseh szlovÃ¡k
O ne
b aj
Ġvissz ah
Ġpat r
ĠT ob
ez en
ÃŃtÃ¡s okat
ĠtÃ¶m ege
Ġexped ÃŃciÃ³
Ġta ught
ol ph
ĠP otter
ĠH ogy
ĠD isc
Ġalkot Ã¡sa
Ġhal adt
ĠSim ilar
Ġakart Ã¡k
ĠMit chell
Ġh Ãºg
Ġbel Ã©pett
ĠWar ren
ĠfilozÃ³ fi
elÅĳd Ã©si
Ġnapja inkban
ryst al
tt est
Ġfoly Ã³k
Ġlangu ages
Ġp icked
ank a
ĠGy ul
Ġnemzet ek
Ġfaj ta
Ġenth usi
Ð ´
Ġb ÃŃz
sz i
ĠL loyd
fÃ¶ld re
ĠHan na
ĠWag ner
J ohn
ed ed
Ġment ion
ĠjÃ³ vÃ¡
ĠJust in
sz Ã³r
ĠBr ass
ĠD allas
ĠSm all
Ġhely ezte
ĠkÃ©p zÃ©s
Ġteam m
a us
f ire
ĠN on
ĠOl iver
qu ir
Ġencounter ed
Ã© ber
uk a
Ġwithd rew
Ġn eck
ĠlÃ¡t hatÃ³k
ĠvalÃ³ sÃ¡g
Ġrelationship s
Ġdang erous
Ġt Ã¡g
ot es
ĠV ad
Ġkonc ep
Ġche ck
ĠL ion
ĠmÃ¡s nap
Ġalak ÃŃtott
Ġhajt ott
Ġunivers e
Ġupgrad ed
ar u
pt on
ĠEred etileg
Ġte eth
ĠÃ¼ r
Ġinflu ences
Ġkong resszus
Ġisol ated
ĠT Ã³th
ĠÃ©lelm iszer
Ġf ent
Ġtag jÃ¡vÃ¡
ÃŃtÃ©s re
Ġbizony talan
Ġsz egedi
ja in
Ġ22 0
ĠvezetÅĳ i
r eng
and al
Ġmeccs en
Ġf ram
ĠGre y
ĠhÃ©t tel
ĠProf ess
Ġv essel
Ã¡g ai
Ġdet ailed
Ġver te
Ġnegoti ations
en ie
ĠC old
Ġhor iz
ĠHum an
L C
ĠC ari
Ġhusz on
Ġimpr ison
afr ikai
F rom
Ġelt Å±nt
Ġwind ows
Ġfact or
in burgh
ĠÃ Ĩ
Ġfej e
ĠdÃ©l keleti
Ġszent elt
aton ai
Ġsle ep
ĠÃ©vek ig
Ġdesign er
ĠÃ©rdek es
ĠLi bert
Ġhord ozÃ³
Ġcselek mÃ©ny
Ġgyerm ekkor
7 7
Ġf ift
Ġv ita
Ġsim ultane
Ġarr est
Ġriv Ã¡lis
i h
on kÃ©nt
al g
Ġj u
ĠÃ¼ res
ĠeltÃ©r Åĳen
ĠL em
ĠD onald
Ġdiam eter
Ġd eter
ĠR an
Ġind ok
Ã³ni ai
Ġpoet ry
Ġk oll
ĠM ick
ik Ã¡ba
Ġturr ets
ĠE ttÅĳl
ĠterÃ¼let i
Ġtest s
Ġunderst and
ĠfelajÃ¡n l
Ġperiod s
Ġh olt
Ġterv ek
Ġtravel ed
Ġterrit ories
rob bant
ĠhatÃ³sÃ¡g ok
ĠO ri
ĠAd olf
Ï ģ
Ġsur g
Ġcoll aps
ĠAlap ÃŃtvÃ¡ny
m at
ĠS aj
Ġel ad
ĠpÃ¡ly Ã¡z
ĠszÃ¼k sÃ©ge
Ġdoes n
Ġnorm ally
fog Ã³
ĠtelevÃŃz iÃ³
hol m
ĠH ang
Ġbr idges
Ġmusz lim
Ã© i
ĠR al
ĠHar vard
Ġlow est
Ġl ecs
Ġsh ift
ĠkÃ©p zÅĳd
Ġre un
ĠM all
Ġ4 50
Ġar Ã¡nya
Ġmozg Ã¡s
Ġl ose
ĠL ate
ĠCarl os
Ġplatin um
ĠStu art
ĠHep burn
Ġs it
ĠP Ã¡ly
Ġhis z
Ġgood s
Ġp ounds
ĠF riend
ĠUn like
Ġkeep ing
ĠJer ry
Î ½
ĠD ezsÅĳ
Ã¡d i
Ġman ip
Ġcik lus
ĠMiskol c
Ġf agy
ur ance
Ã¡ll omÃ¡ny
Ġpart ly
ord er
Ġag ents
Ġup d
ĠCro wn
O R
ad ow
ut attÃ¡k
Ġby pass
ĠvÃ¡ros ba
ĠAng lo
Ġcomm emor
ĠSp ir
ĠjelentÅĳ sÃ©ge
Ġinterc ept
Ġspecim ens
ĠT ai
ĠgÃ©p ek
Ġ180 6
ĠRob in
Ġmeg alkot
Ġpl ate
Ġinter f
ĠszÃ¡ll ÃŃtottÃ¡k
Ġk amer
ter bury
Ġrend elt
Ġfest mÃ©ny
Ġwind ow
Ġromant ikus
Ġolt Ã¡r
ĠE kÃ¶zben
ĠL at
Ġlo ad
ĠGyak ran
k rit
und er
Ġso ci
Ġweek end
Ġszoft ver
O T
Ġt u
Ġc ode
Ġst rip
ĠA le
ĠNev ertheless
Ġegy sÃ©gek
ĠrÃ©sz ei
ĠY e
rib ed
ames e
ĠAm y
ĠKezd etben
en o
ĠS ullivan
ĠG oth
Ġreleas es
Ġmed ium
Ġas c
Ġrar ely
ĠIntern et
Ġfrequ ent
ĠD w
ĠV ari
Ġter ep
Ġelm Ã©leti
Ġant icip
ĠromÃ¡n iai
Ġper mission
m Ã©nnyel
Ġegyes Ã¼lt
il st
pp en
ekt ÃŃv
Ġm ac
ĠF Ã¼gg
ĠHer o
Ġcr iminal
ĠRec ording
ĠValÃ³ szÃŃnÅ±
ĠszÃ¡m ÃŃtÃ³
Ã¡rt y
ĠmÃ¡s rÃ©szt
ĠlÃ©t ezÅĳ
Ã³z is
Ġkutat Ã¡s
ĠegÃ©szsÃ©g Ã¼gyi
ĠBÃ©k Ã©s
Ġt one
Ġwhere as
Ġvezet Ã©se
ĠirÃ¡ny ba
Ã¡tor ok
a o
Ġb ibli
ĠH ason
og attÃ¡k
ered mÃ©ny
ĠChar lott
Ġkutat Ã¡si
Ã¡zt Ã¡k
besz Ã©d
ĠU ra
Ġnagy ban
Ġag ed
Ġmegsz Ã¡llÃ¡s
Ã¡jÃ¡t sz
ĠlÃ©tes ÃŃtmÃ©ny
z ata
Ġfin ale
Ġsy mp
ĠMur phy
Ġthe or
Ġadop t
Ã©n k
ĠMar x
Ġgr Ã¡f
ĠMÃ¡s odik
b s
Ġv ice
Ġan at
Ã©n ak
ĠV ars
Ġnev Ã©ben
ĠvÃ¡r ak
Ġ185 5
Ġbiztos ÃŃtotta
ĠmezÅĳ ny
Ġeth nic
ĠBud dh
Ġkil Ã¡t
ĠMÅ± v
ic er
ĠS id
Ġim perial
at ja
Ġf Ã¡ra
ic y
ĠM A
Ġsp ending
Ġfut ball
Ġotth ont
ĠÃ¶sszeh asonl
Ġf egy
ĠN Ã¡d
ĠSz Ã¡sz
ĠjelentÅĳsÃ©g Å±
Ġobjekt um
E C
it is
ĠV ÃŃz
Ġunc er
bb e
ĠAr c
Ġexc ell
ĠGri ff
r un
ĠE ger
Ã©z is
ĠTreat y
v Ã¡rt
Ã¡l lyal
ĠL av
oc a
Ġalbum on
Ġhang z
ĠdÃ©l kelet
ĠmÅ±v elt
et ime
Ġn oha
ec raft
Ġst able
Ġszer z
ĠkÃ¶zel ebb
Ġjelleg zet
ĠIf jÃº
ish ment
Ġkezd etÃ©t
Ġadv ice
Ġcritic ised
ĠtanÃŃtvÃ¡ny a
o gyan
Ġbe jÃ¡rat
Ġ12 00
Ġb osz
ĠplÃ©b Ã¡nos
ĠApoll o
Ġmeg sÃ©r
Ġpart ially
ĠBr ig
Th is
ĠChild ren
Ġnyom d
2 000
at ively
ĠO kl
ĠSc ar
ĠfÃ¶ld Ã¶n
Ġber lini
7 5
ÃŃ rok
Ãº n
Ġtest ing
Ġdram at
ĠB att
Ġpre f
m n
ĠI ce
Ġpro hib
biz ottsÃ¡g
ĠP ul
ĠÃŃr tak
ossÃ¡g ot
g ate
l s
Ġag ree
Ġkedv elt
olg Ã¡ri
Ġrem ove
Ġdo ctor
ĠMÅ±vÃ©sz eti
t udomÃ¡ny
Ġmeg cs
ĠDe ep
k Ã¡
sÃ©g Ã©ben
Ġmult i
ĠkÃ¼l fÃ¶ldÃ¶n
uct ions
Ġprofess or
ĠCa esar
Ġautom atikus
l Ã©p
end ment
ill on
Ġad jÃ¡k
Ġjel zi
Ġpart bÃŃr
Ġprompt ed
felv Ã©tel
ĠBarcel ona
f iz
Ġfor cing
Ġmag Ã¡nt
ĠproblÃ©m a
Ġpit ched
I L
d s
Ġf Ã¡k
Ġf ighters
it ime
og h
Ġse ats
Ġmen edÃ©k
ĠMonarch ia
Ġshe ar
Ġkapcsol ata
Ġpersonal ity
N e
V Ã¡lyi
Ġt enth
Ġs Ã©rt
ust Ã³l
Ġfut ott
Ġelfog adta
Ġdestroy ers
ĠprÃ³b Ã¡lta
Ġdifficult ies
b us
k il
ĠP od
tt Ã³l
Ġun n
ĠÃģ zs
Ġkapcsol Ã³dik
lag os
Ġr Ã¡jÃ¡tsz
ok en
ĠC ov
okat lan
Ġext reme
C l
gy Ã¶rgy
ĠV id
ĠGre ece
Ġfel jut
Ġered et
Ġvide os
200 5
Ġmatemat ikai
i ac
ĠG et
Ġmaint enance
g imnÃ¡zium
Ġhozz Ã¡juk
ĠBir mingham
Ã¼lÃ©s t
Ġalkalma zta
Ġ) :
ĠW ebb
Ġdiv or
Ġlet elep
ĠThe n
ĠO sz
Ġtart Ã³s
Ġvissz aszer
Ġfeny eget
I C
ĠP in
ĠO st
ĠV issz
ĠÃ©j jel
Ġmand Ã¡tum
j Ã©re
Ġpro port
ĠkirÃ¡ly nak
Ġbr ut
Ġfall s
ch y
Ġconcert s
Ġsej tek
gy Ã³gy
ut ya
Ġszer elem
ĠMad ag
Ġbeh avi
Ġs alt
ok rÃ¡
Ġmeg Ã©l
ch ing
20 13
str ukciÃ³
ĠK yle
Ġfel mer
ĠCar n
Ġbud ai
ĠjellemzÅĳ en
ĠLo ire
ĠHud son
Ġtechni que
ĠC ob
bb ean
Ġcs end
ric ted
Ġunder w
Ġtrib ute
isz ony
oln Ã¡r
Ġbeav atkoz
ad Ã³ja
Ġfel ir
ĠFranc es
ĠÃºjsÃ¡g ÃŃr
Ġtrav elled
i ro
l ottak
od s
ĠHar vey
Ġboy s
h ord
ĠS aw
ĠCari bbean
ĠA ff
ĠI v
assz al
Ġengine er
Ġt onna
ĠNap ole
ĠLouis iana
Ġhallgat Ã³ja
m Ã¡
Ġfl ott
Ġnyug dÃŃj
ĠMal ays
y st
Ġk ony
Ġr ates
ĠU d
Ġelv Ã¡laszt
Ã©s bÅĳl
hely ek
Ġfound er
Ġref ers
ĠmegvÃ¡lt ozott
Ġhat Ã¡ra
Ġmoz gat
Ġszent eltÃ©k
Ġfoly ton
Ġhagy ott
ĠtartomÃ¡ny ban
ĠÃ©rdem es
ĠTer Ã©zia
ĠI vÃ¡n
ĠÃ©pÃŃt Ã©szeti
Ġ185 2
Ġfriend ly
ĠszÃŃv esen
Ã¼d t
ĠtartÃ³z kodott
ĠPear l
Ä ±
id Åĳben
ap olis
zet e
ĠFor ces
ĠHen ri
Ġdigit Ã¡lis
Ġt ie
ol cs
Ġn egyven
Ġd iet
Å Ł
ĠT on
ĠÃ¡ltal Ã¡n
Ġbomb ers
Ġimpro v
Ġrank ing
Ġpozs onyi
ĠA x
Ġin aug
ĠT her
Ġrang ot
Ġarg ument
Ġb Ã¡l
Ġfel ment
Ġjelent kez
Ġbev Ã©tel
Ġrel iev
Ġcomp ete
aud var
ĠÃ¡tmÃ©rÅĳj Å±
ĠJ ess
Ġcan al
Ġkor i
ĠHer ceg
Ġmond ott
ĠTown ship
Ġf ung
Ġc risis
Ġkisz olg
nÅĳ je
ĠvÃ¡r hatÃ³
Ġspirit ual
ĠBank s
Ġneighbor hood
Ð ¹
Ġdal okat
asc ar
Ġtr uth
Ġpar ad
ĠEd ge
Ġjelen sÃ©g
Ġexpl o
Ġpolic ies
id ers
Ã©k a
ĠAustral ians
Ġrepresent ative
ĠmÅ±v Ã©t
esz k
ĠMunk Ã¡s
Ġdall am
Ġmeg seb
ĠhÃ©t en
fÅĳ nÃ¶k
Ġp hen
Ġcom ments
Ġdraw ing
Ġin sc
Ġel Ã¶l
Ġposs ession
Ġsuff icient
h ou
il kol
ĠP ow
ĠN eg
ĠOn t
vezet Åĳje
ĠsÃºly osan
ĠR Ã©szt
Ġho ck
Ġjelent Åĳsebb
Ġmegh osszabb
Ġjo ining
Ġn ull
st ruct
Ġfel fÃ¼gg
Ġ10 1
ĠAriz ona
th oz
ab i
ĠV anc
Ġch urches
ĠKÃ¶nyv tÃ¡r
Ġjelen et
f ia
im eter
ĠR t
ĠjÃ¡t ssz
Ġprot agonist
ĠszemÃ©ly esen
Ġindic ate
ĠIndust ry
re gy
ĠC ort
ĠAl ong
ĠkÃ¶zsÃ©g ben
ĠJul ian
row s
Ġjellem zi
Ġpan el
Ġmom ents
Ġo v
ak s
Ġher ald
v all
Ġn a
Ġad ni
ĠCh and
ĠTok yo
ĠEd inburgh
han na
Ġpon ttal
m s
Ġsh if
Ġrend szere
Ġnov ell
Ġaw are
Ġbu z
Ġact ed
Ġ184 4
ĠveszÃ©ly es
t ud
in ction
an ci
Ġadj acent
ĠB eg
ĠC it
ĠP Ã¡p
ĠF ell
ĠK od
Ġho using
Ġszer eztek
ĠelnÃ¶k i
Ġorgan izations
Ġzs Å±
Ġappro val
ĠS A
ĠC P
Å± s
Ġcsapat nak
nev et
Ġlass Ãº
Ġabsz ol
ĠA ub
pres sz
ĠtÃ©ny leges
an ny
or ge
Ġgro wn
Ġdesc ribe
ĠAb u
usc ript
Ġm Ã©h
ĠlÃ©p tek
Ãģ zs
idej Å±
ĠhÃ³nap ig
Ġc overs
ĠkÃ¶vet ett
Ġsem mit
ar Ã¡nd
ib Ã³l
ĠÃ©rt es
Ġmoz og
ĠvÃ©l etlen
ĠTy ler
Ġappre ci
Ġs ivat
Ġf en
ĠA rea
Ġd ies
ĠB ron
Ġas ks
ĠAl eksz
Ġbas es
Ġk el
Ã¡l va
hÃ¡z as
Ġfin als
ĠZ e
ĠemlÃ©k ezet
Ġdoll ars
Ġassz iszt
ÃŃts Ã¡k
h ai
Ġp y
Ġto x
Ġcreat or
Ġtartoz tak
ĠÃĸssz esen
Ġsym pt
Ġauton Ã³m
Ġpow ered
Ġc ukor
Ġpro sp
Ġad nak
Ġsc re
Ġkim utat
ĠR achel
og Ã©n
Ã¡m adÃ¡s
Ġhon our
Ġcop y
nyug atra
Ġlel kes
ĠÂ »
an Ã¡r
ĠHal o
t hel
Ġc atal
Ã¼k k
Ġsur prise
Ġ0 7
Ġarr iving
Ġfigyelm Ã©t
im er
ĠtÃ¡mogat Ã¡sÃ¡val
Ġ Ã¡zsiai
Ġmin Åĳ
Ġsm ooth
ĠSen ator
ĠÃ©rz elm
en os
Ġg ang
Ġrendelkez nek
eum a
Ġcover ing
Ġcreat ive
ĠMin istry
ĠBo eing
Ġchang ing
ar ag
Ã¡ny os
Ġhock ey
ip per
for mer
ĠvizsgÃ¡l atok
ĠÃ¶r mÃ©ny
Ġbales et
O L
Ġt elling
onna issance
Ġszex uÃ¡lis
i est
Ġkeresked elem
Ġdisplay ed
y gen
Ġki Ã¡lt
Ġpre cip
Ã©b red
Ġcoll apse
Ġhelyzet ben
ĠkÃ¶zleked Ã©si
ĠfilozÃ³f iai
sz Ã¶veg
ic he
ĠH unt
Ġvill ages
Ġsurv ive
ĠszÃ¡mÃŃtÃ³gÃ©p es
ĠAd min
ĠtanulmÃ¡ny okat
arr ing
Ġelimin ated
Ã©l emÃ©ny
ĠkÃŃv Ã¡nt
ĠÃīdes apja
p Ã©ter
Ġ18 15
uc c
aszt Ã³
bar Ã¡t
Ġappoint ment
Ġ Ã¶s
Ġalap ulÃ³
Ġmon itor
Ġhelp ing
id o
Ġun like
ĠÃ©rtÃ©k e
Ġkocs i
ĠdrÃ¡m a
Ġseek ing
Ġpartn ership
ĠPhoen ix
ĠÂ «
ĠSt at
oun ced
Ġnev ezzÃ¼k
enc ing
Ġnyolc adik
or er
ĠSz Ã¡m
ĠÃ©l Åĳl
Ġrec over
abil it
ĠS ci
ĠM Ã©r
rop h
ĠterÃ¼let Ã©re
ĠlÃ©p Ã©s
ĠKe ith
Ġlak ossal
Ġtitk Ã¡ra
in als
ek ing
Ġr abb
ĠC ad
Ġtreat y
ĠPri x
ĠL E
ult an
Ġnev eztek
ĠmÅ± vet
Ġbi rodalmi
rup ted
Ġp ul
Ġsz at
ĠG ray
ĠelÅĳ Ã¡ll
Ġvict ories
Ġbot an
Ġfor ec
ĠF BI
ĠnÅĳ vÃ©re
Ġnewspap ers
ĠkÃ¶ltsÃ©g vet
Ġmin isztÃ©rium
ĠmÃ©r g
ĠadomÃ¡ny ozta
il ap
ĠBl u
ĠEd wards
ĠMont real
ĠSat ur
ĠszÃ¼n et
D A
ĠR av
ĠkÃ©sz ÃŃtettÃ©k
Ġsu icide
ĠEszter gom
e qu
Ġg Ã©n
Ġso il
Ġvall Ã¡sos
ĠgyÅĳz Ã¶tt
ef ul
ĠlegrÃ©g ebbi
Ġf Ã¼st
ĠJ oy
Ġgyakor olt
ĠnyÃŃ lik
Ġinstrument al
eg i
aur usz
Ġscient ists
ĠVietn amese
Ġstorm s
ĠÃ©lÃ©n k
Ġ. .
Ã³k a
Ġszok Ã¡sos
Ġpaint ings
ĠH uny
Ã¶v Åĳ
Ġv b
ĠD evelopment
ĠmegprÃ³b Ã¡lta
ĠSzÃ©k esfehÃ©r
ĠD iam
ĠkÃ¶z l
Ã¶zt e
Ġgra vit
ĠDan ny
og Ã¡ny
qu et
Ġco oper
ĠNaz i
ĠL ed
ĠL iv
Ġround s
Ġwhe el
Ġoccas ions
z us
Ġres umed
ĠvilÃ¡g ban
Ġadmin iszt
Ġhad erÅĳ
Ġviol ent
ĠPest i
ĠÃ©re z
ĠL uke
ĠdÃŃ jÃ¡t
ĠjÃ¡tsz Ã³dik
ĠmegerÅĳs ÃŃtette
Ġels ewhere
ĠkÃ¶zigazgat Ã¡s
Ġdyn asty
or os
ĠS ex
Ġkeresked Åĳ
Ġalkalma ztÃ¡k
Ġv Ã©ve
Ġd un
ĠH ir
vi ation
ĠfelesÃ©g Ã©vel
Ġt ib
ĠtÃ¡rgy ak
ĠjÃ©g korong
ĠVanc ouver
Ġintens ified
ĠK eleti
ĠSz ombat
ĠBud a
ĠMer ced
Ġexam ples
Ġkezdet Ã©n
Ġw edding
hat Ã¡rozta
ĠL ost
Ġkez Ã©ben
ĠMarc us
Ġh Ã¡r
Ġel ter
ĠBu ilding
ĠInter state
at Ã©rt
Ã¡ci ai
Ġpol ar
Ġmunk Ã¡i
Ġteljes ÃŃtett
ĠkÃ¶zÃ¶s sÃ©gi
ĠtÃ¡mogat Ã³
Ġren ov
Ġhel ic
Ã£ o
er r
Ġbal ance
Ġelind ult
Ġbenef it
p ark
ĠS now
id eg
Ġi P
Ġs Ã¼lly
Ġf ishing
ĠÃ¡ll ap
ĠPort ugÃ¡l
Ġneut ral
mun ition
B A
E n
Ġl elÅĳ
ĠB eng
Ġre pr
tern al
ĠszÃ¡raz fÃ¶ldi
ct ic
Ġzen Ã©t
Ġorv ost
E T
M ivel
ĠLak Ã³i
rat or
ĠColl ins
Ġdeg rees
ĠrÃ¡j Ã¶n
ĠL iga
Ġrecord ings
Ġtekint ik
Ġmaxim Ã¡lis
ĠÃ¶sszekÃ¶t Åĳ
j Ã©vÃ©
Ġtit okban
Ġpublic ly
Ġsched ule
ĠNew ton
ĠÃ©let re
Ġm issz
Ġsz okatlan
ĠC ab
ĠNev Ã©t
ĠLes lie
onym ous
ĠH ajd
Ġmell ette
Ġdefe ating
Ġdisp ute
Ġsiker eket
Ġ183 8
Ġforg almaz
ĠMil Ã¡n
Ġpil ots
sziget ek
ĠTovÃ¡bb Ã¡
m ik
Ġb ites
Ã¡ro ztÃ¡k
Ġcharacter istics
ĠB osz
ĠC elt
Ġam iket
ĠÃ¡ll ÃŃtja
asz ÃŃn
eli ber
ĠkÃ¶lt Ã¶ztek
akt ÃŃv
Ġmur d
ĠprÃ³bÃ¡l koz
ĠPen insula
on ica
Ġb og
Ġab ilities
ĠszÃŃn vonal
Ġdesc ription
Ġdesign ation
Ġimp ossible
ĠfÃ¼gg Åĳleges
Ġcompet ed
ĠOk tÃ³ber
s Ã¡r
ac i
Ġhely ette
Ġ185 3
M Ã¡r
p oint
ĠL t
le ans
Ġbet Å±k
Ġmin i
est vÃ©re
res ent
Ã¶ny Ã¶r
hossz abb
ĠRang ers
ing en
ĠB Ã¡l
et ies
Ġal ignment
Ġem peror
ĠmÅ± szer
ann ia
Ġdomb or
Ġprem ier
Ã¡k bÃ³l
Ġcs ÃŃk
ran ts
Ġte acher
Ġkit Å±nÅĳ
ĠSzeged i
Ġstrugg le
sÃ¡g uk
Ã¡rd a
p us
ĠA A
ĠAr ad
eli us
ĠGr ace
ĠFerr ari
ectic ut
Ġr ivers
od Ã¡st
Ġconc rete
ĠtÃ¡rsasÃ¡g Ã¡ban
Ġterjeszt ette
il it
om lott
ĠH il
ĠAn at
ne e
ecs Ã©t
Ġfort y
Ġbak tÃ©rium
ol Ã¡st
ĠB ot
ĠB ox
ĠszÃŃn e
Ġa ran
Ġpres erved
ĠUr asÃ¡g
Ġabs ol
ĠMoszk v
rom b
Ġ11 6
Ġol cs
ĠChampionship s
ĠEduc ation
c ott
on Ã¡t
ĠÃ¶sszegy Å±jt
Ġv ÃŃgjÃ¡tÃ©k
Ġfel sor
ĠvÃ¡ltozat Ã¡t
ĠOtt Ã³
T ube
j Ã¡rt
ĠMor rison
Ġg rey
Ġneigh bour
Ġv ajd
Ġpro cl
ĠfÃ©r f
Ġtun nel
am ic
Ġmin es
ĠTer ry
ĠTurn er
l ista
ĠC L
ĠSt rat
ĠjÃ¡tÃ©k ot
ĠmÃ©rkÅĳz Ã©seinek
Ġbrit ek
Ġinterest ing
Ġpurp oses
Ġbeaut iful
g io
m Ã¡t
ĠN am
ĠEm my
ĠBro thers
Ġoccup ation
Ġs ank
rÃ©t eg
ĠFÃ¼gg etlen
Ġam ire
ĠidÅĳk Ã¶zben
ĠnemzetisÃ©g Å±
ro ke
ot ikus
Ġnev elÅĳ
ĠcÃ©l ba
ĠBiz ottsÃ¡ga
Ġgondol kod
Ġalk ohol
ĠszÃ¼l Åĳk
Ġsurviv ors
ĠSatur day
Ġdown load
Ġ <
Ġb ay
Ġd anc
ĠAr d
Ġ183 1
ĠnyilvÃ¡n valÃ³
ien ne
Ġtizen kÃ©t
ĠP ars
Ġro ut
ĠBud dha
Ġment al
Ġlo an
ir i
ter ior
ĠL az
ĠN ever
oc Ã©n
Ġel abor
ĠL it
Ġhat Ã¡sÃ¡t
Ã©nek es
ĠÃ©szak keleti
Ġkedv enc
ĠÃ©jszak ai
ĠH ugh
Ġprote in
Ã¡z Ã¡s
ĠHe alth
ĠBar n
Ġlevel ezÅĳ
Ġfontos abb
ĠPlay er
Ġmegold Ã¡s
Ġliber al
Ġagricult ural
ĠS even
ĠE sp
Ġfif teen
ĠC ult
ĠszÃ¡zad ig
ĠSc he
ĠÃ©pÃŃt tetett
Ġanyag ot
ĠÃ¼t em
Ġbusiness es
Ġsz am
ok er
ĠEr nÅĳ
Ġben z
Ġd ohÃ¡ny
ezet Åĳ
Ġman uscript
Ġass isted
Ġm as
b ur
ot al
ĠB ors
Ġfel Ã¼gyel
ĠszÃ¼r ke
Ġhabit at
ov ich
ossÃ¡g Ãº
Ġlegend Ã¡s
Ġsuit able
Ġb Ã¡tor
Ġv Ã©rt
Ġl ieutenant
Ġam munition
Ġsign ing
Ġcandid ates
ĠlegnÃ©p szerÅ±bb
l ec
ĠD J
Ġtitk Ã¡r
ĠÃ©re zte
ĠThrough out
Ġterm elÃ©s
ĠpÃ¡ly Ã¡ja
ĠkÃŃvÃ¼l i
Ġelect ronic
Ġs Ã¶r
an ium
Ġv in
Ġ18 20
eszt ette
ĠbÃŃr Ã³i
ĠregÃ©ny e
Ġfor ests
Ġszer zÅĳje
Ġsim pl
Ġteach ing
l ain
ĠK ult
Ġbar r
Ġember isÃ©g
Ġrep airs
met sz
ĠYou Tube
ĠAusztrÃ¡l iÃ¡ban
in om
Ġmegkezd ÅĳdÃ¶tt
is ak
ri ev
Ġit Ã¡liai
Ġsub mitted
20 14
burg i
Ġuralkod ott
Ġelektron ikus
Ġellen Ã¡llÃ¡s
Ġfound ation
Ġmegsz ok
eked ett
Ġszerepelt ek
ĠegymÃ¡s hoz
Ã©k kel
ked ik
Ġpo ison
Ġlegj obban
ĠRec ord
Ġkih ÃŃv
ĠhadmÅ±vel et
A d
ĠhÃ¡rom szÃ¶g
Ġï¿½ï¿½ï¿½ï¿½ ï¿½
Ġsitu ated
ĠR ico
Ġhad if
ĠHe b
Ã¡ci Ã³kat
ĠUgyan csak
Ġkal Ã³z
ĠmÃ©rsÃ©k elt
Ġv ig
Ġc iting
ay e
Ġstr ing
Ġpar ish
ĠM old
Ã©r iai
Ġak n
Ã¡v id
ĠhÃ¡z at
ĠsÃ¡r kÃ¡ny
f Å±
Ġw aves
ĠT omm
ÃŃt Ã³t
ib i
Ġtan ÃŃtÃ³
Ġser ial
Ã¡ciÃ³ jÃ¡t
ograph ical
ett es
ci um
Ġval ues
Ġ184 2
ĠnÃ©pszerÅ± s
ĠOnt ario
l atok
ĠJ ose
Ġus ual
Ġkell em
Ġcor por
hossz a
ĠGimnÃ¡zium ban
Ġh any
Ġl Ã¡sd
ĠP os
Ġlem ezt
ĠN S
Ġter Ã¼l
Ġjun ction
Ġnuc le
Ġberend ezÃ©s
ĠA er
oh as
ĠAt lan
Ġmot ÃŃvum
ĠS ak
Ã¶n g
ĠÃŃr ni
ĠGu ide
ĠhÃ©t ig
ĠPal est
ar Ã¡t
esz Ã©l
Ġz Ã³n
Ġillet Åĳen
sÃ©ge it
ĠM ai
Ġ184 1
hegy i
l u
ĠapÃ¡t sÃ¡g
l isted
ĠG ott
ete it
Ġart s
iven ess
Ġass ists
adÃ¡s Ã¡ra
ĠfÃ¶ld reng
ĠkÃ©nyszer Ã¼lt
Ġleggyak rabban
ic ity
ĠL ith
ov o
Ġex it
ari us
Ġlesz nek
Ġadv oc
Ġaudi ences
ĠHawai i
Ġconc urr
Ġfelszer elt
H S
ĠT art
ĠO z
ĠOkl ah
b Ã¼ntet
Ġk alap
Ġfelv Ã¡lt
Ġlegend a
Ġunderst anding
biz ony
Ġd oz
ess es
Ġmagas sÃ¡gban
ĠÃ©nek elt
Ġ183 6
ĠRep resent
ĠOr leans
Ġhang ja
Ġsaj t
Ġs Ã©t
ert on
Ġhang ulat
ĠcÃ©l ra
ĠS P
ĠF ac
Ã©k e
Ġkor Ã¡n
ĠfelesÃ©g Ã©t
ĠEN SZ
A p
Ġr and
enn es
ĠvÃ©d te
str ong
ĠMaros vÃ¡sÃ¡r
ĠtrÃ³nÃ¶rÃ¶k Ã¶s
ĠCan terbury
Ġmer Ã©ny
Ġ183 9
ĠtevÃ©keny sÃ©gÃ©t
Ġunok a
Ġc ateg
ĠvilÃ¡g ot
Ġbr ig
ĠRober ts
Ġd eliber
osz aurusz
Ġmet rÃ³
Ġsk ull
r ud
Ġsign s
al ÃŃciÃ³
Ġask ing
ĠH D
osz lop
Ġgazd Ã¡l
Ġsubject s
Ġc yl
Ġco ordin
Ġcar go
Ġpoor ly
ĠalelnÃ¶k e
k un
is d
ip er
ĠdÃ©l utÃ¡n
Ġgyermek Ã¼k
Ã© Ã¼l
Ġt ab
Ġmeg d
Ġwill ing
ĠidÅĳn kÃ©nt
or um
Ġegy ensÃºly
Ġser ege
Ġfog lalt
ĠÃ©pÃŃtÃ©s Ã©t
Ġelhely ezett
Ġs unk
Ġan ch
Ġjelent ettÃ©k
essÃ©g gel
Ġbeh alf
ĠjÃ¡rt ak
Ġengine ering
Ġth in
est one
Ġpercent age
Ġill ness
Ġgyermek ek
Ġszervezet ek
Ġfeel ings
op ot
ĠV end
any on
Ġalkalm Ã¡bÃ³l
ĠIz rael
ĠSz olnok
ve it
ĠkÃ¶zÃ©p pÃ¡ly
ĠSy mph
Ġtat Ã¡r
ĠBened ek
ap sÃ¡g
Ġsp r
ĠszÃ¡m ukra
Ġnagy kÃ¶vet
Ġlak Ã³t
ĠdÃ©l nyugati
Ġmagas sÃ¡ga
sz Ã¼n
Ġdis aster
ĠlÃ¡t szik
Ġtest Ã¼let
Ġlik ed
Ġezred es
O M
Ġm ons
Ġl ift
eszt Åĳ
Ġschol ar
ĠE sc
Ġlegel sÅĳ
Ġvo iced
ĠReform Ã¡tus
Ġox igÃ©n
f ish
t ÃŃpus
Ã³n Åĳ
Ġsusp ended
c ar
c ik
Ġn ations
ul um
Ġfavor able
Ġf enti
Ġpr on
ĠÂ ·
Ġtorn ado
ĠJo an
Ġterj eszked
ĠÃº szÃ³
ate ur
Ġ183 7
Ġfil ed
Ġtet ejÃ©n
Ġrestaur ant
ĠF Ã©l
ĠhÃŃv jÃ¡k
c ell
ĠC av
act ion
pt alan
Ġany anyelv
Ġ23 0
Ġnyom tat
aur us
ĠI szt
ĠSz ic
ĠBarb ara
ĠerÅĳtel jes
Ë Ĳ
ĠtÃ¶r edÃ©k
Ġfl ights
Ġhozz Ã¡t
ĠlÃ©g kÃ¶r
Ġclos ing
Ġib n
am an
ĠhalÃ¡l ra
Ġhid rogÃ©n
ĠHind u
Ġtempor arily
Ġm ont
Ġp Ã©csi
ott on
ĠR at
Ġny elve
Ã³ jÃ¡t
ĠÃ©sz l
ĠfÃ©l re
ĠigÃ©ny be
Ġmeas ured
ĠGirl s
Ġ ily
ĠCamer on
ĠszÃ¡zad bÃ³l
Ġtar gets
b ook
Ġev il
ĠIs a
ĠCom ics
Ġlabor atÃ³rium
Ġattend ance
Ġilleg al
art e
Ġmegny er
Ġist enek
on ies
Ġw el
pp er
Ġmag Ã¡hoz
ĠfÅĳ iskol
ĠjÃ¡tsz Ã³
ĠÃ¡s at
ĠjÃ¡tÃ©kvezet Ã©stÅĳl
Ġhivatkoz va
ĠG ang
Am ikor
ohas em
ro ck
Ġmeg int
ĠJ og
Ġres olution
Ġsc atter
Ġ183 2
Ġaim ed
v Ã¡rost
ĠC atherine
Ġam atÅĳr
ĠSz Å±z
ĠpÃ¼spÃ¶k i
1 00
ĠS ac
ĠC urt
Ġmely bÅĳl
Ġelt Ã¶r
hass on
c ore
Ġab ol
Ġmely ik
Ġugyan ebben
Ġbev Ã¡ndor
Ã¶rtÃ©n et
ĠTam il
enni um
Ġb ra
Ġkor osztÃ¡ly
ĠjÃ¡tsz ani
Ġbirtok osa
ĠPro test
Ġger inc
ĠConn ecticut
Ġkonzerv atÃŃv
ĠP alm
Ġval aha
Ġellen fÃ©l
om ba
Ġdep ort
200 4
ĠRom Ã¡n
ĠnÃ©m i
ĠjelzÃ©s Å±
Ġs in
ĠH oll
ĠE vent
ff ield
ĠMc M
ĠCharlott e
ĠS ey
Ġel der
Ġgy er
ru h
Ġvissz asz
Ġcollabor ation
Ġel esett
ĠÃ¡ll ÃŃtottak
jel en
Ġopp onent
ĠOtt o
ĠOly an
ĠbÃŃ zta
ĠBure au
f olk
ĠD um
Ġ10 2
Ġtud juk
ĠDr ive
Ġfift y
Ġismer kedett
Ġfr ig
Ġmem or
ĠRal ph
Ð ¼
Ġvis elÅĳ
ĠszemÃ©ly ek
ĠdÃ¶ntÃ¶tt ek
m Ã©rtÃ©k
Ġsz iv
Ġfun eral
Ġcs Åĳ
ĠlakossÃ¡g Ã¡nak
ĠkÃ¶zleked ett
Ġopt ion
Ġshell s
Ġregister ed
Ġt Åĳk
un ction
ĠN ixon
Ã¡ll apot
Ġfr ame
ĠYork ban
Ã¶kk ent
u able
Ġp Ã¡szt
mÅ± vet
ĠhÃ¡t rÃ¡ny
Ġbele egy
Ġforgalom ba
ĠGiov anni
ar end
Ġc od
Ġegy rÃ©szt
tel enek
ĠFl ight
Ġ18 13
ĠhÃ³nap os
Ġkinev eztÃ©k
Ġl ect
Ãº jabb
oz Ã¡sÃ¡ra
Ġrel uct
ĠMar i
jai ban
Ġw et
ĠÅ±r hajÃ³
ĠfellÃ©p ett
Ġexplos ion
Ġvalamely ik
sÃ¡g ra
Ġover w
ocs ik
ĠC uba
ny it
ĠRom Ã¡ni
Ġox ygen
Ġoper ational
ĠÅĳr zi
Ġosz mÃ¡n
ĠÄ Į
ent Åĳl
eng ely
ĠEl Åĳbb
ĠCs Ã¡k
Ġtechn olÃ³gi
Ġstat ue
Ġfelb ont
Ã¡gr Ã¡b
Ñ ĥ
az ing
Ġbi olÃ³giai
Ġmer ev
Ġcomplet ing
ĠkÃ¶zleked ik
Ġs ki
ĠF arm
ĠK osz
ĠJ Ã¡n
au er
Ġagy ag
Ġkiterjed t
ĠEgypt ian
ov ic
iszt a
Ġhaj Ã³z
ĠSc out
Ġszerkeszt ette
ĠOb ama
ĠÃ¶lt Ã¶z
Ġkijelent ette
Ġdec ides
ker Ã¼lt
Ġrepl acing
Ġaff air
ĠUt olsÃ³
ĠMu ham
Ġb ag
Ġw ore
Ġsh r
Ġoff ering
Ġfam iliar
Ġ179 7
k am
ĠN ative
Ġny Ã¡r
Ġtr ust
Ġ10 4
Ã¡ciÃ³ ban
ĠtÃ¡vol i
ĠÃŃz ben
r acy
ĠCh a
ĠÃ©l v
ĠFran Ã§
ĠhÃ¡t ul
Ġper em
ĠBo is
Ġdoc uments
ĠT all
ĠB eh
Ġexp ensive
ĠkÃ¶nyv t
ĠLab our
Ã¶ bben
Ġw orship
ĠTod d
Ġrebu ilt
C ar
ar est
ĠKor Ã¡bban
ĠkÃ³r us
ol en
ÅĤ aw
Ġkamp Ã¡ny
Ġs ure
Ġd at
ĠB M
Ġres idence
Ġtud om
Ġ184 3
ĠÅ °r
ĠmÅ±v Ã©ben
Ġlack ed
ĠjÃ¶tt ek
Ġsequ ences
ĠMcCart ney
Ã©n es
Ġwas n
ĠJ ag
ĠEn t
Ġesc aped
ak ers
Ġszim f
Ġcsapat Ã¡hoz
Ġdr ag
forg alom
Ġko ordin
Ġearth qu
Ġpull ed
ĠP rop
ĠL ess
Ġcomp ilation
ĠCs er
Ġhegy sÃ©g
Ġtw in
Ġhelyezked ett
w w
ik o
ik Ã¡ja
ere ign
ĠorszÃ¡g okban
Ġhi Ã¡nya
ĠNe il
Ġszenved tek
Ġt ort
Ġfelt Ã¶lt
ĠBur ton
Ġfalv ak
ĠIndepend ent
Ġlegkor Ã¡bbi
Ġj uh
ĠAbb ey
Ġszerzet esek
ĠD Ã¡vid
Ġgy arap
Ã³d us
Ġ16 00
ĠAust in
ĠAtlan ta
Ġth or
ĠP oll
Ġhat Ã³
Ġall iance
Ġmult ipl
Ġbow ling
Ġmountain s
Ġm ongol
ch w
ĠkÃ¶lt Ã©szet
ĠkÃ¶t Åĳd
fal va
is i
ĠTr acy
Ġrecogn ised
ĠBus iness
ĠRi hanna
itk Ã¡r
id al
ĠEm lÃ©k
kÃ¼l d
ĠMed al
Ġthink ing
ĠS ean
av ia
up p
ĠBeth len
Ġkonk rÃ©t
Ġfel d
ĠkÃ¶r Ã¶k
Ġhol ttest
Ġrefl ected
z edÃ©k
Ġharc os
Ġarm ored
Ġnorm Ã¡l
Ġfelb uk
or osz
Ġfal unak
Ġkeres ett
Ġamong st
ĠFed eration
Ã©p ÃŃt
Ġdro ve
Ġc ous
ĠJ ama
Ġbill enty
Ġre ven
Ġmar s
Ġoly kor
Å±z Ã¶tt
ĠLe op
Ġfolytat Ã³dott
Ġenter tainment
D I
b Ã¡nya
b eteg
f ather
l ata
ĠM ig
Ġbiztos ÃŃtja
ĠfolyÃ³ ir
Ġs ector
ĠC ole
ĠpÃ¡ly aszÃ¡m
Ġkonfer enci
ĠG ot
Ġny Ã¡ron
enn el
Ġwar n
Ġkl in
ĠÅĲ k
ĠBerlin ben
Ġgraf ikus
kÃ©p p
Ġalc ohol
v end
Ġpred omin
et o
Ġl ists
Ġalkalmaz Ã¡sa
ĠtÃ¶ re
Ġcanc elled
ĠletartÃ³zt attÃ¡k
Ġm ered
iz Ã¡lÃ³
Ġvis elt
Ġbet Ã¶r
Ġdirect ors
Ġsuggest ing
Ġrepres ents
ĠMil an
Ġtrib es
ĠkÃ¡p olna
N C
Ġr adik
ĠminÅĳsÃ©g Å±
Ġl Ã¡gy
ĠR idge
ĠegÃ©sz Ã©ben
ĠTan szÃ©k
h Åĳs
ĠB Ã¡th
ĠSz eptember
Ġfelad atokat
Ġvonal on
ĠC omb
Ġbez Ã¡r
os ÃŃtÃ¡s
Ġz Ã¶m
ath y
ĠP ep
Ġaff airs
Ġamount s
Ġprepar ation
ĠOklah oma
s es
Ġto uring
kÃ¶ tel
Ġclear ly
Ġsav ed
hÅĳ mÃ©rsÃ©klet
oly an
ĠCl aud
ĠbelÃ¼l i
ott e
ĠF em
Ġb oss
ĠA ba
ÃŃtÃ©s ek
Ġbonyol ult
ĠM end
ĠW es
Ġkik ap
ĠakÃ¡r csak
Ġdram atic
Ġcseh szlovÃ¡k
Ġtor na
Ġaff ili
ĠbÃ©k Ã©t
ĠD ok
ash i
Ġeng agement
elÃ©s Ã©re
Ġlo op
ĠS ang
ĠO ur
Ġterm eszt
sburg h
ĠJun ior
esz ter
Ġrev olt
Ġdin am
Ġrob bant
Ġtehet sÃ©g
ĠTag ja
Ġgard en
b Ã¡zis
Ġf Ã¡r
ĠszÃŃn p
ogat ta
ĠvÃ¡laszt Ã¡sokon
Ã¡v a
ĠTr ust
P G
m or
ap a
Ġtemplom ban
ĠPed ro
b u
Å± lt
Ġab d
Ġherceg e
Ġalkalmaz zÃ¡k
ĠlegtÃ¶bb szÃ¶r
Ġcolon ies
Ġmilit ia
im i
ĠIn itially
Ġ0 8
ĠEd die
ĠeredmÃ©ny t
ĠlÃ¡ny t
ĠPhilipp ines
Ġmerch ant
l Ã¡si
ĠC BS
Ġmark s
ĠTer rit
Ġbad ly
Ġrecomm end
Ġwick et
Ġsever ely
n evel
Ġt um
Ġk ancell
ev Ã©s
ĠCh ile
Ġremn ants
ed a
ig ins
ev es
Ġpers pective
ĠkerÃ¼let i
Ġgy Åĳri
Ġex ecut
ĠHu bb
ĠKa iser
h t
o cialista
ĠhÃ¡rom szor
Ġeset ekben
ĠÃ©pÃŃt eni
Ġcsoport ja
Ġunoka Ã¶ccs
ã ģ
ĠM uch
Ġth rew
Ġki egy
hely et
ogrÃ¡f iai
T o
Ġp ace
Ġoszt ottÃ¡k
Ġfre k
l ife
Ġr ising
ĠN ort
Ġarm ament
ĠP rom
Ġcrew s
ĠelÅĳbb i
Ġflag ship
ĠS uch
Ġal Ã¡bbi
Ġear ning
ĠmegbÃŃz hatÃ³
Ġel vet
Ġjel zÅĳ
ĠMik sa
Ġelect ron
Ġhelyre Ã¡ll
Ġsympt oms
ĠC ond
agy ta
enced ik
ĠbÃ¡rm ilyen
Ġs od
et Ã©st
ĠC ant
ĠI par
Ġsp end
Ġmed enc
ĠerÅĳd ÃŃtmÃ©ny
H z
h Ã¡r
ĠB ath
ĠfÅĳ had
ĠÃºt ja
ĠdrÃ¡m ai
Ġbul k
Ã¼gymin isztÃ©rium
Ġm ud
Ġr acing
Ġal um
Ġte hetÅĳ
Ġfed ezte
Ġk incst
ĠS Ã¡m
le w
Ġismer et
Ġbank s
ĠÃ¡brÃ¡z olÃ³
ĠNich olas
ĠK iv
ĠkÃ¶zep es
Ġfegyver t
ĠengedÃ©ly t
Ġhat Ã¡sÃº
Ġcommun ication
cast le
ĠCra ig
O r
ĠIn g
Ġrec re
Ã¡sÃ¡t Ã³l
Ġrest oration
Ãºsz Ã³
Ġs isters
Ġg ap
ĠP ubl
Ġer upt
Ġart istic
ĠHar old
Ġhaz atÃ©r
Ġarg ues
l ings
l Ã¡nc
z ene
Ġh Ã³
Ġpr ime
ĠÃģ t
Ġrendszer ek
er es
Ġk ab
ĠO wen
Ġpl us
Ã©ly eg
Ġcsapat okat
Ġfr ust
ĠkÃ¶zÃ©p iskolai
Åĳzt es
ĠajÃ¡n lott
Ġ7 50
ĠcsalÃ¡d bÃ³l
Ġarr ive
ĠlÃ©g it
ĠJeff erson
ĠSeb ast
ĠgÃ³t ikus
ĠPet ers
Ġrossz ul
ĠHug hes
ĠDÃ©l i
Ġadminist rative
ĠCz ech
Ġvezett ek
Ġin land
Ġsz in
ĠK oh
iss ions
ÃŃz iÃ³s
Ġstr etch
Ġfal se
Ġfall en
ĠWall ace
p ro
Ġs ohasem
ĠInd ies
ĠirÃ¡ny zat
Ġrid ers
Ġw ants
ĠÃ³ ceÃ¡n
ĠkÃ¶rÃ¼l v
ĠÃ©szak kelet
ĠÃ¶nkÃ©nt es
Ġk ings
ĠW or
Ġass ess
ĠvÃ©d elem
v Ã©n
um ps
ild a
Ġret ail
sh ore
Ġlap os
ĠDar win
Ġn ukle
ĠS lov
ĠF land
Ġah ovÃ¡
Ġnorth ward
Ġbek er
N em
oz Ã¡sok
ĠN eb
Ġnot ice
Ġfog laltÃ¡k
aid en
Ġalkot jÃ¡k
Ġexc av
Ġref uge
Ġmegfi gy
Ġsaf e
Ġbound ary
at rÃ©sz
ĠkÃ©p zett
Ġcharacter ized
Ġlevel et
ĠmÃ©ly en
ĠvÃŃr us
an ic
Ġw a
Ġp inc
ah n
ĠCl ay
Ġkiad Ã¡sa
Ġelnev ezÃ©se
k Ã¶v
Ġt Ã¶lgy
it Ã¡st
Ġfel Ã©t
Ġszer etet
Ġah ogyan
Ġmill imet
Ġt Ã¼r
ace ae
Ġdistinct ive
Ġf aster
Ġb Ã¼
Ġmegsz Ã¶k
ĠPri or
Ġvul ner
Ġsp otted
ĠmÅ±v ek
ĠV Ã¡llal
oly a
Ġman eu
ĠhÃ¡z ak
Ġhelyzet et
Ġfun ctions
Ġcirc uit
Ġquarter back
gy ermek
Ġw ider
ĠN ova
og le
Ġter et
Ġsur ge
Ġdep ending
Ġrest ricted
ĠÃ©szre v
ĠkÃ¶r be
Ġ0 4
Ġszerepl Åĳk
Ġlehet etlen
Ġcontrol s
Ġ180 8
Ġrank s
Ġre aches
ĠkÃ¶r Å±
ĠShe ffield
ĠÃ©ghaj lat
ni x
Ġz Ã¡szl
Ġvis el
Ã¡n a
Ġexpl ains
ack ed
ĠHe y
Ġpat rol
Ġrang ing
Ġpattern s
b ishop
h Ã©t
Ġt estt
el ed
ber n
Ġtr end
Ġkereszt es
ĠvÃŃz ben
Ġpat ron
ich y
Ġhely eken
ĠlÃ¡t ni
Ġvas Ã¡r
ĠzÃ¡r ta
Ġmegegy ezik
Ã´ ne
Ġcompar ison
ĠszÃ³rak oztat
Ġheged Å±
it able
am as
Ġst eal
Ġgy Ã¶nyÃ¶r
ĠkÃ©rd Ã©sek
repÃ¼lÅĳ gÃ©p
Ã¡l hatÃ³
Ã©re m
Ġcred its
Ġb ull
ĠB ass
ĠE ur
Ġst ores
Ġhaj l
ĠÃ©pÃ¼lt ek
Ġgen etic
Ġkib Åĳv
ĠPers ian
ĠtemetÅĳ ben
Ġg a
ĠrÃ©g ebbi
ĠMerced es
Ġob vious
ĠeredmÃ©ny eket
Ġutas ÃŃtÃ¡s
Ġszerz emÃ©ny
z im
ar is
ÃŃtÃ©s Ã©ben
ĠÃ¡r nyÃ©k
ĠArm strong
Ã¼v ely
Ġa ux
ĠH off
Ġhousehold s
Ġs ang
Ġnev Ã©nek
Ġ Ã©
ett o
ĠAz Ã³ta
aszt ottÃ¡k
ÃŃz is
Ġcons ervative
ĠAnd rÃ©
Ġ28 0
Ġjellem ezte
Ġdemonstr ated
Ġtex til
Ġkoncep ciÃ³
p ill
ig i
Ã©p ÃŃtettÃ©k
ĠV Ã¡rm
ĠkÃ¶r Ã©
Ġexpl ain
ĠDel aware
Ġprep are
aszt ott
Ġev olved
ĠcsalÃ¡d ot
Ġeset leges
Ġart work
enes is
ĠdiÃ¡k ok
Ġfast est
g Ã¡z
ĠS Ã¡ros
ur er
ĠL ist
ĠK os
ĠCh amp
Ġkell ene
Ġalkal om
ĠRail road
moz d
ĠM ang
ĠH og
ter mel
ĠÃ¡llam ban
Ġfenn Ã¡ll
Ġinhabit ants
on nyal
ĠK ollÃ©gium
ann Ã¡
Ġsy nd
Ġown ership
Ġcond em
sequ ently
ĠMet al
Ġl ibr
ĠAnt i
Ġcover age
ĠIl ona
ĠstratÃ©g iai
W C
ĠB olt
ekt us
ĠkÃ¶t i
et z
Ġd Ã¼h
Ġne ur
Ġhelyzet e
Ä «
Ġp est
Ġsz urkol
Ġleg hosszabb
Ġalap Ãº
uh an
Ġbron ze
Ġdomin ant
Ġkarrier je
st an
ĠkÃ¶vet elm
Ġpe aking
ĠP Ã©csi
Ġsh ield
umb le
ĠmÃ¶g Ã©
ĠJac ques
ĠÃ¡tmen eti
ĠgyÃ¼l ekezet
Ġnap ot
ĠkÃ¼ld tÃ©k
ĠJÃ¡tÃ©k vezetÅĳ
Ġproduc ere
Ġjav Ã¡ra
ĠSvÃ©d orszÃ¡g
ĠHason lÃ³
u y
us te
ubl in
Ġlab d
Ġpal ace
ĠMoszk va
ĠConfed erate
Ġs Ã³g
ass y
Ġhat alm
Ġatt ained
ĠHab Ã¡r
b ra
i Ã¡val
ĠI de
ĠN ine
ull adÃ¡s
ĠBat thy
f Ã©ny
Ġs we
ĠkorlÃ¡t ozott
arÃ¡nd ok
l Åĳk
ul Ã¡ris
Ġfelad atok
Ġpred icted
ĠLar ry
Ġmegind ult
Ġdistingu ished
Ġsz ed
ust ic
uc ker
Ġpr etty
Ġun ex
ĠÃ¡t hely
xt ure
ĠHistor ic
Ġt ight
Ġp ure
Ġl Ã¡ng
Ġhaz Ã¡nk
ĠEu rov
ĠÃ¡llapot a
lem ezt
ĠmezÅĳgazdasÃ¡g gal
Ã³ v
Ġjut tat
Ġcontrib utions
ĠStud io
Ġt Ã¡p
ĠAust rian
Ġsport Ã¡g
ĠVill age
Ġmeggy ilk
sÃ¡g osan
Ġar iszt
kat olikus
H a
Ġmunk Ã¡jÃ¡ban
ĠBudapest re
Ġ26 0
ĠemlÃ©k eztet
Ġfelsz Ã³l
sz ek
Ġhely eztek
Ġsol ution
ĠtanÃ¡cs os
ĠS oon
ul ating
ĠN ear
Ġtelep Ã¼lÃ©se
ĠvÃŃz i
Ġwest ward
Ġmenek Ã¼l
Ġt Ã¶v
Ġid Ã©z
Ġdis agre
Ġcar riers
Ġserious ly
ĠmegÃ©r kez
Ġmindkett en
Ġinstit utions
Ġexcell ent
Ġhat almÃ¡t
Ġsl aves
Ġere jÃ©t
ĠI C
Ġst rict
Ġforr adalmi
ĠhozzÃ¡ fÃ©r
Ġs Å±r
ĠM aine
Ġmoz ik
ori bb
Ġexc lud
V A
Ġst Ã¡t
Ġag ency
ock ing
Ġiskol Ã¡ba
Ġlev Ã¡lt
Ġsat isf
Ã³ zsa
Ġsat ellite
Ġdis cipl
ĠszÃ©l Ã©n
ĠRep ort
Ġmatemat ika
ĠR iv
Ġki ejt
ÃŃtÃ¡s Ã¡hoz
itz erland
Ã©tlen Ã¼l
Ġpredecess or
t am
est yle
ĠvÃ©g Ã©tÅĳl
ĠszÃ³ bÃ³l
SZ K
ĠelÃ©g ed
ĠmÃ¡g neses
Ġadvent ure
Ġab und
Ġme at
ĠkormÃ¡ny zat
Ġzenek art
ĠMuham mad
h all
ĠB ÃŃrÃ³
Ġill uszt
Ġpo ems
Ġment i
ĠSat urn
Ġb ranc
ez ze
ĠF iles
Ġap artment
ĠSe ine
ĠvÃ¡rmegy ei
Ġrepeated ly
Ġwait ing
r asz
Ġkih al
Ġdoll Ã¡rt
ĠHung ar
ĠHun ter
ĠGy ermek
echn ikai
Ġintell ect
Ġunok Ã¡ja
Ġf Ã¡bÃ³l
Ġg ust
ab e
Ġaut obi
Ġcast ing
Ġhor g
ĠÃ©vad ban
Ġvert ical
ĠD yn
Ġall ies
fel dolg
S ince
Ġre h
Ġleg Ãºjabb
Ġappl ication
Ġblock s
Ġcho ose
o ons
es h
Ġf o
ĠM SZ
ant i
ĠvÃ¡ros Ã¡t
ÃŃp ust
szab Ã¡sÃº
Ġ11 1
Ġhal Ã¡sz
Ã³f ej
aj z
Ġszerint e
Ġstr iking
ĠlÃ©t szÃ¡m
al is
Ġn Åĳt
ĠC hes
ĠÃ©p ÃŃtette
ĠSh ar
Ġmat hemat
Ġlay er
ĠAh ogy
ĠM az
ĠP ete
ĠÃ¡t t
ĠY am
Ġszak Ã¡n
ĠPest en
g ow
Ġst orage
Ġelt elt
Ġmik ro
ĠvÃ¡logat Ã¡s
ed ia
ator na
Ġarm our
ĠkÃ©z ir
nÃ¶v Ã©ny
Ġstrengthen ed
Ġjel es
ĠszÃ¡rmaz nak
Ġ10 3
Ġco inc
Ġremark ed
f ford
j k
ut on
ĠBry an
ĠPitt sburgh
Ġsurg ery
Ġvesz ik
Ġph one
ĠAir lines
Ġ182 9
raz y
ĠCap it
ĠLu ci
Ġexhib ition
g art
ĠM Ã¡ri
ĠG ate
ĠG ust
Ġpro j
Ġalkot Ã¡s
lec ru
ag ok
Ġfix ed
Ġr is
Ã¶m Ã¶r
h Å±
ad ar
ĠD ud
Ġper ceived
Ġind ÃŃtottak
Ġkialak ul
ĠKÃŃn Ã¡ban
ĠeskÃ¼ vÅĳ
Ġg ate
Ġhang ul
Ġsign al
ĠGe off
ĠSw itzerland
ĠKat olikus
ĠSeg a
ĠB ord
Ġmeg Ã¡llÃ³
ĠW eb
Ġam ennyiben
und erst
Ġconc entr
ĠSch m
Ġcsoport ba
ĠOliv ia
ĠelÅĳ Ã¡llÃŃtÃ¡s
ĠAl ber
ĠÃŃr Ã³k
ĠHow e
Ġels Ã¼lly
ĠOszt Ã¡ly
ĠHamp shire
ĠLux emb
ĠN ation
od on
ĠSom ogy
c ements
ĠirÃ¡ny Ãº
at z
sz ar
ĠBe au
Ġilyen kor
Ġpar ent
Ġdem anded
Ġ179 0
ĠV ick
Ġan arch
ĠS ug
ĠF ontos
ilÃ¡g os
atal abb
ĠNagy on
Ġdiv at
Ġmeet ings
Ġplayoff s
c les
ag as
ĠW ald
Ġ21 0
ĠdÃ©l en
ĠW ells
ĠÃī va
Ġphen omen
6 4
tak ar
Ġty phoon
Ġhoriz ont
ip h
Ġfi Ã¡nak
ĠMag a
Ġins isted
Ġpract ices
dÃŃ ja
Ġs ick
ĠAn nak
ĠterÃ¼let re
ĠtevÃ©keny sÃ©get
ĠhÃºz Ã³dik
Ġkataszt rÃ³f
Ġen listed
ĠUn g
Ġret ain
vÃ©ny t
Ġzs old
egyed ik
ĠErn est
ĠS alt
Ġhe ves
ĠU m
Ġvis iting
Ġtag ozat
ĠvidÃ©k en
ĠBas eball
Ġsimultane ously
h art
al Ã³
ĠK y
ĠR ag
Ġprom ised
Ġread ers
ĠB ott
Ġg erm
Ġalap ÃŃtvÃ¡ny
ossÃ¡g Ã¡t
Ġinst itution
199 0
Ġkics it
ĠS ud
ĠE th
ĠF ischer
Ġch amber
old s
Ġstrugg led
p as
ĠS ul
Ġszer elmes
ĠLe o
ĠPe ace
ĠhÃŃm ek
Ġaud ition
E SC
Ġal ive
ĠmÅ± ford
ĠtovÃ¡bb jut
ĠT Ã³t
id ency
ĠL evel
ĠL iving
Ġwh ilst
ĠkÃ¶zÃ¶n sÃ©ges
9 9
O C
Ġel dÃ¶nt
ĠN ed
Ġrec onnaissance
ĠmÃ©g sem
ĠterÃ¼let Ã©nek
Ġnap os
ĠtovÃ¡bb fejleszt
Ġjelen nek
ĠYork shire
press ion
zen ei
Ġkiz Ã¡r
Ġfunk c
spec ies
Ġk ollÃ©g
ĠT as
Ġbet ilt
Åĳr Ã¶s
Ġmat ters
Ġext end
ĠvÃ¡laszt ja
Ġkih alt
ĠgyÅ±jt Ã¶tt
Ġkib ocsÃ¡t
ĠI p
ĠmÃ¡r vÃ¡ny
Ġship ping
Ġfest Ã©szet
Ġsimilar ly
Ġfriend ship
Ġem pt
kori ban
ellem zÅĳ
szolg Ã¡l
m inster
al in
Ġc up
oh an
Ġmegt ag
Ġdesc end
ĠÃŃtÃ©l te
Ġt ack
op p
ugh ters
Ġus eful
ĠBe aut
ĠmegelÅĳ z
Ġdrug s
Ġh Ã¶lgy
Ã©n Ã©
Ġfog sÃ¡gba
Ġelt Å±n
ĠYank ees
N y
Ġm oszk
ĠD ram
Ġcircum stances
ĠkÃ¶vetkez mÃ©ny
Ġ183 5
ĠkÃ¶zremÅ±kÃ¶d Ã©sÃ©vel
ĠVeg as
Ġf ossz
ĠE mer
uk on
ĠszÃ©l esebb
ĠTri ple
ĠÃ¡gy Ãº
i Ã¡k
Ġe cc
ezt ette
Ġismer tek
Ġgu ar
h r
as p
Ġl anes
âĢ ŀ
Ã¶z Ã©s
ĠÃ©l te
Ġbattal ions
Ġdisz k
ĠM aced
ĠB omb
Ġcont ext
nev e
Ġprotot ÃŃpus
gy akor
Ġp ip
Ġegy idejÅ±
ĠL ac
oth y
Ġkit Ã¶rt
Ġalkot ja
ĠKl ub
Ġbab y
ĠmunkÃ¡l atok
ĠJ T
ĠW ii
ĠKÃ¶z l
ĠKÃ¶z el
ĠÃ¼z en
Ġidej Ã©t
Ar thur
Ġto k
ang el
ĠEm ma
Ġbesz er
ĠeredmÃ©ny ei
Ġperson ally
Ã ļ
ĠB olyai
ĠN ad
ind ing
ĠkÃ¶nyv ben
Ġcivil ian
Ġre vers
Ġalap ÃŃtottak
ĠvÃ¡laszt Ã¡s
ĠHar bor
bor g
Ġki elÃ©g
Ġfelad atot
Ġhi Ã¡ba
ny olc
Ġamely bÅĳl
ĠÃī s
ox id
Ġtal ent
ĠgyÅĳzt ese
ĠWrest ling
Ġe igh
ĠM ason
ĠJ ava
ta b
Ġcons ole
Ġdr ivers
Ġdem ands
ĠLith uan
on k
Ġd ancing
ĠI dÅĳ
ĠR ights
ĠG ib
ĠFÅĳ vÃ¡rosi
ĠÃ³r Ã¡t
A nd
o an
ad va
Ġr Ã¡b
ĠM ell
Ġsub urb
ĠfÃ©r fit
Ġdoll ar
Ġelhelyezked Åĳ
h Ã¡zt
ĠS weet
ĠCs ap
Ġcompl iment
Ġport ions
Ġmain land
Ġlook s
Ġjavas olta
or l
Ġn Ã¡polyi
Ġl ista
Ġsz el
cs Ãºcs
inn ers
Ġvideo jÃ¡tÃ©k
re jt
ĠS yl
ran k
Ġun okat
Ġtartalmaz ott
Ġmegterem t
Ġleg fi
ĠAl as
hÃ¡z ak
Ġelv Ã¡r
Ġhead ing
ĠerÅĳ vel
ĠBenn ett
ĠN at
orth y
U S
u er
Ġs Ãºjt
Ġhivatal nok
ĠSw ift
ĠPÃ¡rizs ba
gyÃ¡rt Ã¡s
ĠszÃ¼letÃ©s nap
ed e
Ġy ield
ĠfÃ¶ld birtok
ĠfejlÅĳd Ã©se
Ġjob s
ĠBul g
Ġleggy ors
Ġprint ed
Ġdemol ished
ĠB L
Ġ5 000
Ġro ots
Ġelem e
ĠMil es
ĠMaur ice
ĠT izen
ent on
Ġj ugoszlÃ¡v
Ġhe ir
form a
ript ions
Ġfact ory
ĠMet ropolitan
ĠDw ight
s ay
Ġt iss
Ġre venue
enc er
Ã³g us
Ġvalam ivel
Ġmod er
ĠZs olt
Ġobl ig
Ġs ung
ac re
Ġverseny szÃ¡m
Ġhab Ã¡r
rupt ion
Ġszer zÅĳk
iss a
ezÃ©s Å±
Ġbl ow
rend Å±
Ġdisc overs
amar a
Ġ180 9
ĠgÃ¶rÃ¶g Ã¶k
Ġdin oszaurusz
ĠmegelÅĳ zte
Ġs iet
os ÃŃtott
ĠâĢ ³
Ġst ick
Ġform a
200 3
ĠSte el
ĠBay ern
Ã³c zy
R I
in ian
ĠAl onso
ĠbÃ©k Ã©s
szav az
Ġv s
ĠMich a
Ġell ipt
Ġszor osan
ĠÃ©des any
Ġguitar ist
Ġhomlok zat
ed zÅĳ
am ents
tt el
Ġlevel ek
Ġakt uÃ¡lis
Ġtib eti
ĠS hip
ĠS uz
qu er
ĠtÃ¡plÃ¡l koz
or id
Ġfe els
lan e
ĠvisszatÃ©r Åĳ
Ġcsel eked
Ġd and
ĠH osszÃº
ai hoz
Ġhat van
Ġtri ple
Ġfelker Ã¼lt
t orn
Ġ ~
ol Ã¡sÃ¡t
Ġd ual
ĠE C
ĠkÃ¶z Ã¶lt
Ġart ific
ĠLeon ard
v Ã¡g
in stein
Ġv ÃŃzt
zt ek
Ġaff ect
Ġdiplom Ã¡ciai
Ġmob ile
Ġpurs ue
ĠHard y
ĠFr iday
ĠGo ogle
Ġdrum s
m int
Ã¼l sÅĳ
ĠH aving
ĠN as
Ġcons cious
Ġsub species
Ġkarm ester
Ã©s szel
ĠP oly
Ġcsapat Ã¡val
ĠMag ic
ĠÃĨ thel
Ġm acsk
ed ing
Ġg ent
if Ã©le
Ġeg ri
kap itÃ¡ny
Ġbomb s
Ġbomb ing
ĠOs lo
ĠTudomÃ¡nyegyetem en
ĠPl ant
Ġbeliev ing
ĠRich mond
Ġregion Ã¡lis
Ġr if
Ġfel ekezet
rit ic
ĠlÃ©t esÃ¼lt
irt s
Ġart icles
Ġkil Ã©pett
Ġport s
heim er
ĠRog ers
Ġvezett Ã©k
Ġmegszok ott
Ġb id
Ġo m
Ã¶m eg
ĠHer bert
Ġaltern ate
szÃ¡zad ok
ĠC oul
ĠW a
ĠfÃ¶ld et
ĠNor folk
Ġarm ies
ĠC raw
Ġback ed
ĠBart Ã³k
Ġphilos ophy
Ġegyez mÃ©ny
ĠutÃ¡npÃ³t lÃ¡s
ch a
Ã¼k kel
ash a
ĠszÃ³l t
Ġlegsz ebb
ĠbÃŃbor os
Ã©g ett
ĠF act
ran n
Ġexp and
ĠN ancy
Ġelev ation
ĠR ab
Ġcsatlak ozik
ĠDep ression
Ġbejelent ettÃ©k
ĠL uther
ĠhÃ¡z ban
Ġszor g
sz lÃ¡v
Ġcs ill
Ġcomp ens
Ġvezet Ã©s
Ġpo ol
vÃ¡ny ok
mÃ©r Åĳ
Ġmay or
ĠMot or
È Ľ
Ġt Å±n
sz Ã³l
ĠV il
ĠOr bÃ¡n
ĠkÃ¶nny ed
ĠDen mark
ĠManu el
t Ã¡v
ĠT ab
ĠM Ã¡jus
ĠI ran
Ġqu iet
Ġsuc ceed
ĠszemÃ©ly zet
Ġincre ases
m o
am ount
Ġvesz nek
ĠSl am
Ġdeliv ery
ĠszÃŃnpad ra
Ġutol jÃ¡ra
Ġcul min
Ã©l ked
ament al
ĠlÃ©g ierÅĳ
ĠbÃ¼ntet Åĳ
e a
Ġk Ã¡rokat
Ġ18 12
Ġfilm ek
ĠBra h
ĠS oph
ĠF itz
ber ry
ÃŃtÃ©s Ã©nek
ĠkÃ¶zÃ©p kor
ĠÃ¶ssze foglal
tor ny
helyett es
r Ã©ny
ĠAl d
ĠNew castle
Ġok okbÃ³l
ĠhÃ¡t ter
Ġjust ice
ĠlÃ©trehoz ta
Ġsorrend ben
ent Ã¡lis
att Ã³l
Ġout l
Ġmus h
ĠAnd rea
reg ation
ĠszÃ¡ll ÃŃtÃ³
ĠTomm y
ĠT ul
uc er
Ġhagy ja
Ġharc ot
ĠM ission
ik Ã¡k
ĠO range
Ġut ak
Ġem elte
ĠfÅĳ parancsnok
ĠfÅĳ ispÃ¡n
rendszer t
Ġguilt y
ĠBÃ¡l int
Ġp ray
ĠT eh
Ġvezet Ã©k
ĠAug usztus
ĠsÃ©r Ã¼lt
Ġturr et
A L
ĠJ in
Ġjog Ã¡sz
Ġlap ot
Ġkiad tÃ¡k
Ġliber Ã¡lis
ĠÃ©pÃŃtkez Ã©s
in ai
Ġm Ã¡j
Ġmin ing
Ġiskol Ã¡k
ĠGl as
Ġathlet es
Ã©l ete
Ġcl othing
ach i
Ġtelep edtek
Ġcount ies
ĠemlÃ©k Ã©re
rÃ¡d i
Ġgenet ikai
at Ãº
Ġv megy
ĠS yn
Ã¡s kÃ©nt
Ã©p zÅĳ
elem en
Ġtiszt sÃ©g
Ġlatin ul
ĠSher man
l iga
p in
Ġin gat
Ġamely ik
ĠfÃ¡j l
ĠT aj
ĠF id
ĠÃº tt
Ġsur pass
ĠRom Ã¡nia
Ġor chestra
ĠZ empl
Ġkis lÃ¡ny
Åĳr inc
Ġharc okban
Ġrul ing
j u
Ġal tered
k Ã³r
ĠTh r
haj Ã³k
ĠXV III
ĠG em
Ġsc en
ĠJohn ston
ĠmegprÃ³b Ã¡lja
Ġc hest
Ġn et
ĠvÃ¡ltozat ban
ĠFerdin and
Ġc in
ik Ã©nt
ĠB es
ĠC ec
20 15
Ġeng age
v Ã©lemÃ©ny
18 5
ĠvÃ¡llal ta
ĠÃ¡brÃ¡z olja
Ġsettl ers
ĠvÃ©lemÃ©ny e
ĠKÃ©pzÅĳ mÅ±vÃ©szeti
er Åĳsebb
Ġthe ater
Ġk asz
oun ters
ĠÃºt i
18 7
Ġess ential
Ġdissip ated
Ġdeter ior
Ġh orn
ĠL C
ĠN u
mÅ± ve
ĠMountain s
M L
Ġel szak
Ãº f
ĠF und
Ġp Ã¡t
Ġp ione
Ġd ar
ĠT Ã¶rtÃ©n
Ġlist en
ĠkeresztÃ©ny sÃ©g
is che
ĠP att
ĠV isz
ass Ã¡k
Ġass embly
Ġbr ill
ĠCon stantin
g Ã¡t
Ġs incs
Ġnem essÃ©g
ked v
air Ã³l
Ġsug ar
Ġlesz er
Ġkult usz
Ġdoub t
ĠszÃŃnp adi
Ġh app
ez uel
se ud
Ġten isz
ĠWork s
Ġek Ã¶zben
ĠMadag ascar
c ÃŃm
i Ã¡lt
ĠM am
Ġre kon
oy age
Ġs q
ult y
Ã©m a
Ġpubl ish
Ġ178 7
ĠCommun ity
Ġhadif og
Ã¶ se
Ġkon f
Ġreal ized
Ġmozdony ok
ĠVl ad
b ek
ĠmÃ©r fÃ¶ld
Ġelismer te
ĠÃ¡llandÃ³ an
ĠkÃ¶ztÃ¡rsasÃ¡g i
ĠStock holm
ĠelÅĳ dÃ¶ntÅĳ
Ġdr ink
Ġkol ost
ĠfÅĳvÃ¡ros a
Ġtet ej
is Ã¡g
Ġlegislat ure
ĠI rodalmi
ĠvÃ©g telen
Ġk val
Ġp iszt
nak e
ĠEd mund
ĠtalÃ¡lhatÃ³ ak
ĠFurther more
g Ã³
Ġan th
ĠP it
ĠMay a
che ni
Ġrad ical
Ġplan ets
f ogy
ĠT ype
Ġ18 14
ĠSz iget
Ġg ray
ens ively
orm s
Ġsw itch
Ġbek apcsol
Ġra ising
ĠJer uzsÃ¡l
ĠtudÃ³s ok
ĠOrigin al
Ã¡j Ã¡hoz
app Ã¡
Ġdress ed
Ġshar p
ĠStev ens
K ar
sz Ã©l
ĠAll ies
Ġmegkezd te
ĠN atural
op ol
Ġmet er
ling ton
read n
Ġobject ive
ĠK ane
uk kal
Ġover t
Ġgr Ã¡n
ĠvÃ¡r atlanul
ven es
ĠszemÃ©ly Ã©ben
elked ett
Ġ182 5
Ġkoncert et
Ġbehavi our
rat ropical
Ġtizen Ã¶t
col m
ĠHamar osan
ich i
jel Ã¶l
Ġfolyam atok
ĠkÃ¶nyv Ã©ben
ĠgÃ©p et
Ġav agy
ĠtÃ¡mad Ã¡sok
ĠtÃ¶rzs ek
ĠmÅ±ve it
Ġovers eas
Ġgradu ated
ĠHein rich
ot er
Ġle Ã¡ll
Ġbec en
ĠClark e
ĠHug o
Ġevacu ated
kÃ¶ tet
ĠÃŃr Ã³i
ĠXV I
d ing
Ġt egy
im o
ĠL ink
ĠZ ene
ĠrÃ©szlet es
k ong
ĠG ir
ber ger
ell eg
Ġext ract
ĠFl eming
Ġph r
esk Ã¼v
Ġsecret ary
Ġdang er
ĠN Ã¡poly
Ġdef ences
ĠkÃ¶nny ebb
Ġaer ial
Ġl ad
Ã¡l Ã³k
ĠT av
id en
Å± vÃ©sz
ĠszÃ©k esegyhÃ¡z
Ġegyen l
Ġindic ating
Ġwealth y
Ġmoszk vai
Ġb Ã©l
ĠN CA
Ġer ected
Ġmegl Ã©vÅĳ
ĠM olnÃ¡r
Ġj Ã³s
elÅĳ re
Ġenter tain
Ġlegfi atalabb
E d
Ġpro ve
Ġpr Ã©d
Ġnyelv ben
ĠnÃ¶v end
ĠHer ald
ĠosztÃ¡ly ban
gazd ag
f Ã¼l
u bb
Ã¶z pont
Ġkap ac
Ġterm Ã©szett
Ġorgan isation
ĠU tah
Ġqu ad
Ġbev et
200 2
Ġexact ly
Ġk es
Ġmeg ism
Ġcompl aint
ĠÃºt jÃ¡t
Ġelvesz ett
ĠnÅĳst Ã©nyek
Ġm am
Ã¡j Ã¡bÃ³l
land i
ann es
Ġelfog lalt
ĠGreat est
Ġbizton sÃ¡gos
ĠmaradvÃ¡ny ai
Ġacknowled ged
ĠZ rÃŃ
ĠkÃ©p ezte
Ġhigh ways
ĠlÃ©p csÅĳ
Ġorgan ised
Ġfinan szÃŃ
Ġk eny
Ã©s ekkel
ĠS ik
ĠL ook
Ġper mitted
ĠMed ical
ĠtÃ©ny ezÅĳ
Ġagg ressive
ĠmegsÃ©r Ã¼lt
v eszt
Ġm Ã©d
Ġh idden
Ġp assz
sz a
ut or
ra wn
ĠÃ¡t hal
Ġmegsz Ã³l
z avar
ĠEl li
ĠNapole on
G e
ud var
eb el
ĠtÃ¡m ogatott
ĠÃ©pÃ¼let ben
ĠtÃ¡mogat ja
Ġstation ed
Ġconcent ration
Ġrek tor
ĠValÃ³szÃŃnÅ± leg
b ej
Ġs itting
ĠP ent
Ã¡j ukat
ĠvÃ¡l sÃ¡g
Ġfew er
Ġsel ect
ĠÄ Ĳ
h ÃŃd
Ġp ages
ĠH Ã¡t
ĠhasznÃ¡l atÃ¡t
ĠszÃ¡n tÃ³
fesztivÃ¡l on
ad ier
ĠP omp
Ġbe Ã¡ll
ĠszÃ¡m Ã¡ban
Ġen cl
Ġugyan Ãºgy
Ġorigin ated
ĠhÃ¡rm as
od ge
ĠY ears
Ġhaj nal
Ġext ratropical
ĠEgyetem i
Ġfun ny
ĠOsz mÃ¡n
t ol
Ġt enyÃ©szt
Ġm amm
vÃ©d elem
Ġexpress ion
ĠvÃ©g eztÃ©k
ĠegyÃ¼tt est
ĠCs endes
Ġconn ect
Ġven ue
r m
Ã¡r gy
ens us
Ġvezet i
ĠkÃ©z zel
Ġh Ã©ber
it ively
ĠF ull
ĠG Ã¶r
egy sÃ©g
Ġtan ÃŃtÃ¡s
Ġtiszt el
ĠMos c
Ġchap el
ĠElect ric
p it
Ġr av
Ġdec isions
hely zet
Ġdef ending
Ġmon ogrÃ¡fi
Ġhel ik
b ow
Ã °
Ġszak on
Ġpubl ishing
Ġrendszer vÃ¡ltÃ¡s
Ġsziget Ã©n
Ġlemez en
ĠÃ©lÅĳ hely
Ġapproach ing
vis ions
Ġsol ar
ĠMoz art
ĠbÃºcs Ãº
KÃ¶z Ã©p
ESC O
Ġt ant
ĠM V
ĠSz ar
Ġprof ile
ĠelvÃ©g zÃ©se
Ġiniti ated
ia z
ĠSz ap
Ã¼z em
ĠRes erve
ĠÃ©rint ett
ĠpÃ¡rhuz amos
Ġpublik Ã¡lt
Ġtheat rical
Ġd rog
sz Ã¡r
ĠR oland
ĠBr id
ĠPr iv
ĠD aw
Ġmag ic
ock et
seb essÃ©g
Ġf urn
ĠF ul
Ġwalk ing
Ġv id
Ġel enged
Ġst arring
Ã¡j Ã¡rÃ³l
Ġszeml Ã©let
S ome
ĠT rophy
Ġg ene
ĠF isher
th atÃ³
ĠU g
ĠkÃ©p ek
Ġkelet kezik
Åĳ nek
ĠvÃ¡ltoz Ã¡sok
Ġpropag anda
ĠK atonai
Ġnev ezi
ĠrÃ©sz ecsk
Ġcons pir
Ġtekint etÃ©ben
ĠtÃ¶rvÃ©ny ek
vir Ã¡g
Ġtravel s
ĠPri ze
ĠAthlet ic
Ġc uk
ÃŃv es
Ġestabl ishing
isc ons
Ġraid s
ĠÃ¡llÃ¡s pont
gom ery
Ġt on
ĠK orn
ĠÃ¶sszek Ã¶tt
Ġb ones
ĠSt adion
Ġchar ter
fel Ã¼let
Ġcap s
Ġcut ting
Ġconn ecting
ĠkiegÃ©sz ÃŃtÅĳ
ĠKanad Ã¡ban
at om
Ġmegsz Ã¼letett
Ġconsid ering
Ġgather ed
ĠkÃŃ gy
h ous
Ġb in
ĠM other
Ġsh orter
ĠmennyisÃ©g ben
s ort
ad Ã¡r
ĠF elt
Ġceleb rated
Ġfeldolg ozÃ¡s
uzz le
it udes
all al
Ġpr el
Ġpr Ã³z
ĠfÅĳ re
ĠCl aire
Ġv Ã¡m
ĠW oman
Ġpl acing
Ġbl og
ĠPr inci
Ã¡gy i
Ġput ting
ĠChron icle
ĠQueens land
z ig
or o
ny isÃ©g
ĠhÃ©t kÃ¶z
Ġorosz ok
Ġins ects
ĠDef ence
Ġs ous
Ġc os
ĠJ e
Ġlesz Ã¡m
Ġstrong est
Ġremov al
Ġdon ated
Amer ika
ol Ã¡sÃ¡ra
Ġl ying
ĠCh ampions
Ġform Ã¡tum
ĠEs ter
Ġdefin ition
Ġappropri ate
Ãº ciÃ³
ĠAl kot
ĠmÅ±vÃ©sz ek
Ġwaters hed
ad Ã¡sok
ĠB ase
av ery
ĠLu ft
ĠfiÃº k
Ġstrateg ic
Ġcolle agues
al ia
ÃŃr Ã³ja
Ġtel t
T Ã¶bb
Ġf as
Ġjel Ã¶lte
per i
Ġfi ai
Ġ27 0
Ġtisztelet beli
ĠSzat mÃ¡r
Ġtub es
et eged
Ġbe am
ĠtÃ¶bb fÃ©le
ĠjÃ³vÃ¡ hagy
Ġimprov ements
ĠK ommun
Ġur a
hy l
ĠCon struction
Ġerd ei
Ġvonal at
ĠEzen kÃŃvÃ¼l
Ġconvers ion
Ġst im
th at
ĠPr uss
Ġsold ier
Ġkik iÃ¡lt
200 1
ĠClass ic
i rod
Ã¡r y
Ġlet Ã¶lt
Ġmagaz ines
Ġdu o
Ġrebell ion
c er
ĠD ublin
Ġem pire
Ġbatt lecru
Ġhost s
ĠPortug ues
Ġb ell
Ġl Ã¡z
Ġmusic ian
Ġqual ified
ĠLu is
Ã¶ny vet
b orn
Ġb rick
ĠK ot
ĠR onald
Ġbe hat
ĠkÃ©p z
Ġtelep esek
Ġzen Ã©jÃ©t
Ġspecim en
ay an
sÅĳ bb
Ġkap nak
Ġdes ert
ene ath
ĠChar l
Ġyoun gest
Ġon going
ĠkÃ¶zÃ¶tt Ã¼k
Ġexpl an
Ġcult iv
Ġclos est
ĠkÃ¡ ptalan
Ġkos Ã¡r
k Ã©s
z an
Ġdec ide
Ġcre ek
ĠvÃ©l etlenÃ¼l
ĠOb s
Ġasp ect
pÃ¡rt i
Ġcollaps ed
k m
Ġaz oknak
am and
Ã¶s sÃ©g
Ġleg erÅĳsebb
enz o
Ġrev ol
Ġli quid
Ġl ob
Ġr itu
av or
Ã¼lÃ©s Ã©t
ĠÃ³ rÃ¡s
Ġkil Ã©p
ĠÃ©rtÃ©k Å±
ĠhÃŃ ve
Ġ183 4
Ġhi ba
ĠfÅĳvÃ¡ros i
Ġad atokat
Ġtud unk
ose x
ĠÃ©szak on
Ġdeb t
Ġabszol Ãºt
ÃŃt Åĳk
ĠW ant
ĠY ellow
oy d
Ġfound ing
Ġannoun cement
Ġa qu
he ars
Ġtro uble
Ġexec ution
Ãīv szÃ¡zadok
m utat
Ġb Ã¡nt
Ġkez Ã©be
Ġrequ ires
ĠkÃ¡rt y
on os
Ã¼ s
ad nak
Ġal gor
Ġdist urban
Ġdu bbed
Ġgondol at
K ore
r ations
u ve
Ġb Ã¡ty
ik ailag
Ġchall enged
Ġsuppl ied
Ġc ad
Ġ183 3
Ġbon us
6 7
Ġp uszta
Ã¡s Ã¡nÃ¡l
ĠelÅĳ ÃŃr
Ġguar ante
l ass
u ary
z Ã¶ld
Ġs ole
ĠF lying
Ġhaz atÃ©rt
Ġcann on
ĠjÃ³t Ã©kony
T K
f e
Ġk aszt
ĠR acing
Ġ17 00
ĠAdmin istration
ĠK id
ah l
ĠBrit ney
ĠFi atal
ĠbÃºcs Ãºzott
ĠP all
ev i
ĠR ace
az e
Ġnem esek
Ġse ized
Ġres ol
Ġtulajdon Ã¡ban
dÃŃj ra
ĠdÃ¶ntÅĳ be
Ġtehet sÃ©ges
Ġtol er
Ġelutas ÃŃtotta
Ġcom ed
ĠCon vention
Ġmer ely
ĠVel encei
Ã¡ld em
ĠK ij
ĠG and
Ġcl im
ubl ed
ĠtÃ¡mogat Ã¡st
Ġto pped
Ġbar b
Ġland scape
ĠRet urn
Ġdic sÅĳ
Ġform Ã¡jÃ¡t
ĠkÃ¶tel Ã©k
Ġdiscuss ion
ĠEvent ually
ĠAugust us
ĠbarÃ¡t sÃ¡gos
Ġcor ps
Ġjur isd
Ġleg elÅĳ
Ġz arÃ¡ndok
Ġmark ets
ĠPlay ers
Ġfranci Ã¡ul
Ġko alÃŃciÃ³
as an
ĠU C
rend i
el sÅĳ
Ġc ock
ond e
ork Ã¡ny
Ġleggyak oribb
ro us
ĠThe ater
ĠcsalÃ¡d jÃ¡val
Ã¶m ege
Ġnyug aton
mill iÃ³
ely em
Ġpart vidÃ©k
ĠezÃ¼st Ã©rmes
i rodalom
p rof
el ia
as se
ĠG ond
Ã¼lÃ©s i
Ġmar ry
Ġugyan azon
ĠkÃ¼lÃ¶nb Ã¶zt
ĠCent ury
ĠnÃ©z Åĳk
t iszt
ĠF ore
Ġobserv ations
mÃ©rkÅĳz Ã©st
Ġexperiment al
ĠbÃ©keszerzÅĳdÃ©s ig
or ous
em a
ĠtÃ¶rtÃ©net et
Ġnyert ek
Ġemelked ik
Ġelmond ta
Ġstep s
ĠA L
ĠL ag
ep l
Ġcl in
Ġsub d
ĠkÃ©r i
ĠkÃ¶zep Ã©tÅĳl
Ġt rough
Ġp ig
eg raph
ĠS ign
ev a
ĠkÃ¶z li
Ġfoly os
Ġmill imÃ©ter
Ġjog Ã¡t
Ġvide Ã³
Ġav attÃ¡k
rob ban
ĠN A
Ġex ha
Ġsp ac
Ġatt ending
Ġelkezd ett
ĠKap os
ĠfestÅĳ mÅ±vÃ©sz
f ried
Ã©l es
ĠkirÃ¡ly ok
Ġident ify
Ġber uhÃ¡z
iff s
ĠPan zer
ĠNCA A
Ñ Į
Ġm eny
Ġb enc
ik Ã¡val
ĠkÃ©p essÃ©ge
Ġbev all
jog i
Ġconcent rated
ĠÃ¶nkormÃ¡nyz ati
ĠO ber
Ġvis its
eb ook
ĠkÃ¼lÃ¶n Ã¡llÃ³
ĠMal colm
ĠtÅ±z vÃ©sz
at emplom
ĠJ a
tat Ã³
ĠfÃ©l t
Ġelnev ezett
Ġtalk ing
ĠBrook s
Ġan Ã©lkÃ¼l
Ġfor th
ĠR uth
ĠG arc
cs elek
Ġflood ed
ĠFed er
ĠnyugdÃŃj ba
c in
ol Ã¡si
Ġn erv
Ġ10 8
ĠDav ies
ĠtanulmÃ¡ny ai
ĠtÃ¶bbi ek
Ġrang es
ĠBrad man
Ġdens ity
Ġmunicip al
ĠV erm
Ġellen Åĳri
Ġvol umes
Ġmel ly
Ġcirc le
Ġkup a
ĠCard iff
r er
ĠG am
ĠEd ition
anyag ok
Ġkomoly abb
Ġeszt end
EurÃ³p Ã¡ban
Ġszen ny
ĠkÃ¼zd elem
ĠzsÅ± ri
ĠSt ill
ĠfilozÃ³f us
ĠtÃ¡jÃ©k oztat
ĠPortugues e
n Ã©k
Ġb ossz
ĠrÃ©sz leg
urg i
Ġprov ision
Ġcsoport ot
ĠprÃ³b Ã¡lja
Ġbeteg sÃ©gek
ĠproblÃ©m Ã¡t
ĠhatÃ¡roz za
Ġtick et
um ph
Ġexp osure
Ġmegf oszt
oldal Ãº
Ġiv ar
L a
h ill
ri ors
Ġbas in
ĠBar lang
Ã© hoz
Ġn avy
ĠB Ã¶lcs
ĠH ull
ĠkÃ©p ezi
fal vi
ĠgÃ¶rÃ¶g katolikus
ĠÃģllamok ba
Ã© zÅĳ
Ã©r c
st e
Ã¡ly os
Ġiz om
Ġrefl ect
Ġconvent ional
ĠlakÃ³t elep
m ath
fi gy
Ġemphas is
ĠszimbÃ³l um
ĠZrÃŃ nyi
9 5
Z Ã©land
r ors
Ġb ond
il ia
ĠS au
Ġpart ial
Ġmon aster
ĠAf g
ĠmegelÅĳzÅĳ en
Ã©l te
ĠJ ake
Ġbe aring
Ġszer ezni
ĠkÃ¶rnyÃ©k en
Ġnyilatkoz ott
ĠBajnok ok
ert Ã©k
ĠhÃ©t vÃ©g
ĠelÃ©r i
h ur
kÃ©p zÃ©s
olog ies
dÃŃj jal
ĠMont gomery
Ġsziget et
Ġinvestig ate
Ġarrang ements
ĠF u
Ã©l lyel
ĠMar ge
Ġtud Ã¡s
ier ra
ĠszÃ¼let Ã©sÅ±
Ġob sc
Ġconst it
Ġfort ress
Ġdog s
ÃŃ lt
ing e
ĠK oz
ĠCh an
vÃ¡r adi
Ġmutat jÃ¡k
Ġbor ÃŃtÃ³
Ġlim its
ĠfilozÃ³f ia
ĠArgent ÃŃn
Ġor igins
Ġvissza foglal
Ġc eased
ĠC Ã©l
ei hez
Ġsor ban
Ġs ending
Ġaz elÅĳtt
Ġcs ekÃ©ly
ov ina
ezt etÅĳ
Ġfi akÃ©nt
Ġco ff
Ġqu een
Ġed ited
Ġweek ly
Ġfeed ing
Ġ ËĪ
ĠK elemen
Ġnem zedÃ©k
szer ek
ĠvÃŃz szintes
iskol Ã¡ban
Ġann ually
Ġfell end
Ġcampaign s
Ġly uk
ĠDemocrat s
k astÃ©ly
ĠD alm
kez Ã©s
lÃ³ r
ĠhatÃ¡r Ã¡n
Ġpromot ional
ĠFilm mÅ±vÃ©szeti
6 2
ĠC row
ĠhÃ¡zas sÃ¡ga
Ġlegut Ã³bb
r ating
ap y
Ġpl ain
Ġper sze
ank s
Ġbirtok Ã¡ban
Ġakit Åĳl
ĠkÃ¶tÃ¶tt ek
ĠChurch ill
ĠSuper man
war f
Ġit al
ĠAl g
Ġfog jÃ¡k
Ġwithdraw al
r ont
ĠL P
li ai
Ġfog nak
Ġmembers hip
Ġeduc ational
tÃ¶rtÃ©n et
bizt os
ĠNyit ra
Ġunderw ent
h ot
i Ã¡ra
Ġp ecsÃ©t
ĠC ry
Ġch ampions
oc racy
Ġatt itude
Ġass embled
med enc
Ã¶d Ã¶tt
aff e
szÃ¶g Å±
ĠTelev ÃŃziÃ³
Ġh itting
ĠÃ¡ltal uk
essÃ©g Ã©ben
Ġnyelv jÃ¡r
Ġforg Ã³
Ġbot rÃ¡ny
Ġexerc ise
I N
M eg
Ġk Ã©n
Ġp enet
Ġout put
ĠvilÃ¡g ra
ĠvÃ¡ros nak
Ġmet sz
Ġscatter ed
am en
ĠB ast
ĠB ajor
Ã©sz e
Ġcs ip
Ġoff ense
ĠrendezÅĳ je
Ġnar ancs
r ade
Ġd ek
ĠT ake
th a
ĠfÃ©l ig
ecs ke
ĠnÃ¶vÃ©ny i
Ġanny it
ĠTÃ¶rÃ¶k orszÃ¡g
Ġs Ã¼r
Ã¶ ri
ont Ã¡k
Ġhad itengerÃ©szet
ĠkÃ©p telen
Ġreg ime
Ġfelv ettÃ©k
Ġfed ett
Ġkisz or
Ġunc lear
ĠCrit ics
M us
it Ã³l
ĠS ajÃ¡t
ok ol
ĠP ast
het Åĳleg
ĠnÅĳ vÃ©r
ĠGi bb
Ġunc le
ĠDebrecen ben
ĠJelent Åĳs
Ġhon foglal
Ġportray al
ĠBizottsÃ¡g Ã¡nak
ĠfeszÃ¼lt sÃ©g
Ġhe ter
aj tÃ³
ess en
ĠGu adal
ĠtÃ¶rtÃ©nt ek
Ġbirth day
ĠelvÃ©g ezte
ĠSpir it
ĠS ic
ĠC le
be at
Ġned ves
iox id
ĠG Ã©p
Ġszer te
Ġend ors
Ġmat ure
ĠÃ¼z enet
Ġkifej ezÃ©st
ĠmunkÃ¡s sÃ¡ga
n Ã©z
Ġhad nagy
Ġexpl icit
ĠMegy ei
S E
Ã¶r zs
Ġfi Ãºt
Ġpar ody
ĠvÃ¡sÃ¡r olta
ĠHeart s
ĠLeg end
Ġmegb eteged
ĠMÃ¡s nap
Ġquest ioned
ĠkÃ¶vetelm Ã©ny
Ġn ep
ac les
Ã©t eli
ĠG az
Ġsp ont
Ġfoglalkoz ni
ĠHon or
ĠSav oy
ĠIskol a
Ġs tere
Ġh Ã¡lÃ³
ro e
ĠP ay
ĠP olgÃ¡ri
aszt otta
Ġhegy ek
ĠÃļj pest
ĠD ennis
Ġne u
ĠBr ight
Ġinv ent
Ġkelet en
ikk ely
Ġpri ze
ĠÃ¡g az
ĠUN ESCO
Ġsurrend ered
as hes
Ġant ik
Ġet n
ĠDebrec eni
Ġsoft ware
Ġcous in
od i
ĠszÃ¼lÅĳ vÃ¡rosÃ¡ban
ĠPak istan
igen ous
Ġvmegy Ã©ben
p ower
er cs
ĠL Ã©t
Ã©l Ã©k
Ġcomp rom
ĠBuk arest
Ġ >
Ġb acter
as al
ĠvilÃ¡g hÃŃr
ĠEr ik
ĠÃļ t
ĠdÃŃsz ÃŃtett
u ez
Ġl eny
Ã¡r end
Ãº lÃ³
ĠP eng
vezet Ã©s
ĠJÃº lius
ĠBatthy Ã¡ny
ĠP ra
ĠW iscons
Ġhyp othes
ĠSax on
D E
M ont
ĠT NA
ĠC A
Ġprogram ot
amb ers
ĠV o
Ġnev ez
Ġlov ed
ĠLock e
iforni ai
he v
Ġbe ats
ant y
Ġem eltek
ĠLe eds
ĠjÃ¡tsz anak
igazgat Ã³ja
Ġtur izmus
ĠszÃ¼l ettek
ĠÃ©pÃŃtÃ©s i
ĠFin land
ĠBrook lyn
un i
iz Ã¡lta
Ġle f
Ġter rain
ĠKÃ¼lÃ¶n Ã¶sen
ĠBour bon
Ġreinfor cements
ut ton
Ã©n a
ĠN ig
Ġhat Ã¡rt
Ġrepl ied
ĠDes ign
Ġrepresent atives
Ġdoll Ã¡ros
Ġbefej ezÃ©se
Åĳl t
ĠAd rian
Ã©sek en
Ġang le
Ġdev ast
Ġtizen egy
Ġemploy ment
Ġoverw hel
k ÃŃsÃ©r
il er
ĠO g
ĠPat ri
ĠOut standing
Ġkarrier jÃ©t
z Ã¡
ric ts
Ġstrong er
ibr alt
ĠFall s
Ġprovin cial
ĠCyr us
g ent
ony os
Ġellen Ã©ben
jÃ¡n Ã¡l
Ġsl ave
mÃ©rnÃ¶k i
ĠCsÃ¡sz Ã¡r
ĠIn form
ĠLeg jobb
ĠÅĲ r
ĠhelyszÃŃn en
ĠDire ct
Ġinterpret ation
Ġprocl aim
ĠS n
Ġki jelÃ¶lt
Ġalap on
ĠÃŃr Ã¡sai
Ġcsapat Ã¡t
ĠtÃ©r sÃ©gben
ĠÃļj sÃ¡g
ĠAtlant i
ĠP ick
Ġszem mel
Ġarr ives
Ġdestroy ing
hi Ã¡ny
ĠBÃ©cs be
c ano
j Ã©hez
ĠP iet
Ġ18 10
Ġdolg ok
rez ent
ĠAusztri Ã¡ban
Ġthir teen
ĠN D
Ġac o
szeg i
Ġhyd rogen
Ġimag ery
ec ution
ĠK Ã³r
ĠR obb
Ġst reak
Ġforr Ã³
ĠDel ta
Ġproduct ions
Ġpiac ra
vÃ©g ig
Ġpict ures
Ġel it
ĠÃ©l mÃ©ny
Åĳs Ã¼lt
ĠArgent ina
Ġdur ation
Ġcsod Ã¡l
N Ã©met
w here
Ã¡ ival
Ġal p
ĠF if
kez Ã©si
Ġkap us
Ġdr inking
Ġgu ide
ĠpÃ©ldÃ¡ny t
ĠVictor ian
ĠmegvÃ¡laszt ottÃ¡k
ĠfelÃ¼gy elÅĳ
Ġj ury
Ġegyen esen
Ġaccompany ing
A ll
B M
Ã¶ sz
Ġp ush
Ġm Ã©dia
ĠtÃ¡rs ul
ĠvilÃ¡ghÃ¡borÃº t
ĠerkÃ¶lcs i
Ġhany at
d omb
Ġt ÅĳlÃ¼k
Ġan gyal
ĠF un
ce Ã¡ni
Ġprod uk
ĠBl o
ĠCs alÃ¡d
Ġelm egy
Ġ180 5
Ġszakasz a
ĠCr us
G M
it Ã¡sÃ¡t
ov al
ÃŃtÃ¡s Ãº
ĠGeor ges
Ġtekint Ã©ly
Ġadvert ising
v re
ĠK utat
Ġtan Ã©v
Ġvezet Ã©sÃ©t
ĠszabÃ¡ly ok
Ġphotograph s
Ġle x
Ġcl ock
Ġmegt iszt
18 0
Ġ Ã¼lÅĳ
Ġw ish
ĠN in
Ġter hes
ĠkÃ¶r t
Ġpublic ations
Ġuralkod Ã³ja
ĠMcL aren
Ġexclus ive
z atot
Ġin ger
Ġth erm
Ġg h
ÃŃt sÃ©k
ev ard
Ġmov ies
Ġ182 4
ĠzÃ¡r Ã³
ĠnagydÃŃj on
t es
Ġco at
Ġv ok
Ġl omb
Ã¡l Ã³dott
ell ation
te au
Ã³d Ã¡sa
Ġdis band
Ġakk umul
l Ã¶v
Ġre verse
st adt
ens ed
ker Ã¼let
almas abb
Ġpillan at
Ġprecip itation
Ġcon vert
Ġvezet Ã©st
Ġisten i
Ġb one
ĠN ep
ĠW onder
Ã¡z za
up a
Ġnagy szabÃ¡sÃº
Ġun iverz
ĠkÃ¶rÃ¼l mÃ©ny
ĠmÅ±kÃ¶d tet
Ġoldal Ã¡ra
ĠlÃ¡tsz Ã³lag
m ez
Ġb ishop
Ġis ot
eszt ettÃ©k
au z
ĠBar nes
ĠGu itar
ĠMagyarorszÃ¡g i
Ġlaw yer
ĠDÃ¡ni el
H C
Ġs qu
Ġda ughters
ĠhagyomÃ¡ny osan
ĠLiber al
ag ger
pl ace
Ġbo ilers
Ġhang ot
ĠGu inea
ĠrÃ¶vid en
Ġfail ing
Ġintern etes
ĠFrank furt
ĠtermÃ©k ek
ĠZempl Ã©n
Ġwas te
Ġun less
ĠTh an
ater m
eni us
Ġback ing
Ġdevelop ers
ĠvÃ©r es
Ġelectric ity
Ġind ÃŃtotta
ĠFel esÃ©ge
Ġn aut
ĠT int
ag ot
ĠK utatÃ³
Ġpr ices
ĠPr inc
ĠMcC l
ĠkezdÅĳd tek
i Ã¡hoz
Ġo w
Ġn ic
ul in
ĠN ext
ĠHal f
Ġsp or
Ġexp ert
ĠsegÃŃt i
ĠAfg han
Ġre ward
omm e
Ġhal adÃ³
Ġtest ed
ĠIs mer
ĠkÃ©r Ã©sÃ©re
Ġ182 1
Ġrak Ã©ta
Ġbranc hes
it Åĳl
ere b
ĠV enet
Ġnagy hat
Ġpubl isher
Ġmenek Ã¼ltek
Ġev alu
ĠpÃ¡ly audvar
Ġtrad ing
Ġfok ozott
Ġcompet ing
Ġere je
et n
om on
Ġre cip
Ġpart ra
ĠSh ak
Ġinters ects
ĠHolland ia
Ġexclus ively
Ġa var
ak Ã©p
Ã¡s rÃ³l
ĠIn s
ĠNap ja
Ġident ical
Ġelej Ã©tÅĳl
Ġindic ates
Ġmultipl ayer
p Ã¡n
as ok
Ġpro ceeded
Ġhat almi
ĠirÃ¡ny ulÃ³
Ġint enzÃŃv
ĠTh ose
ĠkÃ¶vet ve
Ġpolit ika
ĠDe Ã¡k
Ġred ucing
D r
ĠV Ã¡l
Ġhely sÃ©g
ĠElsÅĳ sorban
Ġkey board
an ne
ra ham
Ġfej t
Ġsim a
Ġhitel es
Åĳ zÅĳd
Ã¡l Ã¡sÃ¡ra
ĠW itt
ub ile
Ġuralkod Ã³i
Ġten ure
ĠQu est
Ġfejleszt Ã©s
ĠelÅĳd je
B O
S everal
Ġb ath
ĠH ed
Ġst ops
unk t
Ġfilm rendezÅĳ
Ġvi gy
199 8
Ġvar ied
ĠfÅĳszerkeszt Åĳje
H A
Ġad atai
isz k
ĠirÃ¡ny ÃŃtÃ³
Ġtrad ed
ĠCh uck
Ġred es
Ġgond ozÃ¡sÃ¡ban
Ġpap ers
ĠmegtÃ¡m adta
ad ers
us on
Ġhand led
ĠCommun ist
Ð¸Ñ ĩ
Ġhelik opter
th on
ov i
Ġbirtok ot
ĠAg ency
ĠfennhatÃ³ sÃ¡ga
h ÃŃv
ÃŃt enek
ĠÃ¡t ÃŃr
Ġvir us
Ġhy br
Ġelkezd te
Ġnapon ta
ĠBurn s
p ike
p ected
ĠC olt
Ġal faj
Ġrec all
Ġcomp ounds
Ġvissz aj
ĠBar Ã¡t
Ġnomin ations
ĠhangsÃºly t
Ġadvis ed
b re
Ġex ternal
Ã³k ban
ĠÃī t
Ġtekint ettel
ĠkÃ©tszer es
ĠGlas gow
Ġr Ã¡v
Ã¶k kel
ĠSh a
vezet Ã©k
szÃ¡m ot
ĠSw iss
194 5
Ġconsist ent
ĠF ant
ĠV iv
ass ador
Ġnev elÃ©s
bÃ¡ny ai
Ġswim ming
Ġb anned
it ious
l Ã¡sÃ¡t
ak h
Ã¶v es
Ġcomp onent
ezÃ©s Ã©nek
ĠfÃ¶ld re
ĠHer itage
ĠKenn eth
Ġkegy etlen
ĠR us
ug or
ĠprÃ³b Ã¡lt
ĠgyÃ¶k er
ĠÃ¡llom Ã¡sa
ĠK ill
ĠCh ampion
ĠfÅĳ bb
Ġpat ri
anyag ot
urric anes
Ġcomment ary
Ġterjed Åĳ
Ġartific ial
ĠWiscons in
Ġh orm
ĠE ve
ĠR oth
ne x
Ġmegk Ã©rd
ĠkÃ¶tel ezett
ĠTw itter
erd Åĳk
ĠD ays
um ont
Ġst eep
ĠÃ¡t dolg
ĠÃ³ rÃ¡n
ĠAleksz and
ĠPars ons
Ap ja
M any
Ġp orn
ĠK re
ĠR T
Ġfour teen
Ãī des
Ġdob os
ĠF at
Ġun rel
Ġmar ch
ĠCl ar
ĠFl oyd
cl iff
Ġfoss il
ĠMosc ow
ĠC inc
ĠtÃ¶rtÃ©n elm
ĠkÃ¶v ettÃ©k
Ġplatform s
ĠelnevezÃ©s Å±
Ġzsin at
Ġk Ã¼sz
ci Ã³kat
Ã©re z
Ġsl avery
app a
Ġburn ed
ĠT ogether
ong e
Ġwe igh
Ġfl owers
Ġforr Ã¡sa
press ed
ĠdÃŃ ja
ĠÃ¶sszet Ã©tel
Ġtalk s
R S
Ġmeg dÃ¶nt
Ġcon ceived
eny Åĳ
Ġreg g
Ġsem leges
ĠSe e
Ġimpro vement
ĠÃ©rtelm isÃ©g
ĠChristian ity
ĠÃ¡tmÃ©r Åĳje
Ġgovernment s
ĠkÃ©z il
leked Ã©si
ĠerÅĳszak os
m art
Ġn Ã¡l
Ġg arn
Ġair field
ĠRe ed
Ġreview ed
osp el
ĠMet ac
Ã³c z
Ġmechan ical
f alak
Ġ1 19
ag h
szer int
Ġkil encedik
Ġgl ac
ĠszÃ³t Ã¡r
v or
Ġs kelet
Ġk Ã¡l
Ã¡l og
ĠE ld
Ġnap lÃ³
ĠGl ob
ĠQue bec
Ġnagyb Ã¡tyja
Ġp m
ib ilities
Ġhoz za
Ġcertain ly
ĠCorn wall
szÃŃ nek
L eg
k Ã¡k
it ely
if ies
ver te
Ã³k ai
Ġse ed
Ġsix teen
Ġconsid ers
ĠmÃ©ter re
ad almat
ĠM ut
Ġmeg tekint
og ne
Ġcent ers
Ġpra ising
Ġtransl ation
Ġshar es
Ġgross ing
Ġt ube
Ġel ig
ĠÃ¶rÃ¶k Ã¶lte
rosz k
ĠvÃ¡sÃ¡r olt
Ġs oph
Ġf asc
un ning
ĠÃ¶ssze eskÃ¼v
ĠCom edy
Ġcle ared
ĠIsa ac
Ġb apt
Ġn ut
ic ing
ĠC hester
id ia
ĠO S
Ġford ulat
ĠKan ada
Ġarchitect ural
ĠWat son
j ou
tt Ã¡
Ġpr Ã³f
Ġgond olta
Ġfek Ã¼dt
ÃŃni um
g ard
et heless
iÃ³ n
itar ian
Ġprofess ion
Ġhallgat Ã³
Ġtorn Ã¡n
ĠC ricket
Ġcomp onents
Ġfl ows
Ġman if
Ġmegt Ã¶rt
acs ka
Ġelect rical
Ġmeggy ilkol
ĠCy cl
ĠLud wig
ĠTÃ¡rs ulat
ĠPok Ã©mon
Ġradik Ã¡lis
en za
Ġto ured
ĠB apt
Ġkezd ete
Ġ11 2
Ġatom ic
ĠWat ers
ĠS onic
Ġre organ
ĠK Ã¶n
od ed
Ġter hel
Ġem br
ĠszÃ¡zad ra
ĠmÃ³d szere
Ġtak t
Ġmatemat ikus
ĠtestvÃ©re k
Ġcsom Ã³pont
ĠautÃ³pÃ¡ly a
ig on
Ġle felÃ©
Ġcomm enced
ĠirÃ¡ny ÃŃtott
Ġdal ai
ĠlÃ¶v edÃ©k
ĠMov ie
Ġorg on
ĠGabri el
ĠJT WC
hetÅĳ ek
Ġsus tain
Ġrap per
ĠjÃ¡tÃ©kvezetÅĳ nek
Ġst uff
Ġdec ay
ĠkÃ¶zleked Ã©s
Ġszeg Ã©ly
ĠM Ã³
ĠG ibralt
st ance
ĠvÃ©l te
Ġcop per
ĠBu enos
ĠBelg ian
Ġnaut ical
c ase
Ġa ft
Ġbe bizony
ĠUn d
ĠBl anc
ĠkÃ¶vetkez Åĳk
R e
Ġm old
Ġc ant
ĠB il
Ġszerkeszt ett
ĠtÃ¡rgyal Ã¡sok
Ġunderst ood
r ukt
Î »
Ġam ateur
cs e
ist ent
Ġbl ind
Ġoldal rÃ³l
Ï Ħ
Ġgener Ã¡ciÃ³
Ã¤ n
gyÅ±jt Åĳ
ĠBuff alo
ĠelÃ©ged etlen
ĠF ighter
ĠW atch
Ġsp aces
ĠShe p
Ġdem o
Ġszob rok
Ġbur ial
ĠSymph ony
v ill
ĠF o
hen t
Ġbet Ã©t
Ġlak Ã¡s
Ġdestroy er
atty Ãº
ĠgyÃ¶nyÃ¶r Å±
Ġfel vet
ĠGy Ã³gy
Ġvon ul
Ġszakasz on
Ġwrest ling
R T
ĠB ri
ĠU pper
Ġsh aft
ĠZ one
Ġdev ices
ĠServ ices
p il
ĠOr chestra
ĠszemÃ©ly i
ĠSy ria
Ġdisp ers
helyett ese
c zy
es Ã©s
Ġw orn
Ġg ear
Ã©sz i
Ġper m
ĠHer mann
Ġrespect ive
Ġradi ation
ĠProfess or
ĠFore ign
H er
ĠD ak
Ġvizsg Ã¡t
ation ally
Ġat lÃ©t
ĠelÅĳ zetes
Ġkaton asÃ¡g
str ukt
Ãºd iÃ³
Ġinvest ment
Ġtonn es
at Ã¡nak
Ġle hessen
Ġun lik
ie ux
ĠtalÃ¡l juk
Ġvol can
Ġmel ody
Ġcontrib ution
Ġtransport ed
Ġrajong Ã³k
ĠErn st
Ġmindenn api
z ÅĳkÃ©nt
ĠM eth
og l
Ã³z Ã³
Ġlab our
ĠPer u
ĠEv il
el es
Ġl ock
ent o
Ġel Ã¼lsÅĳ
med ence
ĠÃ©pÃŃt mÃ©ny
Ġtax on
Ġrag asz
Ġn acional
ig l
Ġszer elm
Ġnem i
ĠSp eed
ĠAir es
ĠpÃ©ldÃ¡ny ban
i Ã¡nak
Ġk Ã³
ĠR im
ĠSz ep
Ġrefer ring
Ġtax es
ĠfÃ¼r d
un n
Ġgy Ã¡sz
Ġnagy apja
ĠSp ider
ĠgyÃ¡rt Ã³
Ġshould er
ĠMet ro
ĠBund es
Ġnin ete
Ġkval ifik
ĠB rod
Ġtr il
Ġfej ed
ped ig
Ġrang Ãº
ĠjapÃ¡n ok
ĠvÃ¶lgy Ã©ben
Ġreinfor ced
hull Ã¡m
Ġmered ek
ĠBÃ¡th ory
ĠI P
ci o
ens en
Ġfog alom
Ġrul er
199 4
Ġbuk kant
Ġmind vÃ©gig
mus ic
ĠkÃ¶nyv ek
Ġconf idence
ĠNyug ati
f il
Ġs weet
it ated
ire ct
ĠfÅĳvÃ¡ros ban
Ġrok ona
ĠR est
ĠD uc
Ġkor ong
Ġtan folyam
oktat Ã¡si
ĠTechn ology
Ã³ ci
Ġfel felÃ©
Ġmag atart
Ġugyan olyan
Ġrock s
Ġkih agy
ĠtÃ¡vol abb
Ġpati ents
andin Ã¡v
Ġearthqu ake
Ġ18 19
ĠAl k
ĠmÃ©ter en
ĠCamp aign
ĠSzeged en
ĠC ip
Ġrel ocated
Ġcsatlak oztak
ĠRay mond
ĠProd uctions
Ġphr ase
G u
Ġf ab
Ġalak ulat
ĠCl a
Ġpers ons
ĠmegbÃŃz ott
Ġwithd rawn
Ġdispl aced
ĠUtÃ³bb i
at ar
om o
ĠV in
Ġsp oken
emb ers
Ġfair ly
Ġconstitution al
ĠJenn ifer
at em
ĠR oz
Ġ3 20
ĠÃ¡t sz
Ġus ers
ĠvÃ¡laszt Ã³ker
Ġsuccess ion
ĠLa ura
Ġsk ill
Ġtravel ing
Ġcrop s
g ie
eg Åĳ
ĠS af
ĠL amb
ĠR Ã¡
Ġjel Å±
Ġalkot nak
ĠnÃ©m ely
ĠLor Ã¡nd
Ġvezet Åĳk
eph al
Ġiz raeli
ĠXI X
ĠHuny adi
d ob
at ni
Ġf Ã©szek
Ġsz an
ĠM eyer
ĠR ush
Ġam ibÅĳl
Ġvot ing
ĠadomÃ¡ny ozott
ĠtÃ©l en
Ġhier arch
ĠAlas ka
Ġc ub
ĠC orv
ĠL iter
od nak
ĠÃ©v szak
Ġhar bour
Ġaut umn
Ġcommun ist
Ġkeresked Åĳk
ĠKi adÃ³
ici ency
ĠtÃ¼ dÅĳ
Ġimpress ion
m Ã¡ban
Ġcs ig
ĠRÃ³m Ã¡ba
Ġlearn s
Ġist enn
Ġtact ics
sok Ã¡ra
ĠP ros
Ġsor ra
Ġvon ultak
ĠÃ©pÃŃt tette
ĠfÃ¼ggetlen sÃ©gi
Ġgyakorlat ban
Ġopportun ities
z atok
ĠN ature
ĠÃģ prilis
ĠMÃºzeum ban
Ġegyet Ã©rt
m Ã©ter
ĠA ber
ag les
ev Ã©keny
Ġst yl
Ġex ceed
ĠÅĳ se
Ġcommand ers
Ġ179 2
ĠTra il
ĠlegkÃ¶zel ebbi
ĠSimilar ly
Ġb und
ut in
ĠH usz
Ġmeg rong
199 2
ĠplÃ©b Ã¡nia
ĠrÃ¶gz ÃŃtett
Ġv Ã©sz
ek int
Ġdolg ozta
Ġcommand ing
Ġ179 9
ĠFÃ¶ld kÃ¶zi
ĠelÅĳadÃ¡s okat
Ġelmenek Ã¼lt
ĠU j
Ã¼n nep
Ġdal szÃ¶veg
Ġekkor iban
ĠLt d
ĠGib son
Ġf ulf
is ive
Ġb ol
Ġatt orney
Ġok ok
Ġred uction
Ġcamp s
ĠbarÃ¡t ai
Ġcompet itive
ĠTra ining
Ġï¿½ï¿½ï¿½ ,
Ġnevezet es
ĠG azdasÃ¡gi
Ġun w
ier re
Ġtext s
ĠfelÃ©p Ã¼lt
Ð ³
Ġp airs
ĠK ens
Ġgy Ãºjt
Ġext ending
osp her
ĠNe u
ĠCont rol
ĠAngli Ã¡ba
ro oms
ĠC ai
Ġchar ity
Ġfok os
ĠkÃ¶rnyezet ben
R C
Ġs ings
es ÃŃtÅĳ
ĠS out
ur u
Ġcons ervation
ĠAth Ã©n
ĠÃ©r zi
ĠCar r
ĠjÃ¡r atok
ĠszÃ©l essÃ©g
ĠMark et
Ġrej o
Ġrequire ments
Ġw onder
ĠL ett
cs illag
Ġhat alma
Ġ17 15
Ġsign ature
Ġsurv ival
Ġhek tÃ¡r
Ġt ark
Ġind eed
Ġtest e
Ġfelh aszn
Ġconn ections
ades h
Ã¡l in
ĠW ilk
Ġminor ity
ĠIndones ia
b ird
Ã© f
Ġcontin uous
Ġ179 3
Ġbecs l
Ġeszt Ã©t
ĠKonstantin Ã¡poly
u ita
Ġk em
ĠF M
Ġamely re
Ġind ex
ĠMay or
ven ni
ĠvizsgÃ¡l ata
ĠFin ally
Ġsov ereign
ĠLibert y
Ġfrek venci
ĠVÃ¡llal at
Ġen zim
ĠrÃ©g en
Ġmel od
Ġrit mus
as ters
Ġre vised
ĠG uszt
Ġtelep Ã¼lt
Ġfal usi
ĠDer by
ĠB uch
ezt Ã©vel
ĠhosszÃº ak
Ġreb els
ĠDef ense
Ġsz tÃ¡r
iz enn
Ġvagy ok
Ġfilm m
Ġtit ok
ĠvÃ¡ltozat ot
ĠMad ison
Ġhegy es
Ġhalad va
Ġp ogÃ¡ny
ja b
Ġdis char
ĠÃ¡llam t
ĠFranc o
en ved
Ġm oon
ĠH ood
ĠW inc
for table
Ġdist ant
20 16
ĠgyÅĳz elme
ĠGame Sp
ĠRod rig
ĠnyilvÃ¡nossÃ¡g ra
ĠSz ÃŃ
Ã³k usz
Ġinter ven
Ġalk atrÃ©sz
Ġpark s
ĠpÃ¼spÃ¶k sÃ©g
Ġprovin ces
Ġc ow
om ic
ĠC and
ĠP hys
st ru
ĠW is
Ġalap jÃ¡t
ĠUn it
adÃ¡s ra
Ġbr ass
uct ed
ĠGar field
ĠF Ã©r
um ped
ai ak
Ġcon ce
Ġvissz aker
Ġair ing
ĠSec urity
Ġprison er
ĠAuthor ity
6 3
et ikus
Ġf ol
eg Ã©d
ĠS ide
Ġel sziget
ĠK ad
ĠJ av
Ġrend be
ork Ã©nt
olg Ã¡l
im on
Ġho ok
for gat
el der
ad Ã¡sÃ¡t
Ġle jÃ¡tsz
Ġ18 17
Ġcharacter istic
ĠlehetÅĳ sÃ©gÃ©t
Ġtesz nek
egyes Ã¼let
n ag
ĠL an
Ġpro x
ÃŃtÃ©s Ã©hez
Ġvict im
Ġabs ent
is ons
Ġk utya
Ġh ole
Ġp ier
Ġch ron
oc ation
Ġharc ban
ĠTransport ation
l Ã©
y an
el ing
Ġf lex
Ġ0 3
ĠvasÃºt Ã¡llomÃ¡s
Ġpri est
Ð° Ð½
Ġfrequ ency
Ġfelmer Ã¼lt
ĠvÃ¡lasztÃ³ker Ã¼let
Ġc e
re cht
Ġl op
Ġinv Ã¡z
Ġrest ore
ĠEx p
Ġlight ing
Ġsereg ek
ĠBur ke
ĠP eg
ĠF ish
Ġ6 50
Ġacc um
Ġshif ted
Ġwarn ings
Ġk en
it an
Ġl iv
em ann
ĠL S
Ġter Ã¡p
itt y
ĠWh ere
Ġtrans c
ĠTer Ã¼let
198 9
Ġcart oon
ĠSÃ¡m uel
j ord
Ġp u
Ã©m iai
ĠMar cel
ĠÃ¶ssze fog
Ġamerikai ak
ĠtÃ¶lt i
Ġcut s
Ġbl ocked
Ġfolytat Ã¡sa
ĠfelszÃŃn re
Ġtransl ated
K Ã©t
ĠH ann
ĠelÅĳ kelÅĳ
Åĳleg esen
ĠbÃ¡ny Ã¡sz
ĠEster hÃ¡zy
on ian
Ġw ished
Ġel adott
ĠOr d
ĠjÃ¡r mÅ±vek
ĠSo ft
Ġmagn itude
ĠrÃ©szvÃ©tel Ã©vel
ny Ã¡k
ĠtalÃ¡l ja
tÃ¡r gy
la us
Ġszakasz Ã¡ban
ĠÃ¼l edÃ©k
Ġsal ary
Ġlegislat ive
ĠMcK in
Ġp eng
ĠS ans
ĠvÃ¡l nak
Ġsup erst
Ġrep Ã¼lt
ina e
Ġcar ries
Ġvol cano
ĠÃ¡r nyal
el Ã©sek
Ġtanul Ã³
Ġezek nek
ĠtudomÃ¡ny ok
ĠegyhÃ¡zmegy e
i Ã¡bÃ³l
Ġr iding
ik Ã¡n
ĠN ass
ĠCh ang
ĠelÅĳ tÃ©r
Ġmar ine
Ġdef ini
ĠBar on
Ġmegalap ÃŃtottÃ¡k
Ġbrill iant
ic ÃŃliai
us ta
ov szky
Ġpr ÃŃm
ĠPer forman
Ġexper iments
jegy zÅĳ
ĠMex ik
Ġsuppl ement
h aw
en ne
Ġs Ã¼t
ar at
Ġel rab
oc ity
kod nak
Ġtekint ette
ĠlÃ¡ny ok
Ġvit atott
ĠSebast ian
Ġfej Ã©t
pen se
Ġbi ographer
Ġext inct
ĠmÃ³d ja
Ġseb esÃ¼lt
ĠorszÃ¡ggyÅ±l Ã©s
Ġprepar ing
Ġinterpret ed
Ġpir amis
ĠCelt ic
G B
b ot
an im
Ġb ols
Ġre hears
ĠBo at
Ġ182 7
Ġw reck
ell an
Ġez eken
Ġform ula
Ġfl ower
ĠÃ³ rÃ¡k
Ġfejleszt Ã©se
ĠJan et
ĠSpring field
Ġkock Ã¡z
u is
W ill
sÃ©g Ã©vel
Ġsh ock
ĠSp encer
ĠnÃ©p szavaz
ĠerÅĳ fesz
ĠtÃ©m Ã¡ja
ĠbÃŃ ztÃ¡k
ĠB oh
Ġer Åĳt
Ġ11 3
Ġacc ord
Ġfiatal on
Ġcinem a
ĠHeb rew
Ġunlik ely
n am
ik kal
ĠV ul
ĠmÃ¡s ol
Ġfej Ã©ben
Ġelv Ã¡lt
Ġrendelkez tek
ĠMas ters
Ġburn ing
Ġvo ices
ĠMetac ritic
H ar
d an
ĠS le
ell ig
qu est
Ġtest Ã©t
tor ony
ĠP annon
ĠF oster
Ġtr unk
ĠhiÃ¡ny Ã¡ban
ĠSpanyol orszÃ¡gban
ĠF ly
Ġ178 9
talan ul
ĠelÅĳad Ã¡st
Ġlit vÃ¡n
ĠpÃ¡ncÃ©l os
Ġrival ry
6 9
g ia
ul ous
Ġafter math
Ġ0 1
Ġpass ion
Ġappro aches
Ġpract ical
okrÃ¡ cia
ĠH elm
Ġj ack
ĠMar ne
Ġkezd etek
arm a
Ã¨ ne
Ġszent elte
Ġmem Ã³ri
ĠbÃ¶rtÃ¶n be
Ġjavaslat Ã¡ra
ĠK as
Ġex ists
ĠfÃ¶ld mÅ±vel
ĠWest minster
ĠmÅ±vÃ©sz ett
Ġ182 6
Ġdispl ays
T unes
Ġw al
Ġval id
Ġarg entin
ĠvasÃ¡r nap
f enn
im m
Ġhe tt
Ġkill s
ikk Ã¶n
ĠTel eki
l ÅĳdÃ¶tt
ĠG ent
Ġval uable
Ġstr ess
Ġford ÃŃtotta
ĠszÃ¡ll ÃŃt
Ġrelat ives
ĠjelÃ¶l i
Ġkoron Ã¡z
ĠLeop old
el jes
Ġb Ãºz
ĠM ester
ĠC hem
im bled
ast on
Ġhely rÅĳl
Ġmunk Ã¡sok
Ġfelv Ã©telt
ĠvÃ¡ltozat lan
ĠkÃ¼zd elm
vilÃ¡gbajnoksÃ¡g ra
ĠOrigin ally
ĠWrit ing
ot ing
ĠM C
Ġre ak
ĠtÃ¡j Ã¡n
Ġrajt uk
Ġfelder ÃŃtÅĳ
ĠGuszt Ã¡v
in Ã¡rium
Ġs ak
at is
re ated
Ġam ph
Ġmaint aining
ĠIgn Ã¡c
f elt
k omp
Ġm uz
ak Ã¶r
ĠT alk
ĠRe agan
Ġrak tÃ¡r
ĠH od
ĠvilÃ¡g Å±r
ĠcÃ©l pont
men nyisÃ©g
ĠgyÅĳz elmÃ©t
ĠhÅ± bÃ©r
ĠkÃŃvÃ¡n ta
U pon
u ate
Ġsz ag
ĠH ope
ĠkÃ¶z vÃ©lemÃ©ny
ont ak
Ġ18 16
Ġ17 80
ĠWith out
Ġgradu ate
ĠPlan et
ĠJÃº nius
a ztak
ĠH ous
Ġtel ek
ĠvÃ©g Ã©t
Ġrel eg
Ġvalam it
Ġwar fare
Ġfell Ã¡zad
ĠCal ais
berg i
ĠUr ban
Ġvulner able
Ġb eneath
ĠIs le
Ġ178 4
Ġinterview s
Ġcycl ones
Ġbronz Ã©rmes
ĠÃºtvonal on
ĠellenÅĳr zÃ©s
ĠJohann es
in am
ĠC Ã´
uk Ã¡z
ĠÃ³r akor
Ġdup la
M Ã¡s
Ġm ate
Ġg oly
ĠW i
Ġab use
ĠAnd ers
ĠsebessÃ©g gel
rak Ã©t
Ġb Ã©lyeg
ott o
Ġhely ig
Ġnyug od
Ġpet ition
Ġtow ers
E K
u its
eg el
ĠE conom
Ġ179 5
Ġuncer tain
h assa
on nal
Ġm ant
iz er
Ã³ly om
Be fore
Ġloy al
j ing
Ã ½
Ã©s Ã©ig
ĠC rist
ĠJ ol
hen ger
ne hez
Ġmunk Ã¡k
Ġtagja inak
Ġlesz Ã¡ll
ĠszÃ¡ll Ã¡s
Ġlegy enek
Ġarg uing
ĠLou ise
tÃ©r kÃ©p
ĠkÃ¶zremÅ±kÃ¶d Ã¶tt
ĠÃ¶sszefÃ¼gg Åĳ
ĠStand ard
ĠCinc inn
ĠK ab
ĠR Ã¤
ĠG ay
ĠSt ark
ĠkÃ©p e
Ġcomp ound
199 1
ĠkormÃ¡nyz ati
ĠBroad cast
Ġunex pected
Ġt ucat
Ġm elt
Ġp ink
Ġch ore
Ġur anium
Ġtekint ettÃ©k
ĠGre ater
Ġparticip ation
ĠteljesÃŃtmÃ©ny e
Ġszeret ne
l Ã©si
ĠM ing
ĠAmer ika
Ġcsapat Ã¡nak
ĠCs oport
Ġuralkod Ã³k
ĠMÃ¡r cius
ĠSl av
Ġdrum mer
ĠM eh
Ġg ender
ark t
Ġab ort
ĠZ ero
ĠNy elv
ĠtrÃ³n t
Ġgirl friend
Ġshall ow
C on
ĠG ates
ĠV ern
ear ing
Ġ5 50
Ġkez Ã©t
ĠkÃ©sz Ã¼lÅĳ
ĠforrÃ¡sok ban
Ġfelk Ã©r
Ġalag Ãºt
Ġsz Å±r
Ġj Ã¶
Ġcs ecs
Ġnagy mÃ©retÅ±
Ã¶v Ã©ny
hes se
Ġmunk an
ĠrÃ¶vid esen
ĠMin or
Ġutal nak
Ġfa ult
Ġrac ial
ĠÃ©v ei
Ġoper Ã¡ciÃ³s
ĠmÅ±kÃ¶d Ã©se
Ġmegtart otta
Ġemot ion
ĠPict ure
Ġen r
kap csol
ĠmegÃ¶l i
ĠK ert
Ġseg Ã©ly
Ġgyilk os
ĠkihasznÃ¡l va
6 8
ist en
Ġprot ests
ĠnÃ¶veked ett
ĠgimnÃ¡zium i
y c
Ġc abinet
ic ester
Ġto urs
ĠM Ã³r
ĠB K
int Ã©z
Ġ18 18
aszt ja
Ġnumber ed
ĠCol in
Ġlen nie
ĠDan ish
Ġru bb
ĠAfr ika
Ġsurpr ised
v iszony
ĠA aron
ot el
ĠH ul
Ġsc ores
ĠnÃ©v vel
ĠkÃ©pvis el
Ġkelt ett
Ġsz icÃŃliai
ĠH ipp
Ġep ic
Ã¡ro tt
ĠvÃ¡laszt Ã¡son
199 6
vÃ¡sÃ¡r helyi
Ġt Ã©ve
Ġe ating
Ã©k i
ĠkÃ©p ez
ĠGy Ã¶ngy
Ġposs ess
Ġfront on
ĠtÃ¶rvÃ©ny hoz
Ġchart ed
ĠLabor atory
M D
ok u
ĠJ NA
av ers
ĠIt Ã¡l
Ġi Tunes
ink a
ĠlÃ©p cs
ĠSzent pÃ©ter
ĠelÃ©g gÃ©
Ġbeat en
Ġans w
Ġdecor ated
m ind
ĠK eny
ĠG on
ĠV on
ĠmÅ± tÃ©t
ĠtalÃ¡lkoz Ã³n
Ġlo ud
ĠlÃ©ny ege
MagyarorszÃ¡g on
Ġf aces
Ã¶ re
ĠA ja
Ġestim ates
Ġaco ustic
f ly
j as
Ġh Ã¼vely
gy Å±rÅ±
Ġut Ã³
Ġhal vÃ¡ny
Ġdist ricts
ĠGu ild
Ġmut attak
Ġpot enci
ĠHat Ã¡r
Ġdivers e
op l
kor Ãº
Ġap jÃ¡t
Ġkar ban
ĠTr ade
ato es
ĠfÃ©rj hez
j Ã¡ul
ap le
Ġinc lusion
ĠAnd or
Ġcsat Ã¡t
ĠNagy sz
Ġbirtok Ã¡ba
Ġgrand father
Ġpropos als
ĠFranÃ§ ois
n u
Ġb Ãºt
Ġl az
ÃŃ gy
Ã¼l ler
ĠL ÃŃ
ess Ã©k
Ġem eltÃ©k
Ġrep rezent
ĠpÃ¡ly Ã¡t
Ġherceg i
ĠTer Ã¼lete
ĠOver all
ĠGall ery
O N
Ã¡ in
ĠR ip
Ġelh al
Ġfiz etett
ĠkÃ¶rnyÃ©k e
ĠhiÃ¡ny zik
Ġtransport ation
ĠCat hedral
is an
Ġbe b
Ġtan Ã¡rs
ĠhatÃ¡r Ã¡t
Ġ180 4
Ġess entially
Ġflu or
k ari
Ġt ale
Ġle ford
Ġter r
Ġch ronic
Ġcl othes
Ġpart i
ĠnÃ©met orszÃ¡gi
ĠOff icer
Ġpan asz
Ġjud g
ogrÃ¡f ia
Ġdup l
Ġmegtud ja
k t
w yn
Ġd rift
ĠL Åĳrinc
Ġhe v
Ġcs epp
ĠtÃ¶r p
ĠeredmÃ©ny es
Ġdeep ly
Ġadvert is
Ġaccur ate
h av
ĠP Ã¡z
Ġair line
Ã¼t kÃ¶z
Ġsw it
ĠlÃ©nyeg esen
ĠmaradvÃ¡ny ait
Ġm ood
Ġez ekben
Ã¼r t
il Ã¡rd
ĠD j
ĠÃ¡ll ÃŃtÃ¡sa
Åĳr Ã¶k
ĠVar ga
Ġmegfigyel hetÅĳ
Ġfutam on
or p
Ġmeg enged
Ġre ct
ĠW ik
ci an
rit z
19 10
Ġmed icine
Ġfejleszt ett
Ġqual ifying
ĠszÃ¶vetsÃ©ges ek
Ġcat hedral
m Ã¡ri
ut ers
Ġhadsereg et
Ġarany Ã©rmet
Ġkidolg ozott
ĠGreg ory
Ġspons ored
ĠMÃ¡t Ã©
Ġpersu aded
Ġt Ã©vÃ©
Ġc ement
Ġl ib
ĠSp iel
Ġnap ilap
Ġlast ing
ĠMac Arthur
ĠsÃ¡r gÃ¡s
Ġmor ph
ĠProv ince
Ġdanc ers
c ourt
Ġre ver
Ġi h
Ġman age
osa urs
Ġtrad itions
ĠfÃ©ny es
th odox
Ġcs Åĳd
Ġmer c
ĠhÃŃ re
Ġprinci ples
ĠT ran
ĠB reak
ĠF res
ĠR ah
Ġmer ged
ĠkÃ¼ld etÃ©s
Ġelvesz ÃŃtette
Ġsquad rons
Ġelf ogy
ĠFriend s
ĠC ool
ud y
Ġrec overy
ĠIs raeli
ĠÃ¡ldozat a
Ġminim Ã¡lis
Ġans wer
ĠCh all
Ġangol ok
Ġorosz lÃ¡n
osex ual
Ġf oszt
ĠC hat
if fer
ni an
Ġrec urring
ĠAr ena
Ġcons olid
Ġsur ve
ĠcÃ©l lal
ĠnyilvÃ¡n ÃŃtotta
Ġcour ses
h om
it als
ĠB erm
Ġsusp ic
Ġigyek szik
Ġtavasz i
Ġdokumentum film
ĠEdu Ã¡rd
at iszt
ĠD uch
Ġbe ind
Ġind ÃŃtÃ³
elet et
ĠkormÃ¡ny t
ĠAb raham
Ġkialak ÃŃtÃ¡sa
ĠÅĳs lak
Ġ179 4
Ġâ ģ
ĠBrad ley
Ġb unk
im mer
ĠirÃ¡ny ÃŃtÃ¡sÃ¡val
Ġverseny zÅĳk
ĠDr ake
Ġtenger Ã©sz
Ġbiztos ÃŃtÃ³
Ġcivil ians
Ġsac rif
k h
m ail
r age
Ġh ills
Ġd ense
Ã¼ veg
ĠM ail
ĠM eteor
Ġinter vention
Ġszem e
Ġked ves
Ġviszony ok
mÅ±v eket
Ġbeaut y
ĠegyidejÅ± leg
g ang
r Ã©m
ĠB ibli
Ġcs uk
ĠLe af
Ãºr Ã¡t
Ġgra ve
Ġbe jegy
ĠQu ar
Ġcommun ications
Ġsum mit
Ġpot entially
fÃ¼r dÅĳ
Ġautomatikus an
Ġleggyors abb
ĠLuft w
p op
ĠR Ã©sz
ĠMi G
Ġreform s
ĠbÅ±n Ã¶s
ĠTrib une
ĠG round
ens ek
Ã¶lt Ã¶zÃ¶tt
Ġseg ments
ĠPl ace
ĠfÃ¼gg Åĳ
ĠDr ag
Ġrepresent ation
csat orn
o ba
Ġw ard
ni p
Ġer ek
Ġen act
ĠvÃ¡ros okban
ĠConstant ine
Ġf ate
ĠP and
ĠL Ã¡t
iz Ã¡ltÃ¡k
Ã³k on
ĠcsalÃ¡d nak
nev ek
ĠCol omb
Ġlight s
eep er
Ġfund ed
Ġfear ed
Ġfarag ott
O l
Ġb osszÃº
ĠB ible
ĠAl pha
man uel
ĠÃ¶ssze om
ĠSerb ian
z o
ĠR af
Ġ4 000
Ġhely ben
Ġinter medi
ĠVal ent
Ġsout heastern
Ġt i
ĠF ont
ĠirÃ¡ny t
ĠEm ber
Ġhon lap
ĠKÃ¡roly i
ĠMons ter
Ã³ bÃ³l
Ġmester e
Ġnyolc van
ĠbÅ±n cselek
Ġdraft ed
c st
ĠS ox
ur ai
Ġj et
Ġmeg marad
ĠF alk
ĠN ab
Ġbe ating
Ġfel robbant
ĠTh om
ĠkÃŃsÃ©rlet et
Ġszim met
Ġfolyt Ã¡n
Ġprofesszor a
ĠCincinn ati
Ġker Ã¼lÅĳ
Ġgold en
Ġâģ Ħ
ĠC ena
ĠN eve
olg Ã¡rok
Ġcompl ained
ĠtÃºl zott
Ġhelyzet Ã©t
Ġaccommod ate
hÃ¡lÃ³z at
ĠH em
up e
Ãºt ra
in ations
ĠP sych
ĠgimnÃ¡zium ban
ĠÃ¼ld Ã¶z
Ġin hib
ak bÃ³l
ĠTh ames
ĠrÃ©g Ã³ta
ĠkÃ¶t ete
ĠtÃºl sÃ¡gosan
ĠMin ogue
199 9
ĠtÅ± zte
Ġbasszusgit Ã¡ros
Ġs ter
ell ar
ĠAl bÃ¡n
ĠComp uter
ĠRepublic ans
Ġfelbuk kan
ĠO K
vÃ¡n dor
Î µ
ĠP ack
ĠF en
Ġnyelv re
ĠmegbÃŃz Ã¡sÃ¡bÃ³l
rid or
z or
ĠG Ã¡s
Ġpar as
faj ok
ĠDun can
Ġmegszer zÃ©se
199 3
jeszt Åĳ
ĠÃ¡g a
ĠmÃ©rtÃ©k Å±
ĠszomszÃ©d sÃ¡gÃ¡ban
Ġhelyezked nek
ĠÃ¼tkÃ¶z et
umber land
6 1
d em
Ġv ital
ĠK um
Ġvon atok
Ġdesc ent
alma ztÃ¡k
Ã©j Ã¼k
Ġ180 1
oir s
Ġsail ing
ĠÃīrd em
ĠBrazil ian
ĠFid esz
n els
Ã¡k hoz
alm on
Ġev ident
Ġhol iday
ul Ã¡si
ĠB ou
ĠC el
ĠW el
ov an
Ġpro of
ĠÃ©r m
ĠS ad
ĠB ess
szÃŃn Ã©sz
Ġhossz an
ĠvÃ¡laszt Ã¡sok
Ġtiszt sÃ©get
ĠfelesÃ©g Ã©nek
Ġsev ente
ĠVen ezuel
ĠâĤ ¹
g ence
k inek
Ã³ w
Ġlak Ã³ja
ĠnyilvÃ¡n ÃŃtottÃ¡k
ĠKen ny
Ġm Ã©
Ġel kÃ¶tel
Ġcolumn s
ĠRÃ¤ ikkÃ¶n
er ia
in Ã©l
ĠdÃ©l szlÃ¡v
Ġegym Ã¡sra
Ġbreak s
Ġfot Ã³
ĠChap el
ĠÃ¼zemelt et
ĠmegvÃ¡sÃ¡r olta
Ġjezs uita
Ġellipt ikus
B ar
at y
Ã¶ sebb
gy Åĳz
ĠC emetery
vet len
Ġed zÅĳje
ĠPer cy
Ġbeteg ek
ĠÃ¶v ezet
ĠfelszÃ¡m oltÃ¡k
ĠM ant
ĠD ian
Ġkrit ika
jÃ¡tÃ©k os
ĠLen in
ocrat ic
usal em
Ġpregn ant
ĠNÃ¡d as
ĠS ultan
cs al
cs atorna
ark s
Ġszob ra
ĠjÃ¶v Åĳben
Ġnehez ebb
ĠÃīdes anyja
Ġimplement ed
ĠkÃŃ sÃ©rt
Ġnyugalom ra
Ġalak ÃŃt
Ġhang verseny
Ã¡nt Ãºli
Ġtemplom ok
Ġgab on
ĠVisz ont
j in
ĠC C
end i
Ġhang jÃ¡t
ĠMalays ia
Ġhagy tÃ¡k
Ġbizt osan
Ġdev oted
Ġagg reg
Ġsudden ly
ip ped
Ġtri be
Ġdem okratikus
Ġperi Ã³dus
Ġagricult ure
ĠBoul evard
id t
ach ing
oss a
Ġmod ul
ĠintÃ©z mÃ©nyek
ĠutÃ³d ja
Ġfelb om
Ġrat io
Ã¶ st
ĠA G
ezet len
ĠÃ©rtÃ©k et
Ġfejleszt ette
ĠDen ver
Ġk ist
Ġh ung
ĠR ug
ass ed
Ġ17 20
Ġ15 2
Ġered ete
Ġ0 2
Ġkaton Ã¡i
Ġgyermek ei
Ġfelh agy
Ġbomb Ã¡z
Ġorient ed
Ġeur Ã³
n ival
Ã¶ b
em ia
ĠF le
ri fic
ĠelÅĳ r
ĠrÃ©sz ek
ĠZ Ã¶ld
Ġhatalom ra
Ġemb arked
K or
Ġs ad
Ġm esz
Ġal Ã¡rend
ĠI sz
Ġcs arnok
Ġhat Ã¡rozta
Ġfilm es
Ã³t i
ĠterÃ¼let ein
ĠvalÃ³ sÃ¡gos
Ġfollow ers
ĠjÃ¡tÃ©k ban
nev Ã©t
Ġsent ence
Ġjobb ra
Ġc ry
ĠM ult
Ġegy elÅĳre
Ġtan ÃŃtotta
ĠÃ©r hetÅĳ
Ġconf usion
ĠOff icial
ĠDev il
Ġautom at
Ġeljut ott
ĠkÃ¶zz Ã©
ĠK Ã¶l
Ġrequ iring
Ġpresent ation
Ġ182 2
Ġquar ters
ĠkÃ¶tet ben
Ġmegfog almaz
sÃ¡g nak
ign e
Ġkn ocked
Ġadv ancing
Ġcomment ing
Ġdro wn
ĠMach ine
ĠH els
Ġnev elkedett
Ġind ÃŃt
Ġalap rajz
Ġelej Ã©re
ĠScient ology
ĠH et
ĠL op
Ġer ror
ĠÃ©l en
ĠcÃ©l okra
Ġadmin ister
Å Ľ
Ġhe ti
Ġres em
ĠkÃ©p erny
ĠszÃ¡ll od
Ġsam ples
ĠDiam ond
l ad
Ġk a
Ġszer eti
Ġz avart
ober t
ĠszÃ³ cikk
Ġbefej ezte
ĠhÃ³d olt
Ġalkalma ztak
Ġs ample
Ġf isher
ĠW als
kor on
Ġherceg et
Ġcol ors
ĠReg ister
ĠJos h
Ġli bert
ĠbÅĳv Ã¼lt
ĠnÃ¡d or
d ess
v Ã¡rott
Ġr Ã©m
Ġth rown
Ġle Ã©gett
ach ute
ĠcÃ©g et
Ġstruct ural
ĠBor b
194 4
hu a
Ġg aining
ĠG as
Ã¡j akÃ©nt
ĠvÃ¡laszt Ã¡si
ĠChrist ians
Ġ177 6
Ġaf ford
Ġf u
Ġel ef
Ġvissza fog
Ġtri ang
ĠÃ©nek el
Ġtartalmaz nak
ĠfelsÅĳ bb
ĠPozsony ban
Ġhighlight ed
Ġf ra
Ġl Ã¡ba
Ġsz Åĳ
ec ser
Ġg olf
ĠSh in
Ġparancs ot
Ãºsz ott
ĠfÃ¡jd alom
Ġdisturban ce
Ã© ban
ĠE ff
az ott
oc ent
Ġalk ottÃ¡k
ĠJul ius
ĠellentÃ©t es
Ġelrend elte
Ġphilos oph
g ary
l ights
Ġv oyage
Ġr Ã¡m
ĠC rystal
oz hatÃ³
ĠtalÃ¡l ni
Ġext ensively
Ġbiztos ÃŃtani
Ġbelse jÃ©ben
Ġr Ã¡g
Ġel Ã¡gaz
ĠC ox
ĠN ak
ĠJ i
ĠÃ¡t szerv
anc ia
ĠLe icester
Åĳr Åĳl
Ġtanul ni
Ġtechn ika
Ġdiplom atic
Ġphot ography
ĠHÃŃr lap
w y
en ess
ĠM is
Ġcr imes
ĠprÃ©d ik
Ġc ards
ĠV oice
ĠkÃ©t sÃ©gbe
ĠÃ©p Ã¼lÅĳ
olÃ³g iÃ¡ban
Ġobserv ation
int y
and ro
Ġmind ez
Ġrem ake
Ġismer i
Ġstud ying
ĠtÃ¡rs ai
ĠTel jes
Ġfolyt attÃ¡k
Ġw ine
Ġr ely
ĠÃ©let be
Ġperc et
ĠGÃ¶rÃ¶g orszÃ¡g
Ġs ized
ĠS ierra
oz Ã¡ssal
Ġbe ars
ord a
fl u
Ġtest i
ĠÃ¶ bÃ¶l
ĠTour n
Ġoverl ook
Ġal Ã¡t
Ġegy sÃ©get
ev Åĳk
aszt alt
Ġloc ally
ĠtÃ¡mogat Ã¡sÃ¡t
Ġsimilar ities
Ġeduc ated
Ġfokozat ot
ĠBalt ic
cs ei
ĠelÅĳ dÃ¶ntÅĳben
Ġreg iszt
Ġingat lan
Ġel kap
Ġel rejt
ig azd
ĠK ant
ĠÃŃr Ã³dott
ĠkÃ©rd Ã©se
Ġmeggy Åĳz
ĠbeÃ©p ÃŃtett
k Ã¡s
w right
à ¸
Ġm ail
Ġher itage
ĠFre edom
ĠMiskol ci
ĠAgain st
N T
Ġb ent
ez e
iv als
ĠY outh
Ġsent enced
ĠfÃ¼ggetlen sÃ©g
ĠstÃŃlus a
Ġresearch ers
Ġjud ges
Ġtrail er
ĠvÃ©gzÅĳd Ã¶tt
ĠR S
Ġor ange
Ġval ah
Ġres olved
ĠkÃ¼l Ã¼gyminiszter
ĠtÃ¶rvÃ©ny es
Ġbronz Ã©rmet
Ġalt itude
ĠIndones ian
Ġrecru ited
ĠMidd les
Ġdivor ce
ĠAlber ta
ĠLuftw affe
Ġk nee
Ġto oth
ĠB ranch
ĠK asz
ind a
Ġag es
iÃ³ i
Ġfe e
ĠkÃ¶vetkez mÃ©nye
Ã©sek re
Ġgu y
Ġoldal a
ĠHer man
ĠkezdÅĳd Åĳen
Ġinteract ion
l ati
Ġb Å±
as ia
Ġp omp
ĠF oly
ĠThe odore
ĠÃī l
Ġsziget ek
Ġequ ally
Ġ180 2
Ġdob oz
Ġaddress ed
Ġriv als
ĠMÃ³ ric
ĠPerforman ce
Ġk ond
Ã³m a
ĠsegÃŃtsÃ©g Ã©re
Ġweak ening
Ġmindkett Åĳ
Ġm alom
Ġin ning
szer zÃ©s
Ġro zs
Ġtem po
ĠnÃ©v re
andid Ã¡tus
k elt
Ġtel i
ĠidÅĳ tart
ĠQu int
Ġresc ued
les h
ĠSc ots
ĠleÃŃr Ã¡sa
Ġbecs ap
gr Ã³f
ĠCos ta
ĠB ard
Ã¡t er
ir Ã¡g
Ġtr uck
tat Ã¡s
Ġmet ab
ĠAd ela
ene uve
Ġelem eket
Ġexpl ore
Ġexpl aining
Ġprocess es
ĠUl Ã¡szlÃ³
Ġash ore
Ġrand om
Ġf ame
Ġel kÃ¼ld
Ġpr in
Ġvalam ikor
Ġass um
Ġmoz aik
ĠkÃ¶t hetÅĳ
Ġprof essz
ĠMont ana
Ġszemben i
Ġprinci ple
Ġmyth ology
Brit annia
Ġszimb ol
n egyed
Ġm oh
ĠM ust
ĠM orning
ĠL on
ĠW att
qu in
Ġres ort
kel ey
ĠÃŃr Ã¡sa
Ġbatt ed
ĠesemÃ©ny eket
Ġelhagy tÃ¡k
Ġdeal ing
ĠvÃ¡ltoztat ta
Ġgarn ered
Ġf ru
Ġr ib
Ġvet ette
Ġconsider ably
Ġkommunik Ã¡ciÃ³
Ġempt y
Ġt ies
Ġt ension
Ġf old
Ġw ales
om ag
ut z
ik Ã©p
Ġsp an
mÅ± sor
szerep l
B l
Ġg ift
if ilm
Ġen abled
ick en
ĠRo om
ĠlÅĳ szer
ĠkÃ¼zd Ã¶tt
ĠjelentÅĳ sÃ©gÃ©t
Ġw art
osz ex
Ġfog almaz
ĠkerÃ©k pÃ¡r
Ġtas ked
Ġescort ed
Ġn i
Ġmeg Ã¶lte
ĠSz u
ĠTh ur
ism ar
Ġtechn olÃ³gia
Ġtick ets
ĠUkraj na
k ocs
Ġd readn
Ġmeg tilt
Ġcs Ã³nak
az ar
ĠAl c
Ġcompl ement
Ġpred ators
Ġhost ile
z se
Ġd imin
ut sch
ig Ã©ny
ĠÃ©vek re
part s
Ġnapja ink
Ġproport ion
Ġeml ÃŃtettÃ©k
Ã¶zt Ã©k
ĠhÃŃ rek
Ġcommer cially
Ġfogad ott
Ġbosz orkÃ¡ny
ĠM yster
ĠB ears
Ġse as
ĠBl ake
ĠhatÃ¡r ja
Ġphys ics
Ġszerb ek
ĠkarÃ¡cs ony
M ost
ĠY ard
Ġ12 8
ĠGr ade
ĠReg ional
Ġsw ord
Ġ179 6
Ġ179 8
Ġkisz Ã¡m
Ġkomp ozÃŃciÃ³
ĠJer usalem
ĠVel enc
Ġigyek eztek
Ġgyerm eket
Ġkv ant
ĠFern ando
ek e
Ġr Ã¡cs
Ġen zy
Ġrece ives
Ġegyetem es
Ġtradition ally
ĠLanc aster
7 2
v y
Ġv aj
Ġd ying
od ni
ang er
ĠelÅĳ fordulÃ³
amp a
Ġember ei
Ġtagja it
Ġtizen hat
Ġenyh Ã©n
Ġwars hips
ĠRena ult
h as
ĠV ettel
Ġhel ps
ĠEle inte
Ġtrav elling
ĠKÃ¶zl Ã¶ny
Ġjurisd iction
Ġ17 70
rib le
Ġtem pl
Ġvill ain
ĠigÃ©ny el
ĠJud it
ĠsugÃ¡r z
Ġsongwrit er
Ġchalleng es
Ġd or
ep pe
Ã³s a
Ġoper ates
ĠhÃ¡t vÃ©d
Ġkialak ulÃ¡s
199 7
ĠpÃ¡t ri
ĠM ong
ul d
Ġmeg fordult
Ġup set
enn Ã©
Ġcsoport ban
szerep lÅĳ
Ġkapit Ã¡nya
sz Ã¡sz
Ġsz imp
ĠT ree
ĠG av
ĠkÃ¼lÃ¶nb Ã¶zik
Ġbound aries
Ġsculpt ure
Ġtengeralatt jÃ¡rÃ³
Ġvisszasz or
ol an
Ġe bbe
ĠR andy
Ġass ert
ĠhÃŃ jÃ¡n
Ġsettl ements
ĠmegÃ©r kezett
ĠAusztrÃ¡l ia
Ġgard ens
ospher ic
ek s
ĠS ib
cs ere
Ġsup ern
ĠhÃŃ vei
ĠColl ection
Ġ177 3
ĠlÃ¡tvÃ¡ny os
ĠbetÅ±k kel
ut ter
ĠlÃ©tes ÃŃtett
Ġlif etime
ĠÃ¼d vÃ¶z
Ã©n zt
ĠF ight
be y
Ġdo ors
ĠtalÃ¡lkoz tak
ĠÃ¶sszek apcsol
ĠIz abella
ĠÃ©t terem
Ġunivers al
ĠPor osz
Ġingy en
Ġimprison ed
ĠA ction
ĠT erv
ĠHe ath
Ġember nek
elem ek
ĠAll iance
Ġgyors abb
Ġteamm ate
Ġforec ast
m ok
Ġmeg al
ĠV ince
Ġ3 30
ezt eti
Ġany ak
ĠCs aba
Ã¼r n
arr ett
Ġszo cial
Ġtur ista
ĠfelhasznÃ¡l Ã¡sÃ¡val
ĠepizÃ³d ban
ĠErdÃ©ly ben
Ġgyan Ãºs
ĠS pl
Ġr ings
ĠH egy
ĠV Ã©d
ĠegÃ©sz sÃ©ges
Ã³r um
Ġmegfel el
ĠEx pl
Ġopt ions
Ġpurs ued
Ġkommunik Ã¡ciÃ³s
Ġkifejleszt ett
Mus ic
b ud
ĠC in
Ġmegsz abad
Ġcr ashed
ĠSzer ep
ici ently
ĠChamber lain
z ac
Ġl Ã©vÃ©n
Ġre ass
ĠD Ã©nes
Ġrend ezÃ©sÃ©ben
Ġakart ak
abil ities
ancell or
ĠmÃ©sz kÅĳ
ĠeredmÃ©nyek Ã©ppen
ĠfÅĳszerepl Åĳje
ĠGÃ¡s pÃ¡r
r Ã³b
ĠN ott
ĠV es
Ġszer Ã©ny
Ġterm elÅĳ
ham ar
Ġdisc ontin
ĠmÃ©ter rel
Ġvari ation
iÃ³s gy
ĠfejlÅĳd Ã©sÃ©t
Ġszub tr
Ġbaz il
k ok
ac a
ĠSt re
ĠJul ia
kÃ©sz let
Ġmegold Ã¡st
Ġmechan izmus
ĠSzÃ¶vet sÃ©ge
Ġlegit im
T wo
Ġs Ã³
ed Ã©se
Ġl Ã¡r
Ġel hatÃ¡roz
Ġfor b
ĠF esztivÃ¡l
ĠAr ag
ĠSh ah
ĠOr ton
kod tak
Ã©j Ã©ben
Ġbor row
ĠszÃ¶vet sÃ©get
jÃ¡tÃ©k vezetÅĳ
Ġdocument ed
Ġvolunte ers
ĠfÃ¡ra Ã³
n Ã¡nak
r Ã¡g
Ġthe ories
it us
ĠT ap
Ġal v
aj i
Ġconst itu
ĠmÃ¡sod lagos
Ġappl ications
ogrÃ¡f us
ĠGh ost
ĠPortug al
d ed
ĠN oha
Ġho used
Ġkap ja
ĠHe aven
ĠtalÃ¡l unk
Ġ180 7
bour g
ĠnyÃºl ik
re hens
Ġn Ã¡ci
ad os
ber end
Ġter vet
ĠFer g
Ġbenef its
Ġdepict s
Ġinfrast ructure
Ġk un
Ġd inner
ĠJ oint
ĠW end
Ġ3 70
ĠSh ang
ĠBr Ã¼ssz
Ġsm oke
Ġegyetem re
Ġinvol ves
ĠfÃ¶ldreng Ã©s
Ġzs ÃŃr
ĠÃ¡r vÃŃz
ĠnÃ©m ileg
ĠCseh orszÃ¡g
ÅĳkÃ©p p
Ġelabor ate
7 9
Ġf osz
ĠH Ã©r
kor e
Ã¼gy nÃ¶k
Ġutc Ã¡n
Ġutc Ã¡ban
ĠFilm s
ĠforgatÃ³k Ã¶nyvet
ĠÃ©lÅĳl Ã©ny
r il
Ġv Ã¡ra
ĠkÃ¶ ly
Ġ18 11
elt ette
Ġdis order
ĠlÃ©trehoz tÃ¡k
Ġscreen play
Ġabb a
B ud
h ivatal
ĠK ed
oc ol
Ġfelv ett
Ġcirc ular
ĠTown s
ĠbejÃ¡r ata
Ġju ven
s Å±rÅ±
v ity
ur red
ĠV Ã¡g
ew ork
ack ing
ĠZ al
Ġsub stitute
ĠAm endment
Ġment ek
ĠnÃ©z ett
Ġte a
Ġur ged
ĠMan agement
Ġreact ions
Ġpurs uit
ĠtÃ¼k Ã¶r
Ġszal ag
ĠB em
ĠAn a
ĠJoh anna
ĠBl air
ĠAd ri
ĠNem es
Ġnyug dÃŃja
ĠFranciaorszÃ¡g ba
Ġvirt ually
evÃ©s bÃ©
ĠSyl v
i ens
ol ini
Ġd rain
Ġser eget
ani el
ĠvÃ©d elmet
Ġprogram ok
Ġevent ual
kap u
Ġ182 3
Ġbenn Ã¼k
Ñ ı
er re
ol ia
ĠA us
ul u
Ġst all
Ġch ase
ĠZ sÃ³
ĠidÅĳ jÃ¡rÃ¡s
Ġfelt Å±nÅĳ
ĠCon f
ĠNy ÃŃ
ĠKar Ã¡n
Ġop ens
Ġgod s
ĠSvÃ¡jc ban
Ġcens us
ĠPow ell
Ġcateg ories
ĠEurov ÃŃziÃ³s
Ġs aint
ĠT ren
ĠJ azz
ĠtÃ¡rs a
Ġauthor ized
Ġsignific ance
ĠkastÃ©ly t
ĠSpr ings
Ġpillan atban
Ġveter an
Ġt ape
ĠA u
ozÃ¡s Ã¡val
er et
ic ia
ĠC avalry
ĠL ocal
od va
qu is
Ġro st
hang zÃ³
ĠFour th
Ġfavour ite
Ġrenew ed
N ew
Ġs isak
Ġkezd i
Ġwrit ings
ĠAt hens
ĠkÃ¶lt Ã¶z
Ġmutat nak
Ġmenny ezet
ĠmÃ³dszer t
n t
as ant
ĠC atal
ÃŃt ania
ĠJ Ã³kai
Ġun con
usz a
Ġkit Ã©r
elen a
Ġstat ements
Ġav o
ĠvÃ©delm Ã©re
ĠContin ental
Ġr amp
ĠD re
Ã©l tÃ©k
Ġcon j
je it
ath a
Ġpolit icians
Ã¡tor a
ĠRichard son
csap atok
Ġprote ins
ĠWebb er
ĠB eli
oll er
ĠlÃ¡t ogatott
lan ak
199 5
Ġparancsnok sÃ¡ga
Ġmegk Ã¶nny
Ġaccident ally
eg en
ul ja
oc ene
ĠcsalÃ¡d tag
Ġmed i
Ġport rÃ©
Ġopp osing
ĠpÃ©ldÃ¡ny ok
nyelv Å±
Brit anni
ĠAja x
Å Ļ
ar esti
ĠK ang
ĠG ren
Ã©m Ã¡nt
Ġrend ered
Ġfoly Ã³n
Ġfelt alÃ¡l
Ġtrack ed
Ġhand le
jegy zÃ©k
Ġkom ment
Ġklub mÃ©rkÅĳzÃ©st
ĠtÅ±z olt
ĠArch ae
ĠIslam ic
j esen
ÃŃv Ã³
Ġout d
Ġsok fÃ©le
Ġbl okk
Ġfolytat ja
Ġbajnok in
Ġthr iller
ĠNÃ©metorszÃ¡g ba
haus en
Ġelef Ã¡nt
Ġk Ãºp
ev o
qu i
Ġbal oldali
Ġ180 3
Ġfil iÃ¡ja
ĠRom ney
ĠrÃ©sztv evÅĳ
Ġm Ã¼n
Ġl Ã¶k
Ġd ÃŃz
ĠC ost
Ġkit art
ĠMon roe
Ġassziszt ens
H g
n Ã©nek
v at
ĠS ed
ĠvilÃ¡g rang
ossÃ¡g gal
Ġ179 1
Ġhind u
ĠÃ©lett art
Ġtrap ped
5 7
T an
Ġs elyem
Ġk ated
ic ular
os ion
ĠK end
ĠAn jou
ĠmÅ± anyag
Ġfilm ekben
ĠEd mont
Ġpos itively
Ġcapt uring
ĠAtt orney
Ġconcern ing
back s
ĠJud ge
ĠlegrÃ©g ibb
ĠPrinc eton
l ake
Ġel osz
Ġhand ling
ĠelkÃ¶vet ett
ĠfennhatÃ³ sÃ¡g
Ġaz nap
ny omÃ¡s
Ġmanufact uring
Ġfeud al
Ġst ones
Ġrel ev
ĠAkadÃ©m iÃ¡n
ĠmegprÃ³b Ã¡l
Ġcong ress
Ġtized ik
Ġmegnyert Ã©k
Ġst olen
Ġmi xture
Ġvill Ã¡m
ĠMill ennium
ĠBon ap
ĠHarm adik
er Åĳt
Ġn urs
ĠP un
oun sel
Ġalap jait
Åĳd tek
ĠtÃ¡m ogattÃ¡k
Ġinv aded
ĠSch war
Ġpred ict
Ġexam ination
Ġinher ited
Ġinfrast rukt
ĠH ass
ĠH ank
fel Åĳl
ĠKer esked
ĠLuc y
Ġfer ences
Ġtoj Ã³
Ġhop es
Ġb le
Ġn an
Ġl ie
ĠB ei
kor Ã¡ban
Ġap olog
Ġprom ise
Ġsal v
Ġideiglen esen
Ġnagylemez e
is ban
ne um
Ġir reg
ĠfÃ¶ld szint
Ġsusp ected
ĠCarol ine
Ġmenet rend
Ġbombard ment
ĠMig uel
on ation
Ġd iver
ÃŃt osz
ĠL il
Ġho ping
ĠOl imp
ĠMont eneg
ĠkÃ¶zep Ã©ig
ĠfÃ¼ggetlen sÃ©gÃ©t
ĠHol mes
ĠSzab olcs
Ġremember ed
5 6
Ġr Ãºg
ĠC i
Ġem bl
Ġrep erto
Ġthere by
Ġla ugh
ĠÃļ r
Ġtas te
Ġportra it
ar us
Ġr ains
ĠP unk
ud ed
if a
cc al
Ġ13 1
ĠAm ennyiben
ĠdÃ¶nt Åĳt
20 17
Ġmegjelen Ã©sÃ©t
ĠidÅĳszak a
Ġconflict s
Ġdecre ased
9 2
z burg
Ġ Ã³l
Ġto ugh
Ġr ushing
ĠE nix
Ġmeg ÃŃtÃ©l
Ġdist ract
Ġpromot ing
Ġels ajÃ¡t
Ġfriss en
ĠBalk Ã¡n
ĠRÃ¤ikkÃ¶n en
r ates
s is
ad Ã¡si
ett et
ĠnÃ©gy szÃ¶g
ĠFl ag
Ġcost ume
tÃ¶rtÃ©n Ã©sz
Ġcig ar
Ġbom ber
am ine
Ġform Ã¡jÃº
ĠhÃ¡z igazd
ĠdÃ¶nt Ã©st
Ã¤ r
cel and
Ġkur uc
n Ã¡k
ĠL ass
od Ã¡sa
Åĳk Ã¶zben
Ġbre ath
Ġshark s
ĠLombard ia
K elet
m ons
Ġk andidÃ¡tus
Ġb od
ĠA j
Ġd warf
ĠL oc
Ã©sz ete
Ġsp ar
ĠNew man
iskol ci
Ġmegh allgat
Ġvel ocity
Ġelhagy ja
Ġparticip ants
Ġfogad ja
Ġklassz ic
ĠkÃ©szÃ¼l Ã©k
ĠtÃ©g l
ess a
ĠrÃ©sz en
ĠtÃ¼ zet
ĠMagn us
Ġpest is
d Ã¶g
Ġc able
ĠC ul
Ġdist urb
ĠTur key
Ġimpress ive
Ġanticip ated
Ġdoz en
P a
Ã¡l ly
ĠH orthy
eszt in
Ġfelt Å±nt
ald i
Ġell op
Ġfund amental
M c
ĠE RA
ĠW as
ĠSz Ã³
ĠEl m
ĠCs ÃŃk
ĠpÃ¡tri Ã¡r
Ġk ovÃ¡cs
Ġn atur
Ġan nex
ĠC IA
Ã©v esen
ĠÃ³ korban
Ġpap i
ĠGrand e
Ġkancell Ã¡r
ĠtanÃ¡rs egÃ©d
he ld
ĠEd gar
Ġwar ned
dÃŃ sz
ĠLog an
c hel
f ont
Ġc Ã¡p
ÃŃ rek
Ġac re
ĠPark s
Ġfek v
Ġkics iny
Ġlez aj
Ġfelosz lat
P N
m aster
ĠP age
ĠCh ase
ust y
tat ni
Ġgyakor lÃ³
ĠKar ol
ĠkerÃ¼let ben
Ġc ash
il ei
oz Ã³t
ab el
ĠMar ines
Ġdep ress
ĠPar amount
Ġinform Ã¡ciÃ³k
ĠEx ecutive
ĠMal ta
ĠAct or
ĠMet all
Ġgyalog os
Ġchem istry
ĠAI DS
W A
t any
Ġun ve
Ġun iÃ³s
Ġmar os
hang z
ĠnehÃ©z sÃ©gek
Ġpros per
ĠmÅ±ford ÃŃtÃ³
c ept
r ina
est a
Ġle af
Ġab road
ĠEn ergy
itz er
Ġbur kol
ĠVel ence
ain k
Ġvit Ã©z
Ġgondol kodÃ¡s
Ġaccess ible
ol om
ud Ã³s
ĠZ ichy
Ġdarab ja
Ġâ Ļ
ĠLov ag
bizt on
ĠplÃ©bÃ¡ni atemplom
ĠT ah
og ram
ĠrÃ©g ens
Ġï¿½ï¿½ ,
Ġcompet itions
vÃ¶lgy i
ĠszigorÃº an
ĠÃ¡ltalÃ¡n osan
t eti
Ġp seud
Ġl ok
Ġpr et
ĠvÃ©g ett
Ġmagyar sÃ¡g
Ġpitch er
Ġneut ron
ĠIndepend ence
ĠCurt is
ĠG ros
Ã©rt ek
Ġap a
Ġmot ork
Ġconfir m
Ġvisszautas ÃŃtotta
Ġavo ided
ik kel
ĠC anyon
cs Ãº
ric ks
Ġszovjet ek
ĠkiadÃ¡s Ã¡ban
ĠAdela ide
Ġf arkas
Ġl ighter
ĠB onn
ĠD im
ai ba
Ġcom ics
ew ell
Ġhely ezÃ©s
Ġsw ing
Ġkedv ez
Ġkup Ã¡t
Ġunivers ities
Ġoccas ional
ĠCraw ford
ĠConstantin ople
Ġcsecs em
ĠS ever
ĠK es
ĠK Ã¶vet
Ġfir es
ked tek
Ġboy friend
mÃ©rkÅĳz Ã©sen
Ġeas ier
ĠVÃ¡ros i
ĠTig ers
iz et
Ġker este
ĠszÃ¡m olt
ĠAct ress
Ġzaj lÃ³
ĠakadÃ©m iai
itk Ã¡ra
Ġm Ã©z
ĠT otal
ĠN ept
oy s
ĠhelyszÃŃn e
Ġprogress ed
ĠzÃ¡szlÃ³ alj
Ġtiss ue
ra ul
Ġhad ak
Ġapp ly
ete in
ĠÃ¶t vÃ¶z
ĠsegÃŃt eni
ĠVal am
ĠAnt ar
ĠCart man
onta ine
Ġdepend ent
v ere
en stein
Ġp ump
Ġsz Ã¡rm
ik Ã¡bÃ³l
ĠN Ã¡polyi
Ġmed als
ĠfolyÃ³ iratok
ĠbÃ¶rtÃ¶n ben
Ġnickn ame
ĠalÃ¡t Ã¡m
D own
ĠR iley
ics i
Ġacc eler
ĠSh ield
Ġmenny ire
Ġsors a
Ñģ ÑĤ
ĠWol ver
os ak
ut i
ĠM k
ĠâĢ ĺ
Ġpr est
Ġrem in
ĠszÃ¼let Ã©se
vÃ¡ros a
ĠlakossÃ¡g ot
Ġceleb ration
ĠajÃ¡nl otta
ĠCru z
ĠSpiel berg
h and
ĠlÃ©t eznek
Ġdi ad
Ġtor z
ĠÃ¶nÃ¡llÃ³ an
ĠCom pl
ĠÃ©rint Åĳ
Ġbefoly Ã¡sa
Ġdisp at
test vÃ©re
Ġt Ã©t
Ġrev ival
Ġsepar ation
ugu ay
S c
Ġs tern
ig ger
ĠK em
Ġle h
Ġtel e
ĠMar ian
ĠAd y
ĠMeg a
ĠVer onica
Ġ178 3
ĠpozÃŃciÃ³ t
Ġkiterjed Ã©sÅ±
ĠlegÃ©ny sÃ©g
Ġszubtr Ã³pusi
ed nek
ĠprÃ³b Ã¡ltÃ¡k
oid s
ĠfelvÃ©tel ek
Ġbelief s
ĠTeh Ã¡t
Ġm ah
Ġb ib
Ġbe ir
ĠW ings
av ian
ĠEz ekben
Ġup coming
Ġcol ours
ĠdebÃ¼t Ã¡lÃ³
Ġkincst Ã¡r
Ġc attle
ĠSt art
Ġtr uly
Ġhim n
Ġterm Ã©s
ĠNy ik
Ġref ere
ĠMon th
ĠNev ada
ĠMos elle
Ġlabor atory
ĠszÃ¡mÅ± zet
ro up
om ed
ĠrÃ©sz Ã¼k
Ã¡rt ya
Ġsiker Ã©t
ĠkÃ¶t Ã¶tte
Ġfok oz
Ġr ett
rom os
ĠO w
Ġnot iced
Ġind igenous
ĠvÃ¡lt Ã³
Ġgr Ã³
Ġed zÃ©s
ĠeredmÃ©ny eit
Ġkif oszt
Ġkill er
Ġlap s
ĠPort s
ĠPet r
ĠVas as
Ġcompos itions
Ġbatter ies
ĠMob ile
Ġs inking
at jÃ¡k
ĠS r
ĠH ern
ĠI celand
Ġalbum uk
ĠvÃŃz zel
ĠszolgÃ¡l ta
Ġzaj lik
Ġdefend ers
ĠSci ences
ĠJama ica
ĠCapit ol
Ġkolost ort
R O
Ġm aps
ĠM ez
Ġamely ekben
ĠhÃ¡z zal
ĠirÃ¡ny ÃŃtÃ¡sÃ¡t
ĠPan ama
f Ã¼
Ġa est
Ġt in
Ġany ai
ĠÃ¶ssze Ã¡ll
onn ell
Ġmarad nak
Ġeast ward
ĠkÃ³rhÃ¡z ban
tÃ¡b l
Ġfelgy Ãºjt
Ġp od
ĠC ed
ĠL af
Ġtart va
Ġlehet ne
Ġegyes ek
ĠmÃ¡sod szor
ĠJer emy
ĠÃ¶r vend
oktat Ã¡s
Ġw ound
ĠS ep
ter et
ĠR IA
ĠG lee
ĠW ang
ĠSz ocialista
ĠPer th
ĠgrÃ³f ja
f ejt
ad jÃ¡k
oz o
Ġfel em
ĠCh op
Ġman Åĳ
Ġorgan isms
Ġfed eztÃ©k
Ġord inary
work s
ĠvalÃ³s ult
T O
Ġl un
ĠR ox
ĠfÅĳ iskolai
ĠÃ¡t kel
Ġgu ests
Ġjegy zet
ĠLind a
ĠVl agy
ot Ã³p
Ġegy sÃ©ge
Ġcs avar
az ek
Ġszerep Ã©ben
ĠkÃŃsÃ©r Åĳ
ĠlÃ¡thatÃ³ ak
ĠÅĳr nagy
Ġnyilatkoz ta
Ġsikertelen Ã¼l
ĠpartbÃŃr Ã³kÃ©nt
Ġs a
Ã³ hoz
ĠS N
ĠH M
ĠK ep
ĠD id
Ġsupport s
Ġmark ing
Ġelismer Ã©st
ĠmÅ±vel et
emÅ± vÃ©sz
ĠtÃ¼zÃ©r sÃ©gi
szabad sÃ¡g
ĠtanÃº sÃ¡ga
ĠProtest ant
ĠGust av
U C
Ã į
Ġt izenn
Ġp appÃ¡
ok ig
Ġstr and
ĠrÃ©sze in
ĠbeszÃ©l ni
Ġfelfed ezett
ĠCL M
ĠN atal
red it
Ġdep uty
Ġocc urring
Ġlic ense
ĠWell ington
Ġrestrict ions
Ġh urt
Ġfel old
ny ira
Ġalak jÃ¡t
Ġmoz ifilm
Ġang liai
Ġterv ezÃ©s
szÃ©k i
pi ece
Ġtim ber
Ġmurd ered
Ã©s Ã©Ã©rt
Ġo t
Ġw ake
ro at
ĠM ix
ĠZ Ã¼r
Ġelv on
Ġdeb ris
ĠSm ack
ĠÅ±r eszkÃ¶z
[...]
