{"<s>":0,"<pad>":1,"</s>":2,"<unk>":3,"<mask>":4,"!":5,"\"":6,"#":7,"$":8,"%":9,"&":10,"'":11,"(":12,")":13,"*":14,"+":15,",":16,"-":17,".":18,"/":19,"0":20,"1":21,"2":22,"3":23,"4":24,"5":25,"6":26,"7":27,"8":28,"9":29,":":30,";":31,"<":32,"=":33,">":34,"?":35,"@":36,"A":37,"B":38,"C":39,"D":40,"E":41,"F":42,"G":43,"H":44,"I":45,"J":46,"K":47,"L":48,"M":49,"N":50,"O":51,"P":52,"Q":53,"R":54,"S":55,"T":56,"U":57,"V":58,"W":59,"X":60,"Y":61,"Z":62,"[":63,"\\":64,"]":65,"^":66,"_":67,"`":68,"a":69,"b":70,"c":71,"d":72,"e":73,"f":74,"g":75,"h":76,"i":77,"j":78,"k":79,"l":80,"m":81,"n":82,"o":83,"p":84,"q":85,"r":86,"s":87,"t":88,"u":89,"v":90,"w":91,"x":92,"y":93,"z":94,"{":95,"|":96,"}":97,"~":98,"¡":99,"¢":100,"£":101,"¤":102,"¥":103,"¦":104,"§":105,"¨":106,"©":107,"ª":108,"«":109,"¬":110,"®":111,"¯":112,"°":113,"±":114,"²":115,"³":116,"´":117,"µ":118,"¶":119,"·":120,"¸":121,"¹":122,"º":123,"»":124,"¼":125,"½":126,"¾":127,"¿":128,"À":129,"Á":130,"Â":131,"Ã":132,"Ä":133,"Å":134,"Æ":135,"Ç":136,"È":137,"É":138,"Ê":139,"Ë":140,"Ì":141,"Í":142,"Î":143,"Ï":144,"Ð":145,"Ñ":146,"Ò":147,"Ó":148,"Ô":149,"Õ":150,"Ö":151,"×":152,"Ø":153,"Ù":154,"Ú":155,"Û":156,"Ü":157,"Ý":158,"Þ":159,"ß":160,"à":161,"á":162,"â":163,"ã":164,"ä":165,"å":166,"æ":167,"ç":168,"è":169,"é":170,"ê":171,"ë":172,"ì":173,"í":174,"î":175,"ï":176,"ð":177,"ñ":178,"ò":179,"ó":180,"ô":181,"õ":182,"ö":183,"÷":184,"ø":185,"ù":186,"ú":187,"û":188,"ü":189,"ý":190,"þ":191,"ÿ":192,"Ā":193,"ā":194,"Ă":195,"ă":196,"Ą":197,"ą":198,"Ć":199,"ć":200,"Ĉ":201,"ĉ":202,"Ċ":203,"ċ":204,"Č":205,"č":206,"Ď":207,"ď":208,"Đ":209,"đ":210,"Ē":211,"ē":212,"Ĕ":213,"ĕ":214,"Ė":215,"ė":216,"Ę":217,"ę":218,"Ě":219,"ě":220,"Ĝ":221,"ĝ":222,"Ğ":223,"ğ":224,"Ġ":225,"ġ":226,"Ģ":227,"ģ":228,"Ĥ":229,"ĥ":230,"Ħ":231,"ħ":232,"Ĩ":233,"ĩ":234,"Ī":235,"ī":236,"Ĭ":237,"ĭ":238,"Į":239,"į":240,"İ":241,"ı":242,"Ĳ":243,"ĳ":244,"Ĵ":245,"ĵ":246,"Ķ":247,"ķ":248,"ĸ":249,"Ĺ":250,"ĺ":251,"Ļ":252,"ļ":253,"Ľ":254,"ľ":255,"Ŀ":256,"ŀ":257,"Ł":258,"ł":259,"Ń":260,"Ġa":261,"Ã¡":262,"Ã©":263,"Ġt":264,"Ġ,":265,"er":266,"in":267,"he":268,"en":269,"Ġ.":270,"el":271,"Ġs":272,"on":273,"an":274,"at":275,"Ġm":276,"or":277,"et":278,"es":279,"Ġthe":280,"al":281,"Ġf":282,"ed":283,"is":284,"Ġk":285,"ar":286,"Ã¶":287,"Ġh":288,"Ã³":289,"Ġb":290,"gy":291,"Åĳ":292,"Ã©s":293,"Ġc":294,"Ġo":295,"Ġw":296,"it":297,"as":298,"Ġp":299,"Ġv":300,"re":301,"ol":302,"ĠA":303,"Ġn":304,"Ġl":305,"Ġan":306,"Ġ1":307,"Ġin":308,"ek":309,"ro":310,"Ġe":311,"ak":312,"Ġd":313,"Ġof":314,"ÃŃ":315,"sz":316,"ing":317,"il":318,"ot":319,"Ġand":320,"Ġsz":321,"eg":322,"Ã¡l":323,"em":324,"ic":325,"Ã¼":326,"Ġto":327,"ĠS":328,"ad":329,"Ã¡n":330,"us":331,"os":332,"Ã¡r":333,"Ġaz":334,"Ã¡s":335,"om":336,"ĠÃ©s":337,"ĠT":338,"ut":339,"Ġr":340,"ĠM":341,"ent":342,"ik":343,"ion":344,"ur":345,"am":346,"ok":347,"Ġel":348,"ban":349,"Ã©n":350,"ul":351,"ĠB":352,"ett":353,"un":354,"ig":355,"ĠC":356,"ez":357,"ly":358,"Ã¼l":359,"Ã¡t":360,"ben":361,"Ġis":362,"Ġ\"":363,"Ã©g":364,"id":365,"ir":366,"ap":367,"Ġ2":368,"Ġ(":369,"Ġth":370,"Ãº":371,"ec":372,"Ġ19":373,"Ġ)":374,"ac":375,"Ġg":376,"ÃŃt":377,"ĠH":378,"Ġal":379,"ĠkÃ¶":380,"ĠE":381,"ott":382,"iv":383,"ag":384,"Ã©r":385,"ĠI":386,"ter":387,"ĠP":388,"Ġ@":389,"im":390,"Ġj":391,"Ġegy":392,"bb":393,"Ã¡g":394,"oz":395,"Ġmeg":396,"Ġwas":397,"Ġre":398,"âĢ":399,"Ġfor":400,"ev":401,"ĠL":402,"ĠF":403,"Ã©t":404,"Å±":405,"ĠK":406,"ĠR":407,"Ġon":408,"le":409,"zt":410,"ĠD":411,"Ã©k":412,"Ġ'":413,"ĠN":414,"tt":415,"ĠG":416,"ĠâĢ":417,"ra":418,"00":419,"Ã©l":420,"agy":421,"Ġ@-":422,"Ġ@-@":423,"Ġhe":424,"est":425,"ers":426,"um":427,"ĠJ":428,"ai":429,"Ġst":430,"int":431,"st":432,"ĠThe":433,"Ġbe":434,"art":435,"ow":436,"od":437,"aj":438,"Ã¡k":439,"Ġas":440,"ay":441,"Ã©p":442,"ith":443,"ep":444,"th":445,"ch":446,"olt":447,"ja":448,"end":449,"sÃ©g":450,"Ġfel":451,"ĠW":452,"av":453,"Ã©sz":454,"ber":455,"Ġwh":456,"Ġwith":457,"ud":458,"Ġcs":459,"ation":460,"and":461,"rom":462,"Ġthat":463,"Ã³l":464,"ia":465,"ug":466,"ta":467,"Ã©v":468,"ill":469,"og":470,"ĠkÃ¶z":471,"ere":472,"ov":473,"ab":474,"ce":475,"ell":476,"Ã¡ny":477,"Ġho":478,"Ġby":479,"ont":480,"ri":481,"ely":482,"Ġit":483,"ĠO":484,"Ã¡ll":485,"Ġam":486,"cs":487,"Ã¶r":488,"Ã¡z":489,"Ġvolt":490,"op":491,"ĠV":492,"iz":493,"az":494,"ist":495,"Ã¡m":496,"Ã©ny":497,"Ġhogy":498,"ci":499,"Ġszer":500,"Åĳl":501,"ort":502,"Ġpro":503,"all":504,"Ġde":505,"ess":506,"Ġnem":507,"if":508,"up":509,"Ġor":510,"sÃ¡g":511,"Ġle":512,"Ã¡lt":513,"ny":514,"Ġhis":515,"te":516,"nak":517,"ni":518,"ct":519,"Ġat":520,"Ġ18":521,"ain":522,"ĠâĢĵ":523,"ard":524,"und":525,"Ġfrom":526,"nek":527,"Ã¶tt":528,"ip":529,"Ġ:":530,"ĠU":531,"Ã¡ban":532,"ran":533,"Ġ3":534,"Ġ20":535,"Ġcom":536,"ich":537,"Ã¡b":538,"ect":539,"ew":540,"att":541,"ong":542,"ind":543,"Ġ200":544,"igh":545,"ĠIn":546,"Ġcon":547,"ĠAz":548,"Ã¶n":549,"Ġhad":550,"ant":551,"ult":552,"ies":553,"Ã¶l":554,"ros":555,"egy":556,"Ġad":557,"Ġki":558,"for":559,"ub":560,"Ġwere":561,"qu":562,"Ġak":563,"mer":564,"ear":565,"Ġut":566,"Ġpl":567,"Ġny":568,"Ġter":569,"Ġgy":570,"Ġex":571,"szer":572,"Ġ-":573,"ĠÃ©v":574,"ĠÃº":575,"ang":576,"ate":577,"sÅĳ":578,"Ã©rt":579,"Ã¡ly":580,"ond":581,"hat":582,"len":583,"se":584,"pl":585,"Ã¼lt":586,"Ġch":587,"ast":588,"ĠSz":589,"ve":590,"het":591,"ÃŃr":592,"ĠSt":593,"ver":594,"ej":595,"Ġ201":596,"ity":597,"Ġsh":598,"oc":599,"ated":600,"Ã©ben":601,"ugh":602,"out":603,"Ã¶s":604,"ive":605,"ack":606,"Ġleg":607,"ĠÃ¡ll":608,"uk":609,"ost":610,"ame":611,"our":612,"Ġsp":613,"Ġhas":614,"Ġ4":615,"Ġ;":616,"Ã¶k":617,"rit":618,"oll":619,"vet":620,"szÃ¡g":621,"Ġar":622,"ian":623,"ember":624,"Ġez":625,"Ã¼let":626,"szt":627,"esz":628,"alm":629,"Ã¡v":630,"Ã¶z":631,"Ġjel":632,"ĠCh":633,"ust":634,"ĠelÅĳ":635,"Ġ5":636,"ĠÃ":637,"Ġwhich":638,"Ġker":639,"kor":640,"Ġid":641,"Ġer":642,"oly":643,"uc":644,"Ã©nt":645,"her":646,"ine":647,"Ġem":648,"ĠszÃ¡m":649,"Ġtel":650,"Ġare":651,"Ġhely":652,"ord":653,"Ã¡j":654,"ally":655,"Ã¡ra":656,"Ġnot":657,"Ġpr":658,"Ã³k":659,"Åĳk":660,"Ġnagy":661,"Ġy":662,"ezet":663,"ight":664,"agyar":665,"eszt":666,"ass":667,"ette":668,"Ã¶bb":669,"Ġz":670,"ment":671,"Ġvis":672,"Ã¡ros":673,"ary":674,"Ġun":675,"ert":676,"Ġher":677,"Ġint":678,"ĠAn":679,"Ġhat":680,"ĠvÃ©g":681,"ĠAl":682,"ÃŃtott":683,"oul":684,"oun":685,"Ġse":686,"ff":687,"ous":688,"Ġen":689,"Ġval":690,"ÃŃn":691,"so":692,"ore":693,"ilm":694,"ave":695,"ba":696,"zet":697,"eket":698,"kez":699,"ld":700,"Ġtart":701,"Ã¡sa":702,"ony":703,"Ã¡nak":704,"Ã©m":705,"any":706,"Ġrend":707,"Ġ199":708,"ĠelsÅĳ":709,"pr":710,"Ã³d":711,"ork":712,"ajd":713,"Ġ6":714,"ĠmÃ¡s":715,"ish":716,"ÃŃv":717,"Ġnev":718,"Ġkor":719,"Ġper":720,"Ġinc":721,"Ã¼k":722,"ei":723,"ry":724,"hoz":725,"ĠÃ©l":726,"ould":727,"Ġbut":728,"fter":729,"pp":730,"Ġfir":731,"ge":732,"ther":733,"Ġmag":734,"ru":735,"ark":736,"ĠmÃ¡r":737,"be":738,"Ġamely":739,"ĠtÃ¶bb":740,"Ã©re":741,"elt":742,"hen":743,"Ġro":744,"ire":745,"old":746,"ĠtÃ¶r":747,"orszÃ¡g":748,"ide":749,"ign":750,"ure":751,"ions":752,"Ġab":753,"ĠrÃ©sz":754,"ne":755,"ĠfÅĳ":756,"asz":757,"ĠmÅ±":758,"olg":759,"Ã©se":760,"ĠTh":761,"wo":762,"Ġmind":763,"ĠkÃ¶zÃ¶tt":764,"per":765,"Ġkap":766,"Ġcl":767,"mÅ±":768,"Ġfirst":769,"Ã©nek":770,"ater":771,"ĠutÃ¡n":772,"ib":773,"ue":774,"ĠHe":775,"Ġpart":776,"ĠÃ¡t":777,"Ġtheir":778,"Ġits":779,"Åĳs":780,"Ġ7":781,"man":782,"Ã©d":783,"unk":784,"ob":785,"ical":786,"Ġtan":787,"age":788,"ome":789,"Ġ17":790,"Ġres":791,"Ġalso":792,"okat":793,"Ã¶v":794,"cc":795,"ĠÃ©r":796,"Ġmint":797,"Ġvagy":798,"hed":799,"Ġfilm":800,"ence":801,"ens":802,"ĠÃºj":803,"ial":804,"alÃ¡l":805,"ime":806,"Ã¡d":807,"Ġ8":808,"ĠâĢĿ":809,"Ġrel":810,"Ġcont":811,"ĠkÃ©t":812,"zÅĳ":813,"kel":814,"eb":815,"ever":816,"ked":817,"Ġus":818,"ĠâĢŀ":819,"ach":820,"ors":821,"ie":822,"Ã©ly":823,"ikus":824,"elm":825,"own":826,"eti":827,"ĠY":828,"Ã¶ssz":829,"Ġmely":830,"Ġbec":831,"ept":832,"Ġser":833,"ile":834,"ĠÃ©p":835,"Ġone":836,"Ã¡sz":837,"Ġrec":838,"je":839,"Ġhave":840,"Ġag":841,"Ã¡val":842,"ĠkÃ¼l":843,"va":844,"aszt":845,"port":846,"ilÃ¡g":847,"ciÃ³":848,"Ġkez":849,"Ġmajd":850,"Ã¡bb":851,"Ġellen":852,"koz":853,"ĠZ":854,"Ġjelent":855,"Ġ@.":856,"Ġ@.@":857,"Ġlett":858,"Ġ9":859,"ĠcÃŃ":860,"Ġall":861,"Ġsor":862,"eng":863,"ice":864,"ĠMar":865,"Ġtwo":866,"ĠEz":867,"Ã¡st":868,"Ġind":869,"Ġ15":870,"eny":871,"Ã¡rt":872,"Ġwho":873,"na":874,"Ġdis":875,"Ġte":876,"Ġcsak":877,"ĠkÃ¶r":878,"act":879,"uring":880,"ition":881,"Ġ198":882,"enc":883,"land":884,"ĠIt":885,"Ġim":886,"The":887,"ric":888,"Ġbeen":889,"ough":890,"ern":891,"ĠÃ¶ssz":892,"Ġmi":893,"bÃ³l":894,"hatÃ³":895,"elÅĳ":896,"Ġsc":897,"ĠkÃ¶vet":898,"hÃ¡z":899,"Ġ@,":900,"Ġ@,@":901,"Ġtr":902,"oh":903,"Ġes":904,"urn":905,"ĠAr":906,"Ġthis":907,"Ġmagyar":908,"Ġbet":909,"Ġalap":910,"kal":911,"ĠUn":912,"Ġ16":913,"ĠkÃ©p":914,"Ġyear":915,"ikai":916,"lud":917,"ace":918,"ĠEgy":919,"uch":920,"ound":921,"Ã³t":922,"Ġazon":923,"Ã¶ld":924,"Ġoff":925,"li":926,"obb":927,"nÃ¡l":928,"Ġdes":929,"Ġatt":930,"Ġbel":931,"Ġup":932,"Ġafter":933,"âĢĵ":934,"amp":935,"ered":936,"Ġout":937,"ory":938,"Ã¡zad":939,"ade":940,"Ġ10":941,"Ġ194":942,"Ġplay":943,"Ġover":944,"Ġcomp":945,"Ġ197":946,"Ġdec":947,"nok":948,"hez":949,"ations":950,"Ġapp":951,"one":952,"osz":953,"ĠjÃ¡t":954,"Ġthey":955,"Ġfog":956,"ĠmÃ©g":957,"irÃ¡ly":958,"mÃ©ny":959,"ÃŃtett":960,"oy":961,"Ã¼lÃ©s":962,"Ġped":963,"Ã¡rs":964,"ÃŃtÃ¡s":965,"ree":966,"19":967,"ozat":968,"Ġev":969,"iss":970,"evel":971,"Ġfoly":972,"iÃ³":973,"aw":974,"Ġ12":975,"Ġkezd":976,"ĠEn":977,"Åĳbb":978,"iszt":979,"ï¿":980,"ï¿½":981,"Ã©z":982,"Ã©vel":983,"eas":984,"lÃ³":985,"ily":986,"omÃ¡ny":987,"Ġinter":988,"esen":989,"Ġwould":990,"ents":991,"Ġinclud":992,"ĠvÃ¡lt":993,"bÅĳl":994,"ite":995,"Ġpedig":996,"Ġvissz":997,"ons":998,"Ġ196":999,"000":1000,"ÃŃz":1001,"Ġvan":1002,"kÃ©nt":1003,"ĠÃ¼":1004,"Ã¡bor":1005,"Ġhim":1006,"Ġszerint":1007,"Ġtime":1008,"Ġpre":1009,"ward":1010,"ĠvilÃ¡g":1011,"Ġinto":1012,"form":1013,"let":1014,"Ġfe":1015,"ft":1016,"bum":1017,"Ġtud":1018,"hetÅĳ":1019,"Ġtelep":1020,"les":1021,"tat":1022,"Ġkis":1023,"ĠÅĳ":1024,"wn":1025,"Ġah":1026,"tak":1027,"kÃ¶":1028,"Ġshe":1029,"ezt":1030,"mÃ¡ny":1031,"Ã©st":1032,"zs":1033,"utat":1034,"pt":1035,"ates":1036,"red":1037,"ĠÃŃr":1038,"we":1039,"ited":1040,"Ġcsap":1041,"ranc":1042,"Ġalk":1043,"alom":1044,"ĠszÃ¡zad":1045,"Ġlak":1046,"Ġfi":1047,"Ġne":1048,"jÃ¡k":1049,"erm":1050,"ount":1051,"ans":1052,"ath":1053,"Ġother":1054,"Ġszem":1055,"ebb":1056,"Ã©sÅĳbb":1057,"Ã¡ltal":1058,"alt":1059,"ood":1060,"Ġform":1061,"jel":1062,"fer":1063,"ics":1064,"ĠÃŃ":1065,"orn":1066,"kÃ¶z":1067,"ĠEl":1068,"Ġcomm":1069,"Az":1070,"ance":1071,"rough":1072,"Ġmar":1073,"abb":1074,"ĠvÃ¡ros":1075,"ellett":1076,"Ġwe":1077,"Ã¡lis":1078,"Ġ14":1079,"Åĳd":1080,"Ġ195":1081,"ium":1082,"ild":1083,"ick":1084,"ĠvÃ¡l":1085,"use":1086,"Ġ13":1087,"rod":1088,"ied":1089,"ou":1090,"ton":1091,"Ġegyik":1092,"Ġmore":1093,"tÃ©n":1094,"Ġhar":1095,"hes":1096,"Ġalbum":1097,"ubl":1098,"Ġwork":1099,"son":1100,"rop":1101,"uszt":1102,"Ġany":1103,"Ġszerep":1104,"elv":1105,"ĠNew":1106,"Ġill":1107,"Ġreg":1108,"ram":1109,"ction":1110,"Ġmin":1111,"ings":1112,"enn":1113,"vel":1114,"ail":1115,"Ġrem":1116,"ata":1117,"asÃ¡g":1118,"ezett":1119,"kol":1120,"Ġnew":1121,"res":1122,"ĠnÃ©":1123,"jÃ¡t":1124,"Ġfin":1125,"Ġfl":1126,"ĠterÃ¼let":1127,"Ã³n":1128,"Ġso":1129,"Ġpol":1130,"ral":1131,"io":1132,"Ġmost":1133,"Ġsec":1134,"Ġterm":1135,"Ã¡sok":1136,"leg":1137,"tÅĳl":1138,"ict":1139,"iai":1140,"way":1141,"ey":1142,"ĠkirÃ¡ly":1143,"ĠkÃ©sz":1144,"ĠÃ¡ltal":1145,"ose":1146,"ron":1147,"ozott":1148,"Ġwhen":1149,"ĠÃŃgy":1150,"lt":1151,"able":1152,"Ġig":1153,"Ġprod":1154,"Ã¶t":1155,"Ġcons":1156,"oth":1157,"ah":1158,"ock":1159,"ĠAmer":1160,"Ġazonban":1161,"orth":1162,"szak":1163,"Ġ11":1164,"ason":1165,"Ġcent":1166,"vi":1167,"Ġered":1168,"Ġ193":1169,"ĠtalÃ¡l":1170,"anu":1171,"ani":1172,"Ã³g":1173,"Ġvers":1174,"ake":1175,"Ġvezet":1176,"tain":1177,"anc":1178,"Ġfej":1179,"ĠLe":1180,"ĠidÅĳ":1181,"tern":1182,"reat":1183,"omm":1184,"oss":1185,"etlen":1186,"Ġ000":1187,"Ġund":1188,"Ġvalam":1189,"Ã©met":1190,"ĠkÃ¼lÃ¶n":1191,"Ġacc":1192,"ezÅĳ":1193,"Ã¡ba":1194,"Ġaki":1195,"Ġok":1196,"ann":1197,"enek":1198,"Ã¡rm":1199,"fi":1200,"Åĳz":1201,"Ġtag":1202,"itt":1203,"pen":1204,"Ġduring":1205,"hely":1206,"Ġi":1207,"jÃ¡n":1208,"ezte":1209,"als":1210,"ved":1211,"isz":1212,"Ġagain":1213,"Ã¶lt":1214,"ĠAs":1215,"Ġstr":1216,"ĠÃ©rt":1217,"ĠlÃ¡t":1218,"ekkel":1219,"ĠvalÃ³":1220,"ĠkÃ©sÅĳbb":1221,"Ã¡ciÃ³":1222,"ezÃ©s":1223,"Ġthem":1224,"round":1225,"are":1226,"ĠÃ³":1227,"hip":1228,"Ġonly":1229,"atal":1230,"ivel":1231,"ween":1232,"rib":1233,"Ġmunk":1234,"Ġthan":1235,"rancia":1236,"ikor":1237,"ĠtelepÃ¼lÃ©s":1238,"ari":1239,"Ġalak":1240,"odik":1241,"Ġret":1242,"Ġir":1243,"Ġtem":1244,"Ġhasz":1245,"outh":1246,"jt":1247,"ĠszÃŃn":1248,"Ġco":1249,"Ġahol":1250,"tÃ¡k":1251,"Ġsup":1252,"ech":1253,"ational":1254,"ogat":1255,"Ã¼n":1256,"Ã©ter":1257,"ollow":1258,"Ġep":1259,"Ã¼tt":1260,"ener":1261,"ement":1262,"Ġbu":1263,"Ġpar":1264,"eptember":1265,"Ġpo":1266,"Ġcsapat":1267,"Ã³p":1268,"Ġabout":1269,"ĠMagyar":1270,"Ã¡ro":1271,"Ã¡rom":1272,"Ġgame":1273,"Ġalatt":1274,"aid":1275,"eli":1276,"Ġ192":1277,"Ġlater":1278,"fore":1279,"alÃ¡d":1280,"ĠlÃ©t":1281,"Ġold":1282,"orm":1283,"ĠII":1284,"Ġchar":1285,"Ġbetween":1286,"ÃŃtÃ©s":1287,"ĠSp":1288,"ĠkerÃ¼lt":1289,"Ġsong":1290,"Ġmill":1291,"Ġnap":1292,"tÃ³":1293,"alk":1294,"Ġqu":1295,"Ġkn":1296,"Ġear":1297,"Ã¡borÃº":1298,"Ġthree":1299,"ossz":1300,"Ġsem":1301,"Ġbo":1302,"Ġsur":1303,"ĠtÃ¶rtÃ©n":1304,"onal":1305,"omb":1306,"ï¿½ï¿½":1307,"gyan":1308,"ike":1309,"ĠÃģ":1310,"Ġ191":1311,"osan":1312,"Ġact":1313,"Ġend":1314,"gat":1315,"orld":1316,"aint":1317,"ĠSh":1318,"Ġsik":1319,"ph":1320,"Ġthrough":1321,"ete":1322,"Ġbeg":1323,"Ã¡si":1324,"fel":1325,"Ġnum":1326,"Ã©szt":1327,"ames":1328,"ĠcÃŃmÅ±":1329,"pont":1330,"Ġwhile":1331,"Ã³z":1332,"Ġazt":1333,"ĠAmeric":1334,"Ġkat":1335,"Ġsok":1336,"Ġreleas":1337,"Ã¡ja":1338,"ĠBr":1339,"Åĳr":1340,"Ã¡sÃ¡t":1341,"Ġbar":1342,"ĠegyÃ¼tt":1343,"ull":1344,"ajnok":1345,"ĠJoh":1346,"Ã¶nt":1347,"Ġ0":1348,"nÃ¶k":1349,"Ġmiatt":1350,"Ġspec":1351,"tek":1352,"Ġadd":1353,"Ġmod":1354,"In":1355,"ters":1356,"rÃ³l":1357,"Ġtelj":1358,"ĠCl":1359,"ery":1360,"ular":1361,"Ġdef":1362,"ovember":1363,"der":1364,"Ġsub":1365,"Ġbas":1366,"ink":1367,"elet":1368,"Ġeg":1369,"Ġur":1370,"ĠjÃº":1371,"Ġdo":1372,"ĠÃ©vek":1373,"pril":1374,"Ġday":1375,"cess":1376,"Ã¶g":1377,"Ġbl":1378,"irt":1379,"Ġwhere":1380,"Ġsecond":1381,"Ġismer":1382,"Ġember":1383,"ĠorszÃ¡g":1384,"ating":1385,"Ġami":1386,"Ġhigh":1387,"Ġgr":1388,"Ġrep":1389,"Ġminden":1390,"ĠcsalÃ¡d":1391,"ati":1392,"Ã¡ri":1393,"Ġmade":1394,"air":1395,"utÃ¡n":1396,"ived":1397,"tÃ³l":1398,"rend":1399,"ten":1400,"ix":1401,"Ġu":1402,"essÃ©g":1403,"Ġszak":1404,"azd":1405,"Ã©ld":1406,"Ġaut":1407,"ins":1408,"ĠmÃ©r":1409,"Ġfour":1410,"Ġpubl":1411,"ĠOn":1412,"vÃ¡bb":1413,"zett":1414,"Ġmegy":1415,"ĠtovÃ¡bb":1416,"ex":1417,"Ġrecord":1418,"val":1419,"sor":1420,"lal":1421,"Ġsome":1422,"elem":1423,"Ġmet":1424,"Ġbi":1425,"Ġlehet":1426,"ision":1427,"Ġpe":1428,"ool":1429,"Ã©tel":1430,"ĠtÃ¡m":1431,"ĠÃī":1432,"Ġmov":1433,"Ġseason":1434,"Ġsuch":1435,"ren":1436,"fog":1437,"Ġbefore":1438,"ished":1439,"Ġol":1440,"Ġfollow":1441,"almaz":1442,"Ġ/":1443,"ll":1444,"Ġunder":1445,"etem":1446,"ale":1447,"Ã¡bÃ³l":1448,"ank":1449,"ĠjÃ¡tÃ©k":1450,"Ġmon":1451,"ress":1452,"ĠmÃ¡sodik":1453,"Ġthere":1454,"Ġfal":1455,"ury":1456,"Ġhaj":1457,"Ġkm":1458,"Ġhal":1459,"ier":1460,"szerÅ±":1461,"Ġvalamint":1462,"ected":1463,"ÃŃtotta":1464,"kÃ¶d":1465,"Ġwrit":1466,"otta":1467,"ĠÃ©let":1468,"tel":1469,"Ġmus":1470,"ĠnÃ©p":1471,"Ã³i":1472,"vÃ¡n":1473,"ific":1474,"tet":1475,"ĠJohn":1476,"Ġteam":1477,"Ġlar":1478,"Ġgro":1479,"Ġmen":1480,"ogy":1481,"Ġsy":1482,"rÅĳl":1483,"sel":1484,"vezet":1485,"owever":1486,"usz":1487,"Ġme":1488,"ford":1489,"Ġent":1490,"ki":1491,"ise":1492,"ars":1493,"Ġcan":1494,"nÅĳ":1495,"ĠhÃ¡rom":1496,"Ġyears":1497,"sp":1498,"ode":1499,"vÃ©sz":1500,"ĠGy":1501,"ĠThis":1502,"ĠpÃ©ld":1503,"ĠBl":1504,"Ġszab":1505,"adt":1506,"ĠBrit":1507,"Ġcall":1508,"emÃ©ny":1509,"af":1510,"ley":1511,"ĠkÃ¶vetkez":1512,"Ġtra":1513,"Ġ25":1514,"ĠAm":1515,"ĠnÃ©met":1516,"Ġeml":1517,"Ġused":1518,"ober":1519,"csol":1520,"lan":1521,"orszÃ¡gban":1522,"ĠCs":1523,"Ġszint":1524,"fl":1525,"szÃ¶r":1526,"ax":1527,"ainak":1528,"Ġ30":1529,"atok":1530,"Ã³m":1531,"Ġinv":1532,"Ġseg":1533,"ual":1534,"eld":1535,"Ġepis":1536,"ettÃ©k":1537,"Ġbeing":1538,"Ã³ja":1539,"ĠAt":1540,"ized":1541,"Ġthen":1542,"Ġloc":1543,"Ġillet":1544,"ebru":1545,"Ġman":1546,"inek":1547,"ection":1548,"ĠkÃ¶zsÃ©g":1549,"Ġoly":1550,"Ġhoz":1551,"Ġmat":1552,"jÃ¡r":1553,"ower":1554,"ef":1555,"omp":1556,"ird":1557,"Ġnyelv":1558,"ĠcÃŃm":1559,"Ã¡cs":1560,"Ġnemzet":1561,"kÃ©p":1562,"Ġshow":1563,"ina":1564,"Ġpolit":1565,"Ãºl":1566,"Ġmellett":1567,"ĠegÃ©sz":1568,"Ġed":1569,"eni":1570,"Ġno":1571,"Ġap":1572,"ince":1573,"Ġagainst":1574,"Ġsiker":1575,"Ġvon":1576,"inn":1577,"other":1578,"ped":1579,"ĠInd":1580,"vis":1581,"sal":1582,"ĠBud":1583,"ash":1584,"ĠAd":1585,"Ġdep":1586,"ĠOr":1587,"ĠX":1588,"sÃ³":1589,"Ġnumber":1590,"ĠnÃ©v":1591,"Ġgyak":1592,"ĠUnited":1593,"ather":1594,"bl":1595,"Ãºt":1596,"Ġpres":1597,"vÃ¡ny":1598,"olÃ³g":1599,"Ġbecame":1600,"Ġdr":1601,"ces":1602,"Ġcharac":1603,"Ġlead":1604,"ivers":1605,"Ġass":1606,"Ġhang":1607,"eh":1608,"ĠCar":1609,"Ã³s":1610,"ole":1611,"Ġtest":1612,"ause":1613,"Ã¶vet":1614,"Ġfelt":1615,"ĠhÃ¡z":1616,"urg":1617,"ĠâĢĶ":1618,"its":1619,"Ġconc":1620,"ines":1621,"Ġair":1622,"everal":1623,"ĠSc":1624,"ck":1625,"Ġ2015":1626,"ĠszÃ¡ma":1627,"Ġsing":1628,"alak":1629,"evelop":1630,"zel":1631,"urÃ³p":1632,"gg":1633,"Ġest":1634,"apest":1635,"Ġugyan":1636,"iver":1637,"vÃ©ny":1638,"rans":1639,"nyv":1640,"Ġincluding":1641,"Ġwell":1642,"adÃ¡s":1643,"Ġfound":1644,"Ġcap":1645,"Ġkon":1646,"ival":1647,"ossÃ¡g":1648,"til":1649,"ĠShe":1650,"eztÃ©k":1651,"szÃŃn":1652,"ĠAnd":1653,"Ġolyan":1654,"ĠUS":1655,"ĠsorÃ¡n":1656,"ures":1657,"Ġboth":1658,"Ġakkor":1659,"ĠâĢĻ":1660,"ottÃ¡k":1661,"Ã¡p":1662,"Ã©si":1663,"Ġback":1664,"Ġship":1665,"Ġilletve":1666,"Ġpop":1667,"Ġseries":1668,"ets":1669,"ife":1670,"Ã¡hoz":1671,"ĠIs":1672,"ĠelÅĳtt":1673,"ĠÃºgy":1674,"Ġbr":1675,"Ġoper":1676,"Ġlab":1677,"ĠjÃ¡tsz":1678,"ute":1679,"igin":1680,"ross":1681,"Ġdid":1682,"Åĳt":1683,"Ġdolg":1684,"Ġkereszt":1685,"gel":1686,"Ġsaj":1687,"Ġbiz":1688,"ozÃ³":1689,"Ġgo":1690,"Ġappear":1691,"ÃŃg":1692,"Ġigaz":1693,"Ġext":1694,"Ġcre":1695,"overn":1696,"Ġlong":1697,"Ġmegjel":1698,"Ġoszt":1699,"erv":1700,"au":1701,"ane":1702,"ĠEd":1703,"esÃ©g":1704,"sÃ©ge":1705,"Ġcar":1706,"Ġac":1707,"ait":1708,"ined":1709,"Ã©sÃ©t":1710,"Ġhossz":1711,"Ġvoltak":1712,"ĠhasznÃ¡l":1713,"hy":1714,"ĠfÃ¶ld":1715,"ĠEng":1716,"izs":1717,"ÃŃtottÃ¡k":1718,"oport":1719,"ĠEr":1720,"oszt":1721,"arm":1722,"Ġkiv":1723,"ĠjÃ¡r":1724,"Ġ190":1725,"ĠÃ©sz":1726,"Ġmegt":1727,"ged":1728,"Ġdire":1729,"ista":1730,"Ġdevelop":1731,"ĠQ":1732,"ekt":1733,"Ã¼gg":1734,"Ġdif":1735,"ĠFor":1736,"Ġepisode":1737,"Ġsl":1738,"Åĳen":1739,"Ġinst":1740,"ities":1741,"Ġcsat":1742,"Ġkapcsol":1743,"Ã¡nd":1744,"ejÃ©n":1745,"ĠkÃ¶rÃ¼l":1746,"Ġcontr":1747,"Ġsaid":1748,"ĠrÃ©g":1749,"plom":1750,"ĠPr":1751,"Ġjelen":1752,"ised":1753,"ĠirÃ¡ny":1754,"Ġbro":1755,"Ġstud":1756,"ĠSch":1757,"Ġmany":1758,"sÃ©ges":1759,"ced":1760,"Ġcould":1761,"ase":1762,"Ã©sek":1763,"Ġpos":1764,"ĠAmerican":1765,"ĠszÃ¼let":1766,"Ġtit":1767,"Ġrece":1768,"Ġ21":1769,"Ġamikor":1770,"Ġcontin":1771,"Ġob":1772,"Ġeset":1773,"Ġgener":1774,"Ġvol":1775,"ism":1776,"Ġprog":1777,"Ã¡ul":1778,"lat":1779,"Ġrendszer":1780,"Ġseveral":1781,"ÃŃtÃ³":1782,"though":1783,"ĠAust":1784,"Ġ189":1785,"Ġ]":1786,"ĠvÃ¡laszt":1787,"Ġdesc":1788,"Ġteljes":1789,"ĠWar":1790,"Ġfr":1791,"ued":1792,"Ġart":1793,"Ġvisz":1794,"emb":1795,"Å±n":1796,"ĠBar":1797,"Ġkell":1798,"Ġ24":1799,"ĠEm":1800,"Ġcompl":1801,"ful":1802,"ĠtÃ¡rs":1803,"Ã¶m":1804,"Ġzen":1805,"Ã³r":1806,"kÃ¼l":1807,"ajor":1808,"Ġvi":1809,"Ġsm":1810,"Ġ[":1811,"iam":1812,"Ġknown":1813,"ger":1814,"Ġsuc":1815,"Ġprov":1816,"emez":1817,"eth":1818,"Ġszolg":1819,"Ã¡nos":1820,"ĠÃ¡llam":1821,"ually":1822,"ĠWh":1823,"rist":1824,"ĠCon":1825,"ĠFer":1826,"ker":1827,"ĠYork":1828,"Ġbegan":1829,"vÃ©d":1830,"ident":1831,"els":1832,"Ġorigin":1833,"imes":1834,"ĠNem":1835,"Ġremain":1836,"Ġreturn":1837,"ĠLak":1838,"ĠdÃ©l":1839,"ĠFrancia":1840,"Ġ22":1841,"Ġment":1842,"ceg":1843,"osa":1844,"Ġkit":1845,"ĠAug":1846,"ean":1847,"ris":1848,"Ġproduc":1849,"Ġnear":1850,"ĠÃ¶n":1851,"enger":1852,"Ġdesign":1853,"Ãºg":1854,"ĠMay":1855,"ople":1856,"okban":1857,"ĠpÃ¡ly":1858,"my":1859,"ĠHar":1860,"ject":1861,"Ġsign":1862,"nagy":1863,"aking":1864,"ĠmÅ±kÃ¶d":1865,"Ġeff":1866,"oot":1867,"zi":1868,"Ã¼lÅĳ":1869,"ative":1870,"inc":1871,"ĠBe":1872,"ĠJul":1873,"ĠNagy":1874,"uss":1875,"Ġrun":1876,"Ġelv":1877,"Ġ2010":1878,"Ã¡nt":1879,"Åĳket":1880,"iget":1881,"une":1882,"ĠGer":1883,"Ġmusic":1884,"Ã©b":1885,"Å±r":1886,"xt":1887,"ĠdÃ¶nt":1888,"Ġuntil":1889,"ided":1890,"Ġfejl":1891,"stem":1892,"Ġown":1893,"Ġearly":1894,"ĠÃ¡":1895,"Ġ188":1896,"Ġfeat":1897,"anuÃ¡r":1898,"Ġcalled":1899,"Ġsim":1900,"Ġezt":1901,"Ġreleased":1902,"zÅĳd":1903,"Ġdist":1904,"ĠrÃ©sze":1905,"Ġwar":1906,"ontos":1907,"Ãºz":1908,"Ġitt":1909,"Ġvissza":1910,"Ġpass":1911,"haj":1912,"Ġmoz":1913,"Ġtrans":1914,"Ġjell":1915,"ĠnÅĳ":1916,"ured":1917,"ĠlÃ©p":1918,"ÃŃj":1919,"ĠkÃ¶zÃ©p":1920,"ĠkÃ¶lt":1921,"Ã³b":1922,"Ã¡sÃ¡ra":1923,"ĠnÃ©gy":1924,"Ġmed":1925,"Ġ23":1926,"irtok":1927,"Ġ100":1928,"ika":1929,"Ġmil":1930,"vers":1931,"Ġnyug":1932,"Ã©szet":1933,"Ġdown":1934,"20":1935,"Ġtiszt":1936,"Ġkil":1937,"ĠlÃ©tre":1938,"ists":1939,"ĠAfter":1940,"Ġexp":1941,"ĠjanuÃ¡r":1942,"Ġakik":1943,"ĠsajÃ¡t":1944,"iev":1945,"Ġha":1946,"ilt":1947,"Ġang":1948,"Ġif":1949,"Ġ2008":1950,"Ġresp":1951,"Ġ$":1952,"led":1953,"Ġ2011":1954,"Ġcrit":1955,"Ġfam":1956,"sÃ©get":1957,"ox":1958,"Åĳje":1959,"rap":1960,"Ġford":1961,"Ġfoglal":1962,"ĠWill":1963,"ĠÂ":1964,"Ġmillion":1965,"ĠrÃ©szt":1966,"Ġverseny":1967,"Ġalong":1968,"ĠBudapest":1969,"Ġdirect":1970,"za":1971,"ĠBritish":1972,"Ġmegsz":1973,"ÃŃtette":1974,"erikai":1975,"cial":1976,"osed":1977,"ĠvÃ¡r":1978,"ser":1979,"Ġjog":1980,"ales":1981,"ham":1982,"Ġopen":1983,"view":1984,"ÃŃvÃ¼l":1985,"Ġmagas":1986,"ange":1987,"Ġegyes":1988,"ka":1989,"Ġcoll":1990,"ook":1991,"dar":1992,"ĠhÃ¡borÃº":1993,"mÃ©r":1994,"ues":1995,"Ġtagja":1996,"Ġoffic":1997,"Ġgroup":1998,"Ġ2009":1999,"ĠÃ¶ssze":2000,"Ã¡rmaz":2001,"Ġcount":2002,"Ġide":2003,"ĠmÃ³d":2004,"tÃ³ber":2005,"ution":2006,"Ġthese":2007,"Ġkapott":2008,"ĠcÃ©l":2009,"Ã¡jus":2010,"Ġport":2011,"ĠÃ¶t":2012,"Ġland":2013,"vÃ¡ros":2014,"ĠÃ©szak":2015,"gan":2016,"cius":2017,"Ġtanul":2018,"ĠÃºt":2019,"ester":2020,"Ã¡ssal":2021,"Ġgovern":2022,"Ġmay":2023,"Ġ187":2024,"ĠAugust":2025,"hel":2026,"fÃ¶ld":2027,"ĠPh":2028,"ove":2029,"Ġtri":2030,"Ġ2007":2031,"ĠtalÃ¡lhatÃ³":2032,"Ġpers":2033,"Ġhagy":2034,"orv":2035,"Ġtemplom":2036,"Ġkaton":2037,"aced":2038,"ven":2039,"Ġzs":2040,"ĠGe":2041,"Ġ186":2042,"ended":2043,"nev":2044,"ĠszÃ¡mÃ¡ra":2045,"ha":2046,"Ġpoint":2047,"Ġdal":2048,"Ġturn":2049,"ĠezÃ©rt":2050,"yp":2051,"Ġelm":2052,"..":2053,"ĠJap":2054,"ĠhalÃ¡l":2055,"Ġhason":2056,"amed":2057,"ently":2058,"Ġharm":2059,"ially":2060,"Ġsch":2061,"ĠnÃ¶v":2062,"ekkor":2063,"Ġsuccess":2064,"ĠWorld":2065,"azdasÃ¡g":2066,"Ġgu":2067,"Ġrom":2068,"ĠvÃ©d":2069,"ekben":2070,"gest":2071,"ĠÃ©rd":2072,"Ġkar":2073,"Ġtal":2074,"szÃ¡m":2075,"gyel":2076,"ung":2077,"ĠtÃ©r":2078,"Ġdisc":2079,"get":2080,"ĠFran":2081,"ene":2082,"Ġattack":2083,"Ġstart":2084,"ĠMc":2085,"ĠvÃŃz":2086,"ĠmegyÃ©ben":2087,"ese":2088,"ĠGr":2089,"ĠSeptember":2090,"Ġsame":2091,"ĠkÃ¶zel":2092,"rel":2093,"ĠPl":2094,"ege":2095,"echn":2096,"zÃ©s":2097,"Ġbecause":2098,"Ġ28":2099,"iskol":2100,"ĠFl":2101,"Ġmegh":2102,"ler":2103,"Ġbatt":2104,"Ġpeople":2105,"ĠStates":2106,"ismer":2107,"Ġprodu":2108,"Ġmert":2109,"ney":2110,"Ġmain":2111,"ajnoksÃ¡g":2112,"wards":2113,"ĠkÃ¼lÃ¶nb":2114,"Ġhiv":2115,"usztus":2116,"elmi":2117,"ible":2118,"Ġ26":2119,"bben":2120,"Ġlike":2121,"osainak":2122,"Ġnyom":2123,"ired":2124,"ner":2125,"hÃ¡ny":2126,"Ġcharacter":2127,"nius":2128,"ĠGu":2129,"ĠmÃ¡jus":2130,"atot":2131,"ĠpÃ©ldÃ¡ul":2132,"Ġlevel":2133,"lex":2134,"med":2135,"Ġaround":2136,"lus":2137,"ĠkormÃ¡ny":2138,"ĠoktÃ³ber":2139,"Ġvide":2140,"Ġthough":2141,"raft":2142,"ĠDe":2143,"ilyen":2144,"Ġresult":2145,"Ġ27":2146,"jÃ¡ban":2147,"Ġtook":2148,"por":2149,"ĠkÃ¶zÃ¼l":2150,"Ġforr":2151,"Ã¡rÃ³l":2152,"ĠÃ¡r":2153,"almi":2154,"ĠhatÃ¡ros":2155,"ky":2156,"ĠOct":2157,"aving":2158,"Ġocc":2159,"ĠAustral":2160,"Ġprot":2161,"Ġimp":2162,"ĠSaint":2163,"Ġprogram":2164,"Ġaug":2165,"ĠsegÃŃt":2166,"Ġsorozat":2167,"Ġprom":2168,"Ġ...":2169,"ĠDec":2170,"Ġszeptember":2171,"ĠfÃ©l":2172,"Ġnorth":2173,"adÃ³":2174,"Ġserv":2175,"ĠIst":2176,"Ġ2006":2177,"nÃ©l":2178,"Ġamerikai":2179,"Ġbirtok":2180,"II":2181,"lius":2182,"Ġhist":2183,"Ġbizt":2184,"ĠLakosainak":2185,"Ġsupport":2186,"Ã¼r":2187,"ille":2188,"Ġsix":2189,"Ġconst":2190,"ĠszemÃ©ly":2191,"mus":2192,"Ġweek":2193,"Ġoldal":2194,"18":2195,"Ġelt":2196,"rat":2197,"ĠszÃ¡rmaz":2198,"Ġkl":2199,"Ã¶rÃ¶k":2200,"reg":2201,"urs":2202,"kod":2203,"ruct":2204,"used":2205,"Ġband":2206,"ĠfÃ©r":2207,"ĠszÃ¼letett":2208,"eit":2209,"ocs":2210,"ori":2211,"Ã¼gy":2212,"Ġuse":2213,"isÃ©g":2214,"ottak":2215,"olog":2216,"Ġterv":2217,"ĠCan":2218,"ÃŃtettÃ©k":2219,"Ġant":2220,"Ġreceived":2221,"prilis":2222,"Ġlist":2223,"ĠelÅĳszÃ¶r":2224,"ĠmÃ¡rcius":2225,"Ġ2012":2226,"ives":2227,"Ġdescrib":2228,"kÃ¶zi":2229,"kÅĳz":2230,"app":2231,"ĠkÃ©szÃ¼lt":2232,"Ġsystem":2233,"eken":2234,"nal":2235,"darÃºg":2236,"Ġhead":2237,"ĠjÃ³":2238,"ĠkÃ¶zsÃ©gekkel":2239,"ament":2240,"Ġconsid":2241,"eter":2242,"Ã³f":2243,"ĠSzent":2244,"ĠHowever":2245,"Ġprop":2246,"ĠKing":2247,"Ġdeb":2248,"Ġclass":2249,"Ġdem":2250,"ĠHer":2251,"Ġfollowing":2252,"Ã¡jÃ¡t":2253,"Ãºr":2254,"Ġjut":2255,"ĠfÃ¼gg":2256,"ĠOctober":2257,"okkal":2258,"Ġalkot":2259,"ĠNorth":2260,"Ġaugusztus":2261,"ourt":2262,"Ġever":2263,"vent":2264,"esÃ¼lt":2265,"ility":2266,"Ġstate":2267,"Ġbesz":2268,"Ġann":2269,"Ġsug":2270,"Ġbuild":2271,"Ġrest":2272,"Ġvett":2273,"Ġszabad":2274,"Ġfut":2275,"Ġeach":2276,"ĠhÃ¡t":2277,"ĠnÃ©ven":2278,"ĠRe":2279,"Ġmivel":2280,"Ġhozz":2281,"Ġfive":2282,"ional":2283,"ately":2284,"Ġiskol":2285,"ĠÃ©pÃŃt":2286,"ĠThey":2287,"ĠFranciaorszÃ¡gban":2288,"sh":2289,"burg":2290,"Ġsmall":2291,"iving":2292,"ĠjÃºnius":2293,"Ġcsoport":2294,"Ġmajor":2295,"kÃ©sz":2296,"ored":2297,"ĠPro":2298,"Ġarea":2299,"Ġherceg":2300,"ĠKÃ¶z":2301,"Ġdecember":2302,"ĠNovember":2303,"Ġnovember":2304,"ondon":2305,"Ġwill":2306,"Ġhel":2307,"lak":2308,"Ġpartic":2309,"Ġott":2310,"kori":2311,"Ġamit":2312,"mel":2313,"Ã©keny":2314,"Ġtek":2315,"Ã©hez":2316,"juk":2317,"bert":2318,"Ġca":2319,"Ġbizony":2320,"Ġcol":2321,"ĠLa":2322,"ĠkÃ¶zt":2323,"Ġpont":2324,"Ġpublic":2325,"Ġreport":2326,"urch":2327,"Ġrendel":2328,"Ġred":2329,"eked":2330,"ĠmÃ©ter":2331,"ĠpÃ¡r":2332,"Ġcentury":2333,"Ġcity":2334,"ĠMagyarorszÃ¡g":2335,"uff":2336,"ĠÃ¡prilis":2337,"Ġhaz":2338,"ermek":2339,"over":2340,"aim":2341,"mÃ©t":2342,"ĠeredmÃ©ny":2343,"idge":2344,"adik":2345,"ĠPar":2346,"hÃ¡borÃº":2347,"ĠjÃºlius":2348,"ĠComm":2349,"Ġ%":2350,"ke":2351,"ĠkÃ¶rny":2352,"ians":2353,"ĠBro":2354,"ague":2355,"ecs":2356,"ĠEu":2357,"ted":2358,"ĠJune":2359,"ission":2360,"Ġ50":2361,"nagyobb":2362,"ĠkÃ¶t":2363,"Ġkif":2364,"ĠtÃºl":2365,"Ã¡roz":2366,"Ã¡llÃ³":2367,"Ġfrancia":2368,"Ġraj":2369,"ĠmÃŃg":2370,"ording":2371,"ĠalapjÃ¡n":2372,"lÃ¡t":2373,"Ġegym":2374,"omin":2375,"jai":2376,"ĠÃ©pÃ¼let":2377,"Ġelem":2378,"ĠtÃ¡r":2379,"Ġ184":2380,"lÅĳ":2381,"ĠMi":2382,"almas":2383,"Ã¡ig":2384,"Ġ29":2385,"Ġlesz":2386,"ĠTr":2387,"ĠÃ¼z":2388,"ĠJuly":2389,"Ġ185":2390,"ĠmÃ¡sik":2391,"Ġset":2392,"uz":2393,"Ġfolyam":2394,"Ġbev":2395,"ulÃ³":2396,"ĠjelentÅĳs":2397,"Ġsingle":2398,"ĠtÃ¡v":2399,"Ġworld":2400,"Ġsince":2401,"Ġjust":2402,"olsÃ³":2403,"Ġline":2404,"Ġmot":2405,"ĠMarch":2406,"ĠApril":2407,"idÃ©k":2408,"row":2409,"avy":2410,"vonal":2411,"Ġdiffer":2412,"ants":2413,"sÃ©r":2414,"Ġlast":2415,"abl":2416,"ural":2417,"Ã¶vid":2418,"acs":2419,"iet":2420,"ĠSouth":2421,"sÃ¡ga":2422,"jed":2423,"Ġharc":2424,"Ġangol":2425,"ital":2426,"Ġlev":2427,"ebruÃ¡r":2428,"ulajd":2429,"ively":2430,"Ġbre":2431,"Ġallow":2432,"Ã¡lÃ³":2433,"ĠlabdarÃºg":2434,"ulajdon":2435,"ĠDecember":2436,"ĠAll":2437,"anak":2438,"Ġekkor":2439,"elf":2440,"ĠEurÃ³p":2441,"atkoz":2442,"ĠOl":2443,"ĠismÃ©t":2444,"Ã¶zÅĳ":2445,"esek":2446,"ĠÃ©rdek":2447,"Ġnagyobb":2448,"Ġleft":2449,"Ġvolna":2450,"Ãºly":2451,"rodalom":2452,"ĠszÃ¡mos":2453,"vious":2454,"Ġgond":2455,"ĠBer":2456,"Ġwhat":2457,"kezett":2458,"Ġlarge":2459,"ĠkÃ©r":2460,"Ġsouth":2461,"Ġgovernment":2462,"udomÃ¡ny":2463,"ĠkÃ¶nyv":2464,"jÃ¡nak":2465,"ĠGeor":2466,"Ġpi":2467,"imp":2468,"Ġdet":2469,"tÃ©k":2470,"ĠChrist":2471,"Ġ2005":2472,"ĠCol":2473,"Ġfolytat":2474,"Ġfelv":2475,"ĠelnÃ¶k":2476,"lov":2477,"ĠRo":2478,"Ġfinal":2479,"ĠÃ³ta":2480,"Ġ40":2481,"ÃŃp":2482,"ĠChar":2483,"Ġegyetem":2484,"Ġvez":2485,"oman":2486,"ĠWilliam":2487,"oint":2488,"mar":2489,"ling":2490,"ĠGerman":2491,"Ġelfog":2492,"jÃ©t":2493,"Ġvas":2494,"Ġ2013":2495,"vÃ¡r":2496,"attÃ¡k":2497,"Ġthird":2498,"side":2499,"Ġincre":2500,"Ġmonth":2501,"Ġhan":2502,"Ã©lkÃ¼l":2503,"Ġkeres":2504,"Ġvesz":2505,"Ġnek":2506,"Ġtekint":2507,"ified":2508,"ĠBy":2509,"empt":2510,"Ġelh":2511,"Ã¡sÃº":2512,"Ġph":2513,"Ġvari":2514,"Ã¡kat":2515,"aged":2516,"rote":2517,"amar":2518,"akÃ©nt":2519,"ĠDav":2520,"ĠfebruÃ¡r":2521,"Ġmuch":2522,"ared":2523,"Ġdue":2524,"Ġappro":2525,"ĠkÃ¶vetÅĳen":2526,"ious":2527,"ĠÃºjra":2528,"Ġla":2529,"Ġanother":2530,"ĠkÃ¶zÃ¶s":2531,"Ġbook":2532,"Ġevent":2533,"bor":2534,"Ġplayed":2535,"Ġschool":2536,"elte":2537,"ĠMich":2538,"min":2539,"ody":2540,"Ġlegnagyobb":2541,"ona":2542,"Ġannak":2543,"ats":2544,"ĠhosszÃº":2545,"Ġszerzett":2546,"alkod":2547,"Ġma":2548,"ĠnÃ©hÃ¡ny":2549,"Ã©be":2550,"urr":2551,"Ġdiv":2552,"uck":2553,"Ġincluded":2554,"Ġled":2555,"aul":2556,"ĠDr":2557,"vas":2558,"Ġexpl":2559,"Ġtak":2560,"ried":2561,"Ã©cs":2562,"Ġshort":2563,"Ġhit":2564,"ys":2565,"che":2566,"ÃŃrÃ³":2567,"ĠvÃ©gÃ¼l":2568,"ĠlehetÅĳ":2569,"ĠÅĳket":2570,"Ġprof":2571,"Ġplace":2572,"Ġdel":2573,"Ã¡rsasÃ¡g":2574,"ĠJanu":2575,"ĠÃ©rtÃ©k":2576,"Ġdi":2577,"ĠhasonlÃ³":2578,"Ã¡llal":2579,"Ġmutat":2580,"Ġcamp":2581,"Ġbased":2582,"Ġdeath":2583,"press":2584,"onn":2585,"ĠJanuary":2586,"ĠGre":2587,"ages":2588,"ĠJapan":2589,"ument":2590,"Ġwrote":2591,"Ġver":2592,"ĠÃ¡llt":2593,"Ã¡nc":2594,"ĠszÃ©l":2595,"Ġfaj":2596,"Ġtop":2597,"ĠÃģll":2598,"ically":2599,"Ġgyermek":2600,"ĠLondon":2601,"Ã³mai":2602,"szor":2603,"ety":2604,"ĠPark":2605,"Ġhum":2606,"esebb":2607,"Ġeng":2608,"Ġ2000":2609,"even":2610,"rem":2611,"Ġfur":2612,"Ġfell":2613,"ĠvÃ©gÃ©n":2614,"Ã©rÅĳl":2615,"Ġfest":2616,"ini":2617,"Ġname":2618,"ister":2619,"Ġwon":2620,"Ġkill":2621,"ĠWe":2622,"ĠcsÃ¡sz":2623,"Ġhanem":2624,"ĠMan":2625,"Ġtrack":2626,"ĠszÃ¡zadban":2627,"ĠÃļ":2628,"Ġstory":2629,"Ġcond":2630,"ĠmÃ©rkÅĳz":2631,"Ġ31":2632,"Ġhome":2633,"izsg":2634,"var":2635,"Ġpower":2636,"ides":2637,"Ġchild":2638,"iversity":2639,"incs":2640,"ÃŃtÃ¡sa":2641,"nyi":2642,"Ġuralkod":2643,"olta":2644,"ĠegyhÃ¡z":2645,"ancs":2646,"ĠfelesÃ©g":2647,"ĠSan":2648,"Ã©let":2649,"ĠtanulmÃ¡ny":2650,"Ġreview":2651,"ĠutolsÃ³":2652,"Ġlife":2653,"Ã¡bbi":2654,"Ġszerk":2655,"elked":2656,"Ġgun":2657,"%-":2658,"ĠkÃ¶vetkezÅĳ":2659,"cl":2660,"izmus":2661,"ĠvÃ¡ltozat":2662,"assz":2663,"ĠtÃ¶lt":2664,"ĠNy":2665,"ĠerÅĳs":2666,"Ġhall":2667,"hor":2668,"ĠemlÃ©k":2669,"Ġprevious":2670,"Ġtulajdon":2671,"ald":2672,"Ġmegv":2673,"ĠJÃ¡nos":2674,"Ġfenn":2675,"Ġperi":2676,"atlan":2677,"ĠÃ©nek":2678,"ĠÅ":2679,"Ġrequ":2680,"Ã¨":2681,"amb":2682,"Ġkisebb":2683,"Ġdescribed":2684,"dÃŃj":2685,"fr":2686,"men":2687,"Ġway":2688,"rew":2689,"Ġhaszn":2690,"Ġ!":2691,"ÃŃsÃ©r":2692,"Ġadott":2693,"ĠrÃ¶vid":2694,"Ġ2014":2695,"ica":2696,"ogatott":2697,"Åĳleg":2698,"Ġ2004":2699,"Ġhivatal":2700,"Ġfamily":2701,"ouse":2702,"ĠWest":2703,"Ã¡rd":2704,"etett":2705,"Ġbef":2706,"ozÃ¡s":2707,"Ġfoglalkoz":2708,"ĠhatÃ¡r":2709,"Ġnow":2710,"Ġbest":2711,"ĠalÃ¡":2712,"ula":2713,"iven":2714,"ball":2715,"Ã©le":2716,"Ġmake":2717,"Ġeven":2718,"ĠHen":2719,"Ġnamed":2720,"ĠNemzet":2721,"Ġbud":2722,"Ġmark":2723,"ograp":2724,"ĠkÃ©pvis":2725,"Ġarr":2726,"ained":2727,"Ġarra":2728,"atos":2729,"Ġmond":2730,"Ġhand":2731,"elÃ©s":2732,"Ġattempt":2733,"oon":2734,"zen":2735,"Ġkellett":2736,"Ġmemb":2737,"ĠMin":2738,"Ġfalu":2739,"Ġdam":2740,"by":2741,"Ġhom":2742,"ĠszintÃ©n":2743,"ached":2744,"Ġtelev":2745,"ts":2746,"ĠEurop":2747,"ĠtÃ¶rtÃ©net":2748,"ĠmÅ±vÃ©sz":2749,"ilar":2750,"Ġrepl":2751,"Ġright":2752,"ĠnÃ©lkÃ¼l":2753,"ĠMind":2754,"ĠbÃ¡r":2755,"ĠAir":2756,"Ġperc":2757,"ĠszÃ³":2758,"Ġprobl":2759,"ĠvezetÅĳ":2760,"Ġmai":2761,"Ġperform":2762,"Ã¡ltÃ¡k":2763,"Ġsk":2764,"sÃ©gi":2765,"ves":2766,"ences":2767,"alma":2768,"50":2769,"ĠfelÃ©":2770,"Ġposs":2771,"Ġanyag":2772,"Ġgyakor":2773,"Ġkutat":2774,"Ġvill":2775,"Ġlap":2776,"Ġcommand":2777,"ĠJack":2778,"ĠNational":2779,"Ġvery":2780,"Ġgames":2781,"Å±jt":2782,"oard":2783,"ĠvilÃ¡ghÃ¡borÃº":2784,"enes":2785,"ĠPer":2786,"ĠtÃ¶rÃ¶k":2787,"Ġopp":2788,"Ġ&":2789,"ĠHis":2790,"Ġorgan":2791,"Ġtechn":2792,"ÃŃtÅĳ":2793,"ozik":2794,"ĠkÃ¼lÃ¶nbÃ¶zÅĳ":2795,"Ġvideo":2796,"Ġinfl":2797,"ĠÃ©vben":2798,"Ġthose":2799,"ĠKar":2800,"ning":2801,"ĠKr":2802,"Ġstill":2803,"Ġnext":2804,"Ġismert":2805,"Ġalkalmaz":2806,"ĠszÃ³l":2807,"Ġmer":2808,"ison":2809,"Ġ1990":2810,"Ġvall":2811,"ior":2812,"Ġezek":2813,"Ġmm":2814,"Ã¡sra":2815,"Ġkiad":2816,"Ġvel":2817,"Ġmodern":2818,"Ġten":2819,"Ġexc":2820,"ĠCity":2821,"itions":2822,"riend":2823,"ĠnevÅ±":2824,"ĠNo":2825,"rench":2826,"ĠKÃ¡r":2827,"ĠHa":2828,"Ġview":2829,"Ġlen":2830,"ĠhÃŃr":2831,"Ġfre":2832,"Ġiss":2833,"Ġerd":2834,"ĠIstvÃ¡n":2835,"ĠFebru":2836,"ĠCal":2837,"ington":2838,"elen":2839,"Ġcomplet":2840,"Ã¶zt":2841,"Ġmaradt":2842,"ĠFebruary":2843,"ileg":2844,"iter":2845,"aster":2846,"forman":2847,"Ġspecies":2848,"ĠMag":2849,"Ã¡szlÃ³":2850,"ekÃ©nt":2851,"ray":2852,"ĠVal":2853,"ĠMad":2854,"Ġpat":2855,"Ġcare":2856,"rab":2857,"Ġnyil":2858,"sereg":2859,"Ġeffect":2860,"Ġmegjelent":2861,"ĠSe":2862,"tÃ¡r":2863,"ĠlabdarÃºgÃ³":2864,"Ġwater":2865,"Ġoriginal":2866,"Ġfed":2867,"Ġbeh":2868,"Ġfek":2869,"Ã¡tÃ³l":2870,"ĠszÃ¡ll":2871,"Ġref":2872,"Ġperiod":2873,"ĠlÃ¡ny":2874,"Ġspe":2875,"ness":2876,"ĠMont":2877,"ĠÃģllam":2878,"ĠÃ¼gy":2879,"omet":2880,"Ġmarad":2881,"atin":2882,"lo":2883,"Ġbuilt":2884,"Ã©sÃ©vel":2885,"ĠCent":2886,"ĠFerenc":2887,"idd":2888,"Å±z":2889,"Ġesz":2890,"Ġheld":2891,"Ġlate":2892,"Ġaddition":2893,"Ġdest":2894,"ĠÃ©vekben":2895,"ense":2896,"ĠgÃ©p":2897,"10":2898,"ana":2899,"Ġalthough":2900,"Ġwithin":2901,"Ġmell":2902,"berg":2903,"Ġvisszat":2904,"Ġstand":2905,"yn":2906,"raj":2907,"ada":2908,"Ġtenger":2909,"telen":2910,"Ġadv":2911,"ched":2912,"Ġsold":2913,"Ġgreat":2914,"Ġben":2915,"ĠCo":2916,"line":2917,"Ġmembers":2918,"ining":2919,"ĠkÃ¶zpont":2920,"Ġreal":2921,"Ġmatch":2922,"Ġkik":2923,"soci":2924,"Ã¼z":2925,"ĠFrench":2926,"uted":2927,"Ã©rtÃ©k":2928,"arab":2929,"Ã¡ni":2930,"Ġamelyek":2931,"Ġstorm":2932,"ara":2933,"ÃŃpus":2934,"ael":2935,"ead":2936,"Ġstat":2937,"Ġformer":2938,"ĠMor":2939,"Ġcame":2940,"ones":2941,"Ġrendelkez":2942,"Ġinit":2943,"Ġmegfel":2944,"Ġtor":2945,"ĠtÃ¡mogat":2946,"que":2947,"Ġmelyet":2948,"nie":2949,"ĠlÃ©g":2950,"ĠhÃ©t":2951,"ĠWhen":2952,"ius":2953,"Ġbiztos":2954,"Ã¡bban":2955,"ÅĳdÃ¶tt":2956,"200":2957,"ĠNor":2958,"reet":2959,"eztek":2960,"Ġezzel":2961,"Ġrole":2962,"Ġdays":2963,"Ġpap":2964,"Ġestabl":2965,"Ġhon":2966,"sebb":2967,"Ã¡ndor":2968,"ĠszÃ¡r":2969,"lag":2970,"ĠkÃŃvÃ¼l":2971,"Ġorosz":2972,"ĠEzt":2973,"ĠerÅĳ":2974,"ĠszÃ¼k":2975,"ĠMÃ¡r":2976,"jabb":2977,"yl":2978,"Ã©j":2979,"Ġfiatal":2980,"Ã³zse":2981,"Ġrelease":2982,"szÃŃnÅ±":2983,"Ġjellem":2984,"nap":2985,"ezik":2986,"ae":2987,"Ġkev":2988,"ĠhÃŃ":2989,"Ġhowever":2990,"szik":2991,"ĠMus":2992,"ief":2993,"Ġperforman":2994,"estern":2995,"ator":2996,"Ġwind":2997,"Ġamelyet":2998,"Ġcr":2999,"Ġhegy":3000,"Ġ2003":3001,"ulation":3002,"Ã¡sÃ¡val":3003,"ots":3004,"ĠÃ©ves":3005,"ĠIm":3006,"Ġharmadik":3007,"ĠMeg":3008,"pres":3009,"ards":3010,"ĠPol":3011,"Ġfew":3012,"ize":3013,"Ġnagyon":3014,"uct":3015,"ĠAk":3016,"isc":3017,"read":3018,"ropical":3019,"ĠelÃ©r":3020,"Ġtw":3021,"Ġcontinued":3022,"ĠrÃ¡":3023,"Ġ2001":3024,"Ġyou":3025,"Ġszent":3026,"Ġfelh":3027,"Ġsziget":3028,"Ġtown":3029,"oltÃ¡k":3030,"ops":3031,"ased":3032,"Ġrad":3033,"ĠSm":3034,"egyver":3035,"ozs":3036,"omen":3037,"ments":3038,"ĠJÃ³zse":3039,"Ġkelet":3040,"Ġoften":3041,"Ġside":3042,"Ġlocal":3043,"sÃ©gÃ©t":3044,"tor":3045,"Ġtot":3046,"ĠosztÃ¡ly":3047,"Ġkult":3048,"egyed":3049,"itary":3050,"pite":3051,"olikus":3052,"ÃŃtani":3053,"Ãºj":3054,"ita":3055,"Ġamong":3056,"Ġmegjelen":3057,"Ġ2002":3058,"Ġsay":3059,"Ġsimilar":3060,"Ġfront":3061,"ÃŃtja":3062,"ĠelejÃ©n":3063,"ps":3064,"Ġ183":3065,"tart":3066,"ĠCor":3067,"Ġanim":3068,"Ġbem":3069,"Ġgyors":3070,"ĠszolgÃ¡l":3071,"ino":3072,"Ġpresent":3073,"Ġgl":3074,"ĠEgyesÃ¼lt":3075,"Ġclaim":3076,"da":3077,"Ġhalf":3078,"iszter":3079,"ĠnemzetkÃ¶zi":3080,"Ġï¿½ï¿½":3081,"Ã¶rÃ¶g":3082,"Ġequ":3083,"Ġhelyen":3084,"ret":3085,"lÃ¡s":3086,"Ġszerv":3087,"Ġrock":3088,"ĠtÃ¶rvÃ©ny":3089,"Ġsport":3090,"ĠbarÃ¡t":3091,"Ġwin":3092,"Ġ?":3093,"of":3094,"ĠAb":3095,"ĠmagÃ¡t":3096,"ĠJÃ³zsef":3097,"rÃ¡":3098,"Ġtev":3099,"Ġlegj":3100,"roy":3101,"lin":3102,"Ġinform":3103,"Ã³gy":3104,"Ġmegny":3105,"Ġfurther":3106,"ĠDuring":3107,"ma":3108,"ittle":3109,"ĠEngland":3110,"Å±l":3111,"Ġpost":3112,"Ġlegy":3113,"ĠÃ¡llÃ³":3114,"Ġdifferent":3115,"alan":3116,"Ġsent":3117,"Ġjav":3118,"arc":3119,"ĠLeg":3120,"Ġkifej":3121,"ĠMon":3122,"Ġkialak":3123,"ĠMart":3124,"akat":3125,"Ã¼t":3126,"Ġexper":3127,"etÅĳ":3128,"Ġeredeti":3129,"ĠtalÃ¡lkoz":3130,"Ġconsidered":3131,"rog":3132,"Ġtake":3133,"ĠÃ¡l":3134,"thers":3135,"sÃ©gek":3136,"iment":3137,"Ġtyp":3138,"Ġdolgozott":3139,"Ġszen":3140,"Ã¼nk":3141,"azdasÃ¡gi":3142,"ript":3143,"inning":3144,"sÃ¡got":3145,"Ġbeliev":3146,"Ġindult":3147,"leges":3148,"Ġlaw":3149,"ĠIII":3150,"irc":3151,"Ġmelynek":3152,"ices":3153,"ords":3154,"anyol":3155,"orvÃ¡t":3156,"ĠJames":3157,"ĠkÃŃsÃ©r":3158,"atban":3159,"ĠidejÃ©n":3160,"ĠsikerÃ¼lt":3161,"Ġneki":3162,"Ġjo":3163,"ĠThere":3164,"ruction":3165,"Ġfontos":3166,"rÃ¡s":3167,"Ã¼ntet":3168,"ape":3169,"Ġcor":3170,"Ġkonc":3171,"Ġhaving":3172,"Ġtrad":3173,"Ġmoved":3174,"Ġszez":3175,"hem":3176,"Ġwest":3177,"Ġeast":3178,"mÅ±vÃ©sz":3179,"ira":3180,"Ġroad":3181,"jet":3182,"rÃ¡k":3183,"ĠSer":3184,"lish":3185,"sÃ¡gi":3186,"Ġjobb":3187,"ened":3188,"sc":3189,"Ġviszont":3190,"Ã¶kk":3191,"ks":3192,"Ġtett":3193,"ĠQu":3194,"iÃ¡ban":3195,"Ġgyakran":3196,"ĠtÃ¡rgy":3197,"ĠrÃ³mai":3198,"Ġutc":3199,"ĠRich":3200,"Ã³bb":3201,"Ġlel":3202,"15":3203,"ature":3204,"faj":3205,"atter":3206,"aur":3207,"Ã©vÅĳ":3208,"beli":3209,"arn":3210,"yle":3211,"ĠAng":3212,"omÃ¡nyos":3213,"ĠBel":3214,"ĠEzek":3215,"kÃ©t":3216,"ĠEx":3217,"Ġarm":3218,"umb":3219,"Ġevery":3220,"Ġbor":3221,"ĠUniversity":3222,"jegy":3223,"Ġfok":3224,"ĠMik":3225,"ering":3226,"Ġwithout":3227,"jelent":3228,"con":3229,"Ġbecome":3230,"ĠszÃ¶vet":3231,"attal":3232,"ĠRober":3233,"Ġfia":3234,"ĠszÃ©k":3235,"ĠÃĸ":3236,"Ġvizsg":3237,"Ġ1980":3238,"Ġposition":3239,"ĠBill":3240,"ĠTer":3241,"ĠEnglish":3242,"Ġszerepelt":3243,"str":3244,"ux":3245,"ĠRiver":3246,"Ġmy":3247,"Ġrefer":3248,"Ġcast":3249,"mond":3250,"ĠgÃ³l":3251,"ÅĳkÃ©nt":3252,"Ã¡ciÃ³s":3253,"Ġplayer":3254,"Ã¡rok":3255,"ĠlakossÃ¡g":3256,"ĠkeresztÃ¼l":3257,"Ġmegb":3258,"ĠtermÃ©szet":3259,"ĠÃŃrt":3260,"ama":3261,"ĠOne":3262,"Ã¡sÃ¡r":3263,"self":3264,"ges":3265,"Ã¶lgy":3266,"Ġegyetlen":3267,"Ã³kat":3268,"Ã©bÅĳl":3269,"Ġvette":3270,"ĠHigh":3271,"Ġlov":3272,"Ġproduction":3273,"Ġ1970":3274,"nÃ©":3275,"Ġsound":3276,"ĠEgyetem":3277,"ĠRep":3278,"On":3279,"utes":3280,"ĠCount":3281,"bajnoksÃ¡g":3282,"Ġneve":3283,"ches":3284,"Ġhouse":3285,"Ġimport":3286,"ĠdÃŃ":3287,"Ġfact":3288,"Ġmaga":3289,"ĠEnnek":3290,"Ġconf":3291,"Ġelect":3292,"ĠgyÅĳz":3293,"ĠKirÃ¡ly":3294,"Ġstrong":3295,"ush":3296,"gal":3297,"ampions":3298,"eltÃ©k":3299,"erek":3300,"ĠRoy":3301,"Ġsuggest":3302,"ĠKÃ¡roly":3303,"Ã¡sÃ¡nak":3304,"ĠÅĳt":3305,"Ġfelad":3306,"Ġmelyek":3307,"Ġcommun":3308,"ĠtevÃ©keny":3309,"ology":3310,"ĠÃ¶rÃ¶k":3311,"ĠmegfelelÅĳ":3312,"ĠfolyÃ³":3313,"ĠBi":3314,"ĠSy":3315,"ĠidÅĳszak":3316,"ĠDiv":3317,"ukat":3318,"Ġclub":3319,"Ġszemben":3320,"eum":3321,"ĠÃ©pÃ¼lt":3322,"Ġinvol":3323,"Ġdarab":3324,"Ã¡sban":3325,"ivil":3326,"apot":3327,"Ġhold":3328,"kap":3329,"Ġinflu":3330,"ĠRec":3331,"lemez":3332,"ĠReg":3333,"etÅ±":3334,"ĠDavid":3335,"ĠSo":3336,"ovjet":3337,"earch":3338,"Ġless":3339,"17":3340,"uh":3341,"ĠpÃ©n":3342,"ket":3343,"ĠkÃ¼ld":3344,"Ġcontain":3345,"ĠColl":3346,"Ġversion":3347,"Ġennek":3348,"erte":3349,"Ġteljesen":3350,"ĠtÃ¶m":3351,"udi":3352,"Ġolasz":3353,"ĠBo":3354,"Ġilyen":3355,"ĠtÃ¶bbi":3356,"fÃ©le":3357,"ĠPaul":3358,"Ġforg":3359,"craft":3360,"ejt":3361,"okon":3362,"Ġwant":3363,"Ã©sÃ©re":3364,"Ġcomb":3365,"ĠGener":3366,"Ġlow":3367,"zal":3368,"Ġannoun":3369,"ĠDes":3370,"ĠSw":3371,"ĠNÃ©met":3372,"Ġorder":3373,"olÃ³giai":3374,"adÃ©m":3375,"ider":3376,"Ġhelyi":3377,"Ġgave":3378,"ĠPhil":3379,"Ġcountry":3380,"Ġgen":3381,"ĠDo":3382,"nem":3383,"ĠellenÃ©re":3384,"Ġwritten":3385,"ĠhÃ³n":3386,"Ġreform":3387,"anyag":3388,"zta":3389,"ÃŃlus":3390,"Ġfoot":3391,"ĠTan":3392,"ĠHam":3393,"olc":3394,"Ã¶rÃ¶s":3395,"ĠAnt":3396,"Ġreturned":3397,"ows":3398,"ĠvÃ©gzett":3399,"lang":3400,"Ã¶rtÃ©n":3401,"Ġdefe":3402,"Ġked":3403,"Ġgiven":3404,"sequ":3405,"Ġtro":3406,"Ġtotal":3407,"Ġfar":3408,"Ã¡lta":3409,"ĠfÃ©ny":3410,"ĠFel":3411,"Åĳzt":3412,"Ġzenek":3413,"ĠkorÃ¡bbi":3414,"jÃº":3415,"ems":3416,"ĠrÃ©gi":3417,"Ã¶d":3418,"Ġtartalmaz":3419,"Ġegyre":3420,"inak":3421,"Ġbrit":3422,"ĠjÃ¡tszott":3423,"ze":3424,"oung":3425,"Ġord":3426,"Ġvict":3427,"Ġwent":3428,"rany":3429,"sorban":3430,"ĠComp":3431,"Ġsel":3432,"Ġgood":3433,"Ġchang":3434,"ĠMed":3435,"Ã¶veg":3436,"Ã©zet":3437,"ĠSup":3438,"field":3439,"ĠbelÃ¼l":3440,"Ġsw":3441,"aton":3442,"ĠLaj":3443,"Ġlemez":3444,"Ġcompany":3445,"Ġcontrol":3446,"ipl":3447,"ĠÃ©lÅĳ":3448,"ĠPort":3449,"Ġfire":3450,"ĠGeorge":3451,"Ġfriend":3452,"Ġ60":3453,"ream":3454,"ories":3455,"Ġrepres":3456,"ĠkorÃ¡bban":3457,"Ġkapta":3458,"Ġlegjobb":3459,"Ġbal":3460,"ĠSzÃŃn":3461,"Ġrang":3462,"Ġsol":3463,"ĠemlÃŃt":3464,"uel":3465,"arth":3466,"Ã¶tte":3467,"Ġlim":3468,"ĠvÃ¡llal":3469,"ple":3470,"Ã©tÅĳl":3471,"Ġfind":3472,"ĠkÃ¶zep":3473,"fed":3474,"onban":3475,"Ġaff":3476,"adta":3477,"ĠsegÃŃtsÃ©g":3478,"Ã¡ltak":3479,"asznÃ¡l":3480,"12":3481,"ĠszÃŃnÃ©sz":3482,"Ġfail":3483,"Ġhadsereg":3484,"vilÃ¡g":3485,"Ġlost":3486,"Ġreported":3487,"oknak":3488,"Ġproduced":3489,"kezd":3490,"ulat":3491,"ĠgyÃ¡rt":3492,"Ġhi":3493,"vÃ©":3494,"ĠMichael":3495,"Ġlegt":3496,"osztÃ¡ly":3497,"Ġlight":3498,"Ġfeh":3499,"alap":3500,"adalom":3501,"Ġstated":3502,"ĠAg":3503,"Ã©sre":3504,"Ã³ri":3505,"abad":3506,"raw":3507,"orszÃ¡gi":3508,"ency":3509,"fal":3510,"Ġkom":3511,"Ġ180":3512,"Ġet":3513,"ĠtÃ¶rt":3514,"eal":3515,"Ġfil":3516,"ĠhÃŃv":3517,"ĠÃ¡ltalÃ¡ban":3518,"Ã¶rgy":3519,"ĠÃºjabb":3520,"Ġpublished":3521,"eleti":3522,"Ãºcs":3523,"Ġpra":3524,"ĠMil":3525,"Ã¶lcs":3526,"gÃ©p":3527,"overed":3528,"urric":3529,"Ġparticular":3530,"ĠAp":3531,"Ã©szeti":3532,"Ġcommon":3533,"van":3534,"Ã¡tus":3535,"Ġigen":3536,"Ã¼ket":3537,"ĠÃļj":3538,"ĠEk":3539,"ĠÃį":3540,"ipp":3541,"Ġ1998":3542,"Ġviszony":3543,"Ġfegyver":3544,"Ġ1999":3545,"ĠszerzÅĳd":3546,"ĠpÃ¡rt":3547,"Ġfiz":3548,"Ġink":3549,"aff":3550,"met":3551,"erg":3552,"ccording":3553,"aign":3554,"ĠÃ©lt":3555,"Ġ500":3556,"Ġmozg":3557,"ĠLeague":3558,"Ġneed":3559,"Ġell":3560,"Sz":3561,"ĠAf":3562,"ĠRobert":3563,"Ġ1960":3564,"Ġships":3565,"Ġbuilding":3566,"Ã¡tor":3567,"uced":3568,"ĠkÃ¶zÃ¶tti":3569,"Ġbomb":3570,"ĠAngel":3571,"ĠvÃ¡logatott":3572,"ĠegyÃ¼ttes":3573,"Ãºjt":3574,"ĠtovÃ¡bbi":3575,"Ã¡laszt":3576,"Ġpress":3577,"Ġfigy":3578,"Ġ1991":3579,"ĠÃ©vi":3580,"Ġalakult":3581,"Ġcross":3582,"la":3583,"Ġrecorded":3584,"mag":3585,"ĠSte":3586,"ga":3587,"Ġforces":3588,"work":3589,"Ġnincs":3590,"ising":3591,"Ġnever":3592,"ĠvÃ©l":3593,"Ġbus":3594,"ÃŃciÃ³":3595,"ĠNap":3596,"enz":3597,"ĠbÃ©k":3598,"ĠjÃ³l":3599,"Ġhelyzet":3600,"Ġpolg":3601,"ĠMal":3602,"Ġusing":3603,"ĠÃ¡m":3604,"oni":3605,"Ġav":3606,"ĠcsÃ¡szÃ¡r":3607,"Ġnegyed":3608,"nny":3609,"ements":3610,"Ġinterest":3611,"ĠkerÃ¼l":3612,"Ġnov":3613,"Ġshould":3614,"iÃ³s":3615,"Ġinn":3616,"Ġpark":3617,"Ġmaking":3618,"Ġfejleszt":3619,"Ġcapt":3620,"mi":3621,"ĠMer":3622,"csak":3623,"Ġintern":3624,"Ġinclude":3625,"ÃŃk":3626,"off":3627,"arr":3628,"ĠSec":3629,"Ġhimself":3630,"Ã¶rt":3631,"Ġkatonai":3632,"ĠkÃ¶sz":3633,"aut":3634,"iness":3635,"lear":3636,"Ġbemutat":3637,"Ġcer":3638,"ength":3639,"Ã¡rmegy":3640,"ĠÃ¼zem":3641,"lott":3642,"ĠhozzÃ¡":3643,"Ã¡llÃŃtÃ¡s":3644,"60":3645,"ĠfÃ¶l":3646,"omÃ¡s":3647,"esi":3648,"outher":3649,"ably":3650,"Ã©ssel":3651,"Ġaircraft":3652,"par":3653,"ĠkÃ¶zÃ©":3654,"Ġ35":3655,"Ã¡gy":3656,"ikk":3657,"ĠYou":3658,"Ġsett":3659,"Åĳben":3660,"ein":3661,"ĠkÃŃn":3662,"urÃ³pai":3663,"atch":3664,"Ġtimes":3665,"ĠÃ©vvel":3666,"ĠlÃ©vÅĳ":3667,"Ġpopular":3668,"Ġauthor":3669,"ĠfehÃ©r":3670,"Ġegyed":3671,"Ġfather":3672,"Ġmilitary":3673,"ĠhÃ¡zas":3674,"Ġpolitikai":3675,"Ġszav":3676,"ĠÅĳs":3677,"ĠkirÃ¡lyi":3678,"ĠThese":3679,"gin":3680,"Ġcareer":3681,"Ã¼sp":3682,"Ġkol":3683,"Ġsum":3684,"oztat":3685,"Ġrul":3686,"board":3687,"ĠnyilvÃ¡n":3688,"Ã³dott":3689,"Ġread":3690,"Ã©ig":3691,"Ġlet":3692,"outhern":3693,"Ġda":3694,"ensive":3695,"izen":3696,"Ġvannak":3697,"Ġhow":3698,"Ã¡jÃ¡ban":3699,"Ã¡vÃ¡":3700,"Ġhelyett":3701,"Ġservice":3702,"Ġcritic":3703,"Ġsongs":3704,"igaz":3705,"ĠAustralia":3706,"vezetÅĳ":3707,"Ġvit":3708,"Ġezen":3709,"Ġszerkeszt":3710,"Ġins":3711,"Ġbajnok":3712,"quad":3713,"Ġelleni":3714,"ĠterÃ¼letÃ©n":3715,"ĠPres":3716,"Ġplan":3717,"Ġokoz":3718,"Ġcsatlak":3719,"ĠfÃ©rfi":3720,"ĠÃ¶":3721,"itive":3722,"ĠGeneral":3723,"ĠÅ±r":3724,"eged":3725,"Ġdestroy":3726,"ĠlÃ¡thatÃ³":3727,"ries":3728,"ĠgÃ¶rÃ¶g":3729,"Ġ1997":3730,"ĠWith":3731,"Ġ80":3732,"Ġremained":3733,"oe":3734,"Ġ182":3735,"ĠvalÃ³szÃŃnÅ±":3736,"ĠLajos":3737,"Ġarch":3738,"Ġground":3739,"ration":3740,"Ġmindig":3741,"astern":3742,"reen":3743,"Ġhistory":3744,"ĠbeszÃ©l":3745,"30":3746,"Ġkeresked":3747,"uit":3748,"Ġfav":3749,"ĠkÃ¶zvet":3750,"Ġgazd":3751,"14":3752,"16":3753,"Ġprim":3754,"ĠprÃ³b":3755,"ĠArmy":3756,"itu":3757,"Ġmonths":3758,"Ġmid":3759,"Ġszervezet":3760,"ÃŃtmÃ©ny":3761,"ĠkÃ¶rnyÃ©k":3762,"Ġsuff":3763,"ville":3764,"Ã¡i":3765,"Ġmel":3766,"ÃŃtottak":3767,"Ġcm":3768,"ĠDun":3769,"Ġball":3770,"ĠmilliÃ³":3771,"Ġrepresent":3772,"enced":3773,"wood":3774,"ettek":3775,"ÃŃtettek":3776,"Ġperformance":3777,"ĠkÃ¶nny":3778,"ĠromÃ¡n":3779,"Ġparancs":3780,"Ġdeveloped":3781,"ĠtÃŃpus":3782,"ĠlegtÃ¶bb":3783,"ĠStreet":3784,"ĠrÃ©szÃ©t":3785,"ampionship":3786,"Ġinf":3787,"Ġft":3788,"Ġchart":3789,"Ġenged":3790,"ĠfÃ¼ggetlen":3791,"alth":3792,"ĠkÃ©z":3793,"Ġbeteg":3794,"Ġvir":3795,"osok":3796,"ending":3797,"ĠState":3798,"ĠstÃŃlus":3799,"Ã¼spÃ¶k":3800,"Ġdok":3801,"ezni":3802,"iÃ¡n":3803,"Ġdevelopment":3804,"ĠRoad":3805,"ĠkÃ©sÅĳbbi":3806,"Ġ1992":3807,"ĠinkÃ¡bb":3808,"Ġmegszer":3809,"ĠkÃ©ny":3810,"ĠLÃ¡szlÃ³":3811,"Ġcharacters":3812,"lands":3813,"Äĩ":3814,"ĠBlack":3815,"Ġdied":3816,"rad":3817,"Ġproject":3818,"ilk":3819,"ĠMe":3820,"Ġakt":3821,"ottsÃ¡g":3822,"ĠAlex":3823,"Ġtitle":3824,"Ġforce":3825,"unt":3826,"Ġorv":3827,"Ġfull":3828,"isted":3829,"eep":3830,"Ġenc":3831,"Ġder":3832,"ĠmÅ±v":3833,"Ġnational":3834,"Ġ1995":3835,"ĠnÃ¶vÃ©ny":3836,"Ġlo":3837,"Ġ1994":3838,"Ġ1950":3839,"ĠÂ°":3840,"ĠAlthough":3841,"ĠPart":3842,"ĠRuss":3843,"Ġszob":3844,"Ġintrod":3845,"Ġ179":3846,"Ġamelynek":3847,"inal":3848,"Ġkett":3849,"Ġson":3850,"ither":3851,"fÃ©l":3852,"Ġaway":3853,"hatÃ¡roz":3854,"ĠcsÃ¶kk":3855,"Ġkatolikus":3856,"Ã¡sos":3857,"Ãºd":3858,"szerep":3859,"Ġacross":3860,"Ġpil":3861,"Å±nt":3862,"ien":3863,"Ġvonal":3864,"Ġkezdett":3865,"Ġfun":3866,"Ġtour":3867,"ĠvÃ¡rmegy":3868,"aval":3869,"itted":3870,"olÃ³":3871,"hetÅĳen":3872,"jÃ¡val":3873,"Ġnor":3874,"ĠnyÃŃ":3875,"ĠAmerica":3876,"iÃ¡t":3877,"ĠkÃ¶szÃ¶n":3878,"band":3879,"ria":3880,"Ġpromot":3881,"Ġtesz":3882,"atic":3883,"irl":3884,"Ġnyert":3885,"Ġchildren":3886,"leked":3887,"osp":3888,"attle":3889,"ĠTo":3890,"Ã¡nya":3891,"zÃ³":3892,"13":3893,"ĠÐ":3894,"ublic":3895,"Ġhistor":3896,"ĠsÃºly":3897,"Ġsignific":3898,"Ã¡ci":3899,"ida":3900,"Ġigazgat":3901,"ĠtÃ¡bor":3902,"ĠfejlÅĳd":3903,"ĠBen":3904,"ĠNe":3905,"ĠDivision":3906,"Ġtartott":3907,"Ġcampaign":3908,"hegy":3909,"lik":3910,"Ġeight":3911,"Ġ2016":3912,"jut":3913,"Ġlem":3914,"Ġneg":3915,"Ġreached":3916,"Ġ32":3917,"ĠPal":3918,"itz":3919,"ĠmezÅĳ":3920,"etben":3921,"ĠEast":3922,"hett":3923,"eknek":3924,"Ġ1996":3925,"Ġkih":3926,"illag":3927,"akes":3928,"Ġconv":3929,"Ġrelations":3930,"ĠszabÃ¡ly":3931,"Ġofficial":3932,"thern":3933,"Ġvisszav":3934,"Ġros":3935,"Ġnight":3936,"ogn":3937,"ĠJos":3938,"Ġarg":3939,"ĠBal":3940,"zat":3941,"Ġfield":3942,"enth":3943,"ĠSal":3944,"ĠFranc":3945,"ĠÅĲ":3946,"ĠegÃ©szen":3947,"ĠkÃ©pviselÅĳ":3948,"Ġvad":3949,"ĠTe":3950,"cient":3951,"ĠKÃ©sÅĳbb":3952,"ĠEurÃ³pa":3953,"rÃ¡n":3954,"Ġnoted":3955,"dom":3956,"Ġszerepel":3957,"ĠmÃ©ly":3958,"ĠIntern":3959,"iers":3960,"Ãºzeum":3961,"lÃ¡v":3962,"andÃ³":3963,"Ġcreated":3964,"uses":3965,"Ġspecial":3966,"urricane":3967,"elmet":3968,"sen":3969,"ezÃ©se":3970,"Ġareas":3971,"Ġblack":3972,"Ġ1945":3973,"Ġnon":3974,"Ġcompet":3975,"Ġsuccessful":3976,"ĠmÃ©rkÅĳzÃ©s":3977,"ĠlÃ©pett":3978,"Ġkezdte":3979,"Ġmintegy":3980,"iplom":3981,"br":3982,"Ġannounced":3983,"ĠSam":3984,"ĠLou":3985,"raz":3986,"Ġran":3987,"ĠgrÃ³f":3988,"imately":3989,"Ġfran":3990,"ays":3991,"ĠdÃŃsz":3992,"fic":3993,"uny":3994,"ĠZs":3995,"me":3996,"nia":3997,"Ġpal":3998,"Ġcop":3999,"Ġmagaz":4000,"ĠegyÃ©b":4001,"hÃ¡t":4002,"vÃ¡ri":4003,"199":4004,"Ġaver":4005,"ttal":4006,"Ġtartozott":4007,"ekete":4008,"Ġtoo":4009,"Ġfollowed":4010,"ances":4011,"most":4012,"Ġident":4013,"Ġstation":4014,"ĠJapanese":4015,"ĠCap":4016,"Ġud":4017,"imn":4018,"elling":4019,"Ġseen":4020,"sÃ©k":4021,"Ãºs":4022,"ĠElsÅĳ":4023,"omas":4024,"ĠtanÃ¡cs":4025,"ĠRoyal":4026,"ĠCounty":4027,"Ġput":4028,"ĠtÃ¶rtÃ©nt":4029,"Ġtelevision":4030,"Ġ1993":4031,"oming":4032,"ĠWhile":4033,"ĠFÅĳ":4034,"Ġvarious":4035,"emy":4036,"ĠpÃ¡p":4037,"rict":4038,"ĠVir":4039,"Ġnyugati":4040,"mp":4041,"eph":4042,"Ã¡sokat":4043,"ĠFr":4044,"kÃŃvÃ¼l":4045,"Ġbattle":4046,"Ġserved":4047,"rd":4048,"ĠTel":4049,"arch":4050,"apÃ¡n":4051,"rek":4052,"ĠRed":4053,"Ġfem":4054,"itch":4055,"Ġjelleg":4056,"ÃŃtÃ©se":4057,"Ġplayers":4058,"ĠGyÃ¶rgy":4059,"ĠrepÃ¼lÅĳ":4060,"Ġpolitical":4061,"ĠMac":4062,"ĠFÃ¶ld":4063,"fÃ¶ldi":4064,"Ã³dik":4065,"Ġkrit":4066,"Ġalkal":4067,"Ġcy":4068,"80":4069,"Ġseb":4070,"ĠDÃ©l":4071,"ĠutÃ³bb":4072,"ĠSim":4073,"ĠMy":4074,"ĠpÃ¼spÃ¶k":4075,"aces":4076,"Ġlegal":4077,"jÃ©n":4078,"ĠtÃ¡vol":4079,"ying":4080,"Ġlook":4081,"ĠGl":4082,"Ã³ta":4083,"Ġcost":4084,"Ġexperi":4085,"ites":4086,"Ġszor":4087,"tÃ©r":4088,"ĠtrÃ³n":4089,"Ã¡zs":4090,"ico":4091,"idence":4092,"Ġspanyol":4093,"Ġdecl":4094,"lÃ³s":4095,"Ġinsp":4096,"ĠFrank":4097,"ĠLi":4098,"ĠgyÅ±jt":4099,"ways":4100,"pal":4101,"Ġ45":4102,"ĠHill":4103,"urt":4104,"Ġcirc":4105,"Ġzenekar":4106,"Ġren":4107,"ĠvasÃºt":4108,"ĠWash":4109,"uth":4110,"Ġcourt":4111,"Ġkilled":4112,"Ġhelp":4113,"etileg":4114,"ĠÃ¼t":4115,"ĠHall":4116,"Ġseven":4117,"Ġszenved":4118,"Ġtropical":4119,"Ġstar":4120,"ĠÃ¡b":4121,"ander":4122,"Ġimpro":4123,"ĠMÅ±":4124,"rian":4125,"ĠNemzeti":4126,"Ġ70":4127,"ĠDon":4128,"Ġperformed":4129,"Ġable":4130,"Ġebben":4131,"Ġthroughout":4132,"ĠcÃ©g":4133,"ozta":4134,"nep":4135,"11":4136,"ulÃ¡s":4137,"ĠelÃ©g":4138,"ĠRom":4139,"de":4140,"Ġsee":4141,"ekre":4142,"Ġprocess":4143,"ĠEkkor":4144,"Ġfight":4145,"acy":4146,"ĠbajnoksÃ¡g":4147,"Ġlittle":4148,"leet":4149,"ization":4150,"ĠhÃ³nap":4151,"ĠAccording":4152,"Ġagre":4153,"Ġâ":4154,"amer":4155,"ĠpÃ©nz":4156,"oice":4157,"adi":4158,"rok":4159,"ĠRock":4160,"Ġtaken":4161,"ought":4162,"Ġsokkal":4163,"olution":4164,"ĠAustralian":4165,"ezi":4166,"ĠHenry":4167,"ĠtÃ¡mad":4168,"etet":4169,"vÅĳ":4170,"ecut":4171,"ĠÅĳr":4172,"BC":4173,"ÃŃti":4174,"Ġsignificant":4175,"ĠkÅĳ":4176,"film":4177,"ago":4178,"Ġmeet":4179,"Ġcult":4180,"ena":4181,"Ġhor":4182,"hest":4183,"ĠUgyan":4184,"Ġfig":4185,"szÃ©k":4186,"ĠSzer":4187,"Ġszakasz":4188,"jÃ¼k":4189,"ĠjapÃ¡n":4190,"vÃ¡lt":4191,"bel":4192,"ects":4193,"Ã¶zben":4194,"ij":4195,"ya":4196,"40":4197,"ĠakÃ¡r":4198,"zÃ©k":4199,"Ġidej":4200,"Ġber":4201,"oid":4202,"Ġpri":4203,"Ġthought":4204,"Ġearli":4205,"Ġazaz":4206,"eget":4207,"Ġestablished":4208,"ĠelsÅĳsorban":4209,"ĠkÃ¶zben":4210,"ĠvidÃ©k":4211,"Ã¶vetsÃ©g":4212,"Ġstyle":4213,"eszer":4214,"atÃŃv":4215,"Ġcoast":4216,"head":4217,"Ġmiles":4218,"ĠjellemzÅĳ":4219,"etter":4220,"Ġazonos":4221,"ĠintÃ©z":4222,"ĠÃ©szaki":4223,"hys":4224,"Ġbroad":4225,"iff":4226,"Ã¼gyi":4227,"Ġakar":4228,"ĠdÃ©li":4229,"oney":4230,"okra":4231,"Ġappeared":4232,"Ġbody":4233,"olf":4234,"rosz":4235,"Ġmester":4236,"mal":4237,"olja":4238,"ezked":4239,"odes":4240,"ĠesemÃ©ny":4241,"Ġdoes":4242,"rÃ¡l":4243,"ura":4244,"Ġhamar":4245,"ĠfelsÅĳ":4246,"ĠszolgÃ¡lt":4247,"ounc":4248,"Ġbek":4249,"Ġwriting":4250,"stit":4251,"almat":4252,"Ġ1989":4253,"day":4254,"Ġsus":4255,"ĠKis":4256,"lant":4257,"ĠMagyarorszÃ¡gon":4258,"Ġpoints":4259,"Ġgra":4260,"ells":4261,"vÃ©re":4262,"Ġnyit":4263,"Ġstarted":4264,"Ġdecided":4265,"ĠmiutÃ¡n":4266,"Ġmult":4267,"jÃ¡tÃ©k":4268,"ĠkevÃ©s":4269,"ĠAct":4270,"ĠTÃ¶bb":4271,"sziget":4272,"Ġlegf":4273,"gyÅ±l":4274,"aker":4275,"Ã¡zium":4276,"ĠHouse":4277,"imnÃ¡zium":4278,"Ġcaused":4279,"Ġbill":4280,"oln":4281,"Ġeventually":4282,"Ã©kony":4283,"Ġtette":4284,"Ġszo":4285,"ĠWashington":4286,"ĠSchool":4287,"ĠMa":4288,"ĠSzÃŃnhÃ¡z":4289,"Ġkin":4290,"ĠAfric":4291,"dÅĳ":4292,"ĠnÃ©pszerÅ±":4293,"ĠgyÃ³gy":4294,"ĠÃ©rkez":4295,"nd":4296,"Ġwomen":4297,"ĠItt":4298,"Ġstruct":4299,"Ã¤":4300,"ĠrÃ©szÃ©n":4301,"Ġjelenleg":4302,"Ġregion":4303,"ivid":4304,"rÃ©sz":4305,"ĠHol":4306,"ĠlÃ©trehoz":4307,"epend":4308,"Ġgeneral":4309,"den":4310,"Ġfolyamat":4311,"ĠOtt":4312,"onc":4313,"ĠszÃ¡mÃŃt":4314,"ĠkÃ©pes":4315,"ĠÃ¶nÃ¡llÃ³":4316,"Ġbarlang":4317,"lovÃ¡k":4318,"ĠMex":4319,"ift":4320,"rendszer":4321,"Ġmember":4322,"ommun":4323,"Ġzsid":4324,"ĠÃ©rtelm":4325,"ĠQue":4326,"Ġkal":4327,"Ġroute":4328,"Ġcser":4329,"ination":4330,"Ġage":4331,"ĠVer":4332,"rÃ¡z":4333,"elÅĳtt":4334,"Ġfeet":4335,"ĠCom":4336,"ĠGro":4337,"Ġaward":4338,"enci":4339,"eck":4340,"oph":4341,"co":4342,"ĠIndian":4343,"Ġheavy":4344,"erst":4345,"elep":4346,"Ġakart":4347,"erson":4348,"Ġfelett":4349,"ĠFrance":4350,"Ġrit":4351,"Ġvot":4352,"ĠMet":4353,"ĠtartomÃ¡ny":4354,"ĠTor":4355,"Ġcut":4356,"Ġdiplom":4357,"Ġtoget":4358,"ĠbelsÅĳ":4359,"Ġadded":4360,"Ġtogether":4361,"ĠÃīszak":4362,"Ġelekt":4363,"Ġjob":4364,"Ġkeret":4365,"Ġrange":4366,"ble":4367,"Ã¡ty":4368,"Ġgrow":4369,"ĠCharles":4370,"bar":4371,"Ġonce":4372,"ĠegyszerÅ±":4373,"Ġarany":4374,"ude":4375,"Ġfeatures":4376,"Ġutaz":4377,"ella":4378,"sÃ¡gban":4379,"Ġconn":4380,"ĠItal":4381,"Ġhuman":4382,"Ġmater":4383,"Ġformed":4384,"Ġhol":4385,"Ã¶sen":4386,"FA":4387,"ĠeurÃ³pai":4388,"ĠThomas":4389,"Ġirod":4390,"Ġwhite":4391,"Ġinj":4392,"ĠFilm":4393,"Ġactiv":4394,"ĠÃ©d":4395,"igazgat":4396,"rought":4397,"Ġmanag":4398,"Ġtap":4399,"Ġ1944":4400,"ĠBay":4401,"Ġlocated":4402,"Ġinstead":4403,"Ġlik":4404,"Ġnyolc":4405,"Ã©sÃ©nek":4406,"ee":4407,"osi":4408,"Ġvele":4409,"Ġfall":4410,"abil":4411,"Ã¡nÃ¡l":4412,"Ġ90":4413,"Ġkisz":4414,"epar":4415,"Ġrace":4416,"avar":4417,"tan":4418,"itar":4419,"Ġideig":4420,"Ġegyen":4421,"ipt":4422,"Ġcas":4423,"eral":4424,"ommal":4425,"onna":4426,"Ġsaw":4427,"Åĳi":4428,"ĠIr":4429,"ĠFir":4430,"olland":4431,"ĠsegÃŃtsÃ©gÃ©vel":4432,"agon":4433,"ĠHot":4434,"ĠjÃ¡rt":4435,"ĠRichard":4436,"ĠMary":4437,"Ġcivil":4438,"ano":4439,"tr":4440,"Ġra":4441,"ĠDem":4442,"axim":4443,"Ã³ban":4444,"Ġcrew":4445,"Ġbank":4446,"ĠStar":4447,"Ġimportant":4448,"Ġcompleted":4449,"Ġkoncert":4450,"70":4451,"ĠÃ¡llapot":4452,"jÃ¡bÃ³l":4453,"Ġesc":4454,"ĠLos":4455,"SZ":4456,"Ġrev":4457,"foly":4458,"eml":4459,"Ġolimp":4460,"conom":4461,"kÃ¶r":4462,"ĠSÃ¡ndor":4463,"ĠGrand":4464,"ettel":4465,"ample":4466,"rier":4467,"din":4468,"Ġfac":4469,"Ġhelyet":4470,"cast":4471,"Ġplaying":4472,"Ġround":4473,"usi":4474,"Ġjutott":4475,"Ġaction":4476,"Ġ1930":4477,"ĠPÃ©ter":4478,"Ġellent":4479,"Ġcover":4480,"Ġmotor":4481,"ĠajÃ¡n":4482,"Ġmik":4483,"Ġmenny":4484,"Ġklub":4485,"ient":4486,"Ġszerepet":4487,"Ġpred":4488,"Ġdev":4489,"ĠzÃ¡r":4490,"vail":4491,"ĠÃ¶sszes":4492,"ield":4493,"less":4494,"ĠPat":4495,"Ġpopulation":4496,"Ġbehind":4497,"ĠKor":4498,"ĠPeter":4499,"ĠPlay":4500,"ĠhalÃ¡la":4501,"Ġazok":4502,"Ġopened":4503,"ĠkÃ©rd":4504,"ĠÃŃrta":4505,"Ġguns":4506,"ĠvizsgÃ¡l":4507,"ĠtanÃ¡r":4508,"ĠMark":4509,"ror":4510,"ĠnevÃ©t":4511,"Ġrather":4512,"Ġoktat":4513,"itor":4514,"Ġhid":4515,"Ġlehetett":4516,"Ġly":4517,"rey":4518,"ĠvÃ©gre":4519,"ĠhajÃ³":4520,"Ġ2017":4521,"Ã³c":4522,"Ġsurv":4523,"Ġjegy":4524,"Ġ1940":4525,"Ã¡zt":4526,"ract":4527,"ĠMill":4528,"Ġcurr":4529,"Ġget":4530,"Ġstage":4531,"ceed":4532,"igned":4533,"ĠWil":4534,"ĠigÃ©ny":4535,"endÅĳ":4536,"ĠBor":4537,"Ġneh":4538,"ellem":4539,"ĠÃ©g":4540,"Ġothers":4541,"Ãºra":4542,"Ġinvest":4543,"nnep":4544,"Ġworked":4545,"ĠPet":4546,"ola":4547,"Ġmaint":4548,"atra":4549,"dÃ¶nt":4550,"Ġ33":4551,"elve":4552,"Ġhard":4553,"Ġvezetett":4554,"ĠScott":4555,"rick":4556,"ĠosztrÃ¡k":4557,"ĠMusic":4558,"Ġmiss":4559,"Ġcomment":4560,"apt":4561,"ÃŃtÃ©l":4562,"Ġadta":4563,"ĠInt":4564,"ĠÃ©des":4565,"Ġhatalmas":4566,"Ġminiszter":4567,"Ġï¿½":4568,"ficult":4569,"ĠOlasz":4570,"ĠmeghatÃ¡roz":4571,"Ġparty":4572,"aik":4573,"nes":4574,"ĠMivel":4575,"ĠszÃ¶veg":4576,"medi":4577,"szint":4578,"Ġsite":4579,"atott":4580,"Ġmem":4581,"ĠmegÃ¡ll":4582,"ĠTom":4583,"Ġtizen":4584,"jÃ¡ra":4585,"Ġloss":4586,"Ġlack":4587,"Ġkb":4588,"ĠArt":4589,"ĠtÃ¶bbek":4590,"Ġkeleti":4591,"Ġweeks":4592,"ned":4593,"ĠkÃ¶zleked":4594,"Ġvet":4595,"Ġaddig":4596,"Ġclose":4597,"Ġdifficult":4598,"abor":4599,"Ġ300":4600,"ades":4601,"ĠBest":4602,"ota":4603,"Ãºlt":4604,"Ġsubsequ":4605,"ishing":4606,"Ġlive":4607,"Ãºsz":4608,"Ġhost":4609,"rec":4610,"Ġideg":4611,"itte":4612,"ĠCast":4613,"ĠmÃ¡sod":4614,"Ġkedv":4615,"Ġkiem":4616,"Ġmenek":4617,"istic":4618,"akor":4619,"ploy":4620,"Ġutal":4621,"Ġpeak":4622,"Ġazzal":4623,"Ġugyanis":4624,"Ġkim":4625,"ÃŃteni":4626,"Ġoriginally":4627,"essz":4628,"atokat":4629,"Ã¼st":4630,"ĠPe":4631,"Ġrak":4632,"Ġelismer":4633,"ĠEurope":4634,"ĠBiz":4635,"Ġalmost":4636,"Ġdoll":4637,"ÅĳsÃ©g":4638,"mÅ±v":4639,"ĠSmith":4640,"Ġrelationship":4641,"Ãī":4642,"olit":4643,"Ġdamage":4644,"eiben":4645,"dal":4646,"Ġqual":4647,"Ġsepar":4648,"Ã¡jÃ¡nak":4649,"Ġindivid":4650,"Ġakit":4651,"ĠidÅĳben":4652,"ĠBut":4653,"rik":4654,"Ġscored":4655,"Ġupon":4656,"ĠTudomÃ¡ny":4657,"Ġleading":4658,"einek":4659,"Ġyoung":4660,"ouncil":4661,"han":4662,"ĠIV":4663,"Ġtur":4664,"ĠCro":4665,"ĠEzutÃ¡n":4666,"Ġappoint":4667,"irk":4668,"Ġfourth":4669,"ĠvÃ©r":4670,"Ġip":4671,"Ġszinte":4672,"ĠDi":4673,"hi":4674,"Ġmut":4675,"ĠbÃŃr":4676,"Ġtanult":4677,"Ġnorm":4678,"jeszt":4679,"sy":4680,"Ġreve":4681,"Ġ1920":4682,"Ġvegy":4683,"imb":4684,"Ġdu":4685,"ĠrÃ©szben":4686,"Ã¶zÃ¶tt":4687,"ĠKol":4688,"Ġfoc":4689,"Ġassoci":4690,"Åĳsebb":4691,"Ġpract":4692,"jon":4693,"ĠGold":4694,"ĠÃ¼nnep":4695,"Ġworks":4696,"iting":4697,"ĠRoman":4698,"aki":4699,"angu":4700,"Ġprovided":4701,"attak":4702,"sa":4703,"ĠfÅĳleg":4704,"ĠszÃ¡z":4705,"apja":4706,"Ġconstruction":4707,"Ġeffort":4708,"aves":4709,"Ġcreat":4710,"ili":4711,"Ġbrought":4712,"ĠAc":4713,"hatÃ³k":4714,"Ġclos":4715,"ograph":4716,"Ġ36":4717,"ounter":4718,"ĠHal":4719,"Ġwanted":4720,"Ġscene":4721,"ÃŃtvÃ¡ny":4722,"ĠMcC":4723,"Ġ178":4724,"ĠFlor":4725,"edett":4726,"Ġlengyel":4727,"ali":4728,"ĠPÃ¡r":4729,"Ġmaterial":4730,"Ġszok":4731,"Ġallowed":4732,"Ġhig":4733,"Ġtartozik":4734,"Ġaverage":4735,"stant":4736,"Ã©vÃ©":4737,"ĠGi":4738,"ĠVill":4739,"Ġking":4740,"Ġtowards":4741,"Ġworking":4742,"ĠcÃŃmmel":4743,"ĠkÃ¶v":4744,"ĠMÃ¡ria":4745,"ope":4746,"ĠÃ©vig":4747,"Ġcase":4748,"Ġquick":4749,"ĠproblÃ©m":4750,"Ġlaun":4751,"ĠTest":4752,"ĠRes":4753,"kon":4754,"Ġiz":4755,"Ġborn":4756,"Ã©li":4757,"Ġalkalommal":4758,"eve":4759,"adÃ©k":4760,"Ġleast":4761,"Ġtroops":4762,"Ġkomp":4763,"hang":4764,"Ġfeatured":4765,"ĠVict":4766,"Ġszovjet":4767,"ential":4768,"Ġplaced":4769,"ibr":4770,"Ġnemzeti":4771,"Ġpoz":4772,"Ġdob":4773,"Ġcritics":4774,"Ġgondol":4775,"ĠnehÃ©z":4776,"Ġbusiness":4777,"ĠSen":4778,"asy":4779,"Ġtradition":4780,"Ġprofess":4781,"ultak":4782,"Ġreach":4783,"Ġindust":4784,"ilag":4785,"ention":4786,"ĠLu":4787,"ĠMartin":4788,"zte":4789,"ÃŃtjÃ¡k":4790,"ĠÃ¡brÃ¡z":4791,"talan":4792,"Ġruns":4793,"rant":4794,"Ġge":4795,"zetes":4796,"Ġeither":4797,"ĠjÃ¶tt":4798,"ump":4799,"After":4800,"ains":4801,"ĠEzen":4802,"ĠKn":4803,"erÅĳs":4804,"ĠkÃŃnai":4805,"nyug":4806,"jÃ©nek":4807,"Ġfa":4808,"ountain":4809,"ciety":4810,"ĠLen":4811,"Ġplann":4812,"hester":4813,"oms":4814,"Ġ1988":4815,"Ġavail":4816,"ĠtartozÃ³":4817,"Ġarmy":4818,"Ġsex":4819,"elnÃ¶k":4820,"mir":4821,"ĠmÅ±kÃ¶dÃ¶tt":4822,"Ã¶nyv":4823,"oor":4824,"ĠtÃ©ny":4825,"Ġestim":4826,"rup":4827,"ĠgazdasÃ¡gi":4828,"ĠGreat":4829,"Ã¡sÃ¡ban":4830,"Ã¡rost":4831,"ĠDep":4832,"Ã©csi":4833,"hold":4834,"Ġcontract":4835,"Ġhivatalos":4836,"ĠregÃ©ny":4837,"essÃ©ge":4838,"ĠÃ¡g":4839,"ezÃ©st":4840,"omÃ©ter":4841,"ĠlÃ©ny":4842,"ĠGod":4843,"ĠtÅ±z":4844,"ĠLo":4845,"Ġwife":4846,"Ġimm":4847,"Ġeconom":4848,"Ġpot":4849,"ĠvÃ©gezte":4850,"Ġjoined":4851,"fall":4852,"mÅ±kÃ¶d":4853,"Ġmass":4854,"Ġgenerally":4855,"Ġexample":4856,"vidÃ©k":4857,"mann":4858,"ological":4859,"Ġsom":4860,"Ġvezette":4861,"Ġengine":4862,"ĠfÅĳvÃ¡ros":4863,"Ġ37":4864,"Ã©lyi":4865,"ssz":4866,"ĠneveztÃ©k":4867,"St":4868,"lÅĳd":4869,"ĠPresident":4870,"hatott":4871,"aps":4872,"Ġfort":4873,"iforn":4874,"Ġoffice":4875,"Ġviz":4876,"quadron":4877,"iÃ³ban":4878,"csoport":4879,"Ã©sben":4880,"Ġolvas":4881,"iction":4882,"ĠmÃ³don":4883,"Ġbelieved":4884,"ĠtudomÃ¡nyos":4885,"Ġmix":4886,"Ġrecogn":4887,"Ġaccept":4888,"Ġdolgoz":4889,"ĠesetÃ©n":4890,"Ġrail":4891,"Ġfund":4892,"Ġdro":4893,"ĠhÅĳ":4894,"Ġsour":4895,"vir":4896,"ollowing":4897,"inci":4898,"ĠeszkÃ¶z":4899,"Ġnomin":4900,"Ã©pÃŃtÃ©s":4901,"Ġmother":4902,"ifornia":4903,"Ġelhagy":4904,"ols":4905,"Ġrespect":4906,"Ġ38":4907,"amos":4908,"ĠInternational":4909,"asing":4910,"ĠJackson":4911,"ĠÃįgy":4912,"Al":4913,"ĠhagyomÃ¡ny":4914,"ĠLouis":4915,"Ġparticip":4916,"ĠSl":4917,"Ġreb":4918,"artment":4919,"har":4920,"ĠRev":4921,"ĠPÃ¡l":4922,"ĠvalÃ³szÃŃnÅ±leg":4923,"ĠvisszatÃ©rt":4924,"ala":4925,"Ġ150":4926,"ĠegymÃ¡s":4927,"Ġsoon":4928,"ĠcÃŃmet":4929,"ĠeltÃ©r":4930,"ĠVirgin":4931,"ĠWhite":4932,"enty":4933,"ĠEbben":4934,"ĠmÅ±sor":4935,"rain":4936,"Ġmph":4937,"Ġ34":4938,"ehÃ©r":4939,"ĠKer":4940,"ĠMur":4941,"Ġakkori":4942,"Ġvictory":4943,"west":4944,"Ġ1941":4945,"ĠGame":4946,"ĠÃŃrÃ³":4947,"Ġste":4948,"Ġknow":4949,"ators":4950,"Ġezer":4951,"atÃ¡rs":4952,"ĠBillboard":4953,"using":4954,"Ġ1986":4955,"Ġdesigned":4956,"Ġreplaced":4957,"ĠkÃ¶zvetlen":4958,"rest":4959,"Ġisland":4960,"ĠszÃ¼l":4961,"echan":4962,"ĠfeltÃ©tel":4963,"hib":4964,"Å¡":4965,"izÃ¡l":4966,"Ġpriv":4967,"ĠidÅĳk":4968,"ĠkeresztÃ©ny":4969,"com":4970,"mÃ¡n":4971,"rison":4972,"Ġhours":4973,"ĠEuropean":4974,"Ġemberek":4975,"Ġvend":4976,"acsony":4977,"Ġ1987":4978,"ĠGerm":4979,"erous":4980,"edy":4981,"Å±rÅ±":4982,"etek":4983,"ĠCup":4984,"ente":4985,"ĠTour":4986,"ĠtÃ¡j":4987,"ĠDan":4988,"etwork":4989,"Ġelnev":4990,"Ġhiszen":4991,"Ã¡ns":4992,"ĠBrown":4993,"Ġforgat":4994,"hetett":4995,"Ġfinished":4996,"ĠkÃ¶tÃ¶tt":4997,"ĠOly":4998,"Ġdin":4999,"ĠkÃ©szÃŃtett":5000,"Ġrap":5001,"Ġszezon":5002,"Ġ75":5003,"Ġinvolved":5004,"Th":5005,"Ġexpress":5006,"terjed":5007,"ĠtÃ©m":5008,"Ġperson":5009,"edÃ©k":5010,"bbÅĳl":5011,"Ġcsapatok":5012,"Ã¡pl":5013,"ights":5014,"iddle":5015,"Ġegyszer":5016,"Ġcour":5017,"ĠszÃ©t":5018,"Ġfree":5019,"atÃ¡t":5020,"ĠIndia":5021,"Ġtet":5022,"ĠBattle":5023,"Ġemploy":5024,"eltek":5025,"Ġbur":5026,"ĠmegtalÃ¡l":5027,"mÃ©nyek":5028,"ebben":5029,"ĠtÃ¶meg":5030,"adalmi":5031,"vei":5032,"ĠutÃ³bbi":5033,"ĠÃ¡ld":5034,"Ġwhe":5035,"Ġparancsnok":5036,"ids":5037,"Ġevents":5038,"ĠDV":5039,"ĠIsland":5040,"Ġshot":5041,"kl":5042,"ĠezutÃ¡n":5043,"Ġapja":5044,"ÃŃtva":5045,"Ġsurf":5046,"Ġfelsz":5047,"sÃ¡gÃ¡t":5048,"Ġproducer":5049,"ĠMih":5050,"atta":5051,"Ġotth":5052,"Ġstb":5053,"ĠCompany":5054,"iÄĩ":5055,"ĠrÃ¶g":5056,"ĠÃ©rint":5057,"Ġbreak":5058,"ume":5059,"Ġtitk":5060,"Ġsaying":5061,"ĠVan":5062,"Ġpur":5063,"Ġ1984":5064,"Ġmad":5065,"Ġthreat":5066,"ĠAndrÃ¡s":5067,"Ġpresident":5068,"Ġregular":5069,"Ġcsillag":5070,"Ã©ri":5071,"ĠMT":5072,"ĠIf":5073,"Ã¡sai":5074,"ikÃ¡ban":5075,"Ġpuszt":5076,"Ġvoc":5077,"ĠpÃ©ldÃ¡ny":5078,"Ġtav":5079,"Ġkeep":5080,"Ġopening":5081,"ĠuralkodÃ³":5082,"bi":5083,"ĠszÃŃv":5084,"okbÃ³l":5085,"Ġpor":5086,"ĠTimes":5087,"ears":5088,"ĠSome":5089,"ĠazÃ©rt":5090,"ĠKÃ©t":5091,"Ġsev":5092,"Ġveszt":5093,"ĠSing":5094,"atural":5095,"kÃ¼lÃ¶n":5096,"Ġrob":5097,"Ġsouthern":5098,"emat":5099,"Ġ177":5100,"ĠfelhasznÃ¡l":5101,"ĠChurch":5102,"Ġtravel":5103,"Ġanal":5104,"Ġinitially":5105,"ĠIg":5106,"Ġoccur":5107,"Ġnevet":5108,"Ġlargest":5109,"omi":5110,"ĠbÅĳ":5111,"ĠErd":5112,"Ġsuper":5113,"Ġlength":5114,"ĠmÃ¶g":5115,"ring":5116,"icated":5117,"ĠVas":5118,"ĠszÃ¼ksÃ©g":5119,"Ġearlier":5120,"icle":5121,"Ġminutes":5122,"dig":5123,"Ġadmin":5124,"ateg":5125,"Ġdirector":5126,"gar":5127,"ecutive":5128,"Ġhighest":5129,"ĠÃ©rte":5130,"Ġforced":5131,"ĠRob":5132,"kedett":5133,"Ġconduct":5134,"ĠelÅĳbb":5135,"ĠvirÃ¡g":5136,"ĠOff":5137,"Ġremov":5138,"ctor":5139,"omer":5140,"Ġfelfed":5141,"ĠÃ©nekes":5142,"ĠtehÃ¡t":5143,"ĠChristian":5144,"Ġpossible":5145,"Ġpercent":5146,"Ã©ves":5147,"ĠAtlant":5148,"Ã³kÃ©nt":5149,"Ġhull":5150,"Ġfekete":5151,"Ã¡llÃ¡s":5152,"Ġparticularly":5153,"Ġcommer":5154,"bour":5155,"ĠNavy":5156,"Ġopt":5157,"osition":5158,"ĠCollege":5159,"Ġcontrib":5160,"ĠAuszt":5161,"ĠtÃŃz":5162,"ĠMiklÃ³s":5163,"osaur":5164,"ĠellÃ¡t":5165,"sburg":5166,"akt":5167,"ulf":5168,"Ġkislemez":5169,"pe":5170,"ĠdÃŃj":5171,"ĠGar":5172,"play":5173,"Ġhighway":5174,"Ġpersonal":5175,"ĠBÃ¡r":5176,"chiev":5177,"ĠelkÃ©sz":5178,"Ġavailable":5179,"oltak":5180,"Ġtraining":5181,"Ġended":5182,"ĠkÃ¶szÃ¶nhetÅĳen":5183,"ĠkorÃ¡ban":5184,"Ġop":5185,"aga":5186,"Ġwall":5187,"Ġturned":5188,"zy":5189,"Ġegykori":5190,"Ġstop":5191,"ĠAkadÃ©m":5192,"Ġbenne":5193,"okk":5194,"Ġcentral":5195,"Ãģ":5196,"ece":5197,"tÃ©ben":5198,"ĠDel":5199,"oha":5200,"vÃ©r":5201,"Ġkr":5202,"ĠszÃ©p":5203,"ĠTam":5204,"yr":5205,"asion":5206,"ĠRepublic":5207,"ĠhorvÃ¡t":5208,"olÃ³gia":5209,"ply":5210,"Ġ1985":5211,"Ġsequ":5212,"ĠelnÃ¶ke":5213,"gely":5214,"Ã©sÅ±":5215,"aring":5216,"Ġexist":5217,"ĠszÃ©les":5218,"ested":5219,"antry":5220,"ĠTV":5221,"Ã©vÃ©n":5222,"Ġpraised":5223,"Ġszom":5224,"Ġstudio":5225,"Ġ1910":5226,"Ġmaxim":5227,"ĠKingdom":5228,"lap":5229,"Ġrespons":5230,"ises":5231,"Ġgoal":5232,"Ġliter":5233,"Ã¡juk":5234,"Ġ1942":5235,"fej":5236,"evÅĳ":5237,"zik":5238,"ora":5239,"Ġeredetileg":5240,"Ġincreased":5241,"ivÃ¡l":5242,"ĠfelesÃ©ge":5243,"Ġmegk":5244,"Ġfif":5245,"ĠcsÃ¶kkent":5246,"Ġsereg":5247,"Ġabban":5248,"Ġpassed":5249,"heast":5250,"ĠGal":5251,"Ġkezdve":5252,"Ð°":5253,"Ġutas":5254,"ification":5255,"ĠJer":5256,"zÃ¡k":5257,"Ã¡c":5258,"ĠUnion":5259,"Ġ1968":5260,"Ġtold":5261,"ĠvezÃ©r":5262,"fordul":5263,"ming":5264,"Ġmust":5265,"Ġindul":5266,"Ġlatin":5267,"Ġnorthern":5268,"ĠOper":5269,"ĠAssoci":5270,"bajnok":5271,"nyire":5272,"Ġsocial":5273,"III":5274,"ĠRad":5275,"ĠChic":5276,"rÃ©szt":5277,"Ð¾":5278,"ĠhasonlÃ³an":5279,"ĠMÃ¡s":5280,"ĠBirodalom":5281,"asc":5282,"AF":5283,"Ġosz":5284,"Ġlog":5285,"istÃ¡k":5286,"ĠTur":5287,"enet":5288,"Ġhy":5289,"dolg":5290,"lia":5291,"Ġhurricane":5292,"ĠGo":5293,"Ġ1918":5294,"ĠMel":5295,"ests":5296,"Ġrossz":5297,"ĠtÃ¶":5298,"Ġbele":5299,"Ġchange":5300,"ĠCourt":5301,"Ġregard":5302,"Ġli":5303,"uty":5304,"ership":5305,"Ġ39":5306,"Ġgrad":5307,"oke":5308,"urÃ¡lis":5309,"Ġfogad":5310,"ĠVictor":5311,"ĠAngeles":5312,"Ġmegold":5313,"Ġdoc":5314,"ĠKon":5315,"Ġtre":5316,"Ġquar":5317,"ova":5318,"apesti":5319,"Ġbron":5320,"Ġudvar":5321,"ĠTex":5322,"Ġhazai":5323,"ĠjÃ¡tÃ©kos":5324,"ĠÃ¡llandÃ³":5325,"ĠChampionship":5326,"ĠmÃ©rtÃ©k":5327,"rated":5328,"Ġphys":5329,"Ġ1982":5330,"Ġbefoly":5331,"rang":5332,"Ġmusical":5333,"ĠClub":5334,"ĠTem":5335,"Ġtar":5336,"ĠÃ©rdekÃ©ben":5337,"Ġimmedi":5338,"cher":5339,"ĠSk":5340,"ĠFirst":5341,"zÃ©se":5342,"Ġnegyedik":5343,"Ġegyetemi":5344,"Ġvar":5345,"ĠNev":5346,"ĠCanada":5347,"ĠlÃ¡b":5348,"Ġrelig":5349,"Ġdoub":5350,"cience":5351,"Ġordered":5352,"etÃ©s":5353,"ĠkÃ¶rnyezet":5354,"ĠsÃ¡r":5355,"Ġlangu":5356,"ĠtÃ¶ltÃ¶tt":5357,"ĠSuper":5358,"ĠÃ¶sszesen":5359,"Ġunits":5360,"Ġappearance":5361,"Ġkommun":5362,"Ġmikor":5363,"hal":5364,"Ġchurch":5365,"Ġunc":5366,"Ġhallgat":5367,"ĠTra":5368,"quare":5369,"Ġpast":5370,"ĠrÃ©t":5371,"ĠÃ©j":5372,"Ġszerezte":5373,"Ġlove":5374,"ĠEnter":5375,"igan":5376,"ĠUr":5377,"Ġ1956":5378,"Ġ1943":5379,"Ġterjed":5380,"Ġszerb":5381,"Ġbudapesti":5382,"ression":5383,"kormÃ¡ny":5384,"ĠveszÃ©ly":5385,"ontin":5386,"Ġ1972":5387,"ughter":5388,"ĠMo":5389,"Ġgyakorlat":5390,"Ġwat":5391,"rying":5392,"mb":5393,"Ġtaking":5394,"Ġerre":5395,"ĠMic":5396,"Ġdisp":5397,"ference":5398,"Ġanti":5399,"ĠMr":5400,"Ġspeed":5401,"ĠCalifornia":5402,"ĠÃºjsÃ¡g":5403,"Ġmove":5404,"ĠkilomÃ©ter":5405,"Ġmeas":5406,"olni":5407,"ĠÃ¡ltalÃ¡nos":5408,"sorozat":5409,"ĠCr":5410,"Ġ1976":5411,"ĠAtt":5412,"ully":5413,"Ġ49":5414,"irat":5415,"Ã¶lte":5416,"Ġwinds":5417,"upÃ¡n":5418,"ava":5419,"lalt":5420,"Ġenerg":5421,"ĠPan":5422,"Ã©ni":5423,"Ġsigned":5424,"ĠJim":5425,"Ġtudott":5426,"ĠtÃ¶rzs":5427,"ask":5428,"Ġiskola":5429,"ĠcsÃºcs":5430,"Ġbizonyos":5431,"ĠtÃ¶bbszÃ¶r":5432,"ĠvendÃ©g":5433,"ĠvisszatÃ©r":5434,"Ġ1983":5435,"ĠkÃ¶vetkeztÃ©ben":5436,"hetetlen":5437,"Ġweak":5438,"Ġnovel":5439,"Ġ400":5440,"Ġ1979":5441,"ĠMiutÃ¡n":5442,"ĠvÃ¡rmegye":5443,"ittee":5444,"ĠTwo":5445,"tized":5446,"Ã¶ssze":5447,"Ġenough":5448,"ĠkÃ¼lÃ¶nÃ¶sen":5449,"ĠkÃ³r":5450,"eznek":5451,"Ġindepend":5452,"ĠdÃ¶ntÅĳ":5453,"Ġ=":5454,"Ġbetter":5455,"pon":5456,"Ġkomoly":5457,"Ã¼zd":5458,"Ġspent":5459,"ĠDay":5460,"Ġtreat":5461,"ila":5462,"ĠvezetÅĳje":5463,"Ġgoing":5464,"ĠkÃ¶ztÃ¼k":5465,"Ġ1974":5466,"Ġmodell":5467,"Ġachiev":5468,"ĠBat":5469,"Ġlakosa":5470,"Ġpositive":5471,"term":5472,"ĠszÃ³lÃ³":5473,"pec":5474,"ĠelÅĳad":5475,"ĠkÃŃv":5476,"Ġeduc":5477,"ĠrepÃ¼lÅĳgÃ©p":5478,"Ġ1975":5479,"Ã¼ltek":5480,"ÃŃtÃ¡st":5481,"25":5482,"Ġï¿½ï¿½ï¿½ï¿½":5483,"ecess":5484,"ĠkÃ¶zelÃ©ben":5485,"Ġfeel":5486,"ĠnÃ©z":5487,"ĠCong":5488,"Ġmegalap":5489,"ĠFI":5490,"Ġdig":5491,"arily":5492,"Ã¡lÃ³z":5493,"helye":5494,"ĠmÃ³dszer":5495,"Ġreveal":5496,"ĠHad":5497,"Ġmor":5498,"ĠzsidÃ³":5499,"Ġradio":5500,"csap":5501,"enni":5502,"ĠNÃ©p":5503,"dh":5504,"Ã³dÃ³":5505,"Ġoutside":5506,"ĠDVD":5507,"ĠSar":5508,"Ġconcern":5509,"Ġ48":5510,"Ġbefej":5511,"ĠhÅ±":5512,"Ġaccording":5513,"ĠLove":5514,"anding":5515,"ĠHo":5516,"Ã³val":5517,"Ã¶tÃ©t":5518,"ĠÃ¡llat":5519,"ĠkerÃ¼let":5520,"Ġfekszik":5521,"ĠÃ¶r":5522,"ĠEgyes":5523,"iding":5524,"Ġpreviously":5525,"szk":5526,"ender":5527,"Ġclear":5528,"olÃ¡s":5529,"ĠÃ¼l":5530,"Ġfailed":5531,"Ġweb":5532,"ĠÃ¡tlag":5533,"ĠEdward":5534,"Ġalacsony":5535,"Ã³ni":5536,"akkor":5537,"Ġnine":5538,"ĠSov":5539,"ĠAmikor":5540,"ĠkÃ¶tel":5541,"Ġarc":5542,"Ġmeggy":5543,"ztÃ¡k":5544,"udomÃ¡nyi":5545,"NA":5546,"usok":5547,"ĠCamp":5548,"Ġdomin":5549,"ĠkÃ¼lsÅĳ":5550,"ressz":5551,"uan":5552,"ĠkÃŃsÃ©rlet":5553,"Ġgazdag":5554,"Ġfelel":5555,"Ġ1978":5556,"Ġey":5557,"Ġzenei":5558,"Ġquest":5559,"ĠThat":5560,"ĠszÃŃnhÃ¡z":5561,"Ġfilms":5562,"Ġmetal":5563,"ĠVÃ©g":5564,"Ġ1948":5565,"Ġcome":5566,"oute":5567,"Åĳri":5568,"ĠrendkÃŃvÃ¼l":5569,"ĠNÃ©":5570,"Ġhajt":5571,"ĠÂ£":5572,"ĠjÃ¶v":5573,"Ġprob":5574,"Ġresearch":5575,"Ġmean":5576,"Ġcru":5577,"lÃ©t":5578,"Ġabove":5579,"nÅĳtt":5580,"leszt":5581,"ands":5582,"ĠAward":5583,"ergy":5584,"ĠPac":5585,"Ġ1939":5586,"ĠÃ©vad":5587,"Ġ1973":5588,"rÃ©":5589,"Ġrain":5590,"Ġpaint":5591,"198":5592,"ĠBur":5593,"Ġrequired":5594,"Ġthink":5595,"ĠUK":5596,"Ġlakos":5597,"uction":5598,"prÃ³b":5599,"ĠrÃ¡d":5600,"ĠszÃ¡rny":5601,"oper":5602,"Ġtax":5603,"Ġstates":5604,"Ġpay":5605,"Ġlower":5606,"Ġ1969":5607,"verseny":5608,"uke":5609,"ĠHan":5610,"Ġmozd":5611,"odott":5612,"ĠgyÅĳzt":5613,"ĠkÃ¶ny":5614,"Ġdespite":5615,"ĠBÃ©l":5616,"Ġrajz":5617,"ĠRecords":5618,"eik":5619,"useum":5620,"Ġassz":5621,"Ġakinek":5622,"ĠÃ©rkezett":5623,"oring":5624,"Ġmeghalt":5625,"ĠDis":5626,"Ġtagjai":5627,"Ġdirected":5628,"ÃŃm":5629,"Ġche":5630,"asztal":5631,"ĠJust":5632,"Ġparts":5633,"Ġelements":5634,"astÃ©ly":5635,"Ġitself":5636,"ready":5637,"Ġreviews":5638,"issz":5639,"ĠBu":5640,"Ġvonatkoz":5641,"ĠForce":5642,"ĠoldalÃ¡n":5643,"imÃ©ter":5644,"Ġirodalom":5645,"osing":5646,"ĠegymÃ¡st":5647,"Ġszeg":5648,"elled":5649,"ĠCre":5650,"Ġ1981":5651,"Ġbase":5652,"Ġdon":5653,"lor":5654,"back":5655,"Ġ1977":5656,"ĠegysÃ©g":5657,"Ġ1971":5658,"ĠnÅĳi":5659,"ĠhatÃ¡roz":5660,"Ġwid":5661,"ometimes":5662,"ĠRos":5663,"Ġassist":5664,"Ġwestern":5665,"Ã¡zis":5666,"ĠSir":5667,"Ġviol":5668,"ugg":5669,"akk":5670,"to":5671,"Ġox":5672,"Ġost":5673,"tebb":5674,"ĠPÃ¡rizs":5675,"Ġinterview":5676,"ship":5677,"Ġdebut":5678,"ĠEv":5679,"Ġemberi":5680,"Ġbeginning":5681,"Ġaccess":5682,"Ġtorn":5683,"alÃ©k":5684,"Ġ1967":5685,"Ġpoor":5686,"Ġfokozat":5687,"ĠNY":5688,"ĠUSA":5689,"ĠEzzel":5690,"itÃ¡s":5691,"elek":5692,"belÃ¼l":5693,"vert":5694,"teen":5695,"Ġaltern":5696,"Ġclaimed":5697,"Ġfootball":5698,"Ġkiz":5699,"ĠKi":5700,"ĠfÅĳszerep":5701,"ĠSun":5702,"ĠWestern":5703,"Ġhalt":5704,"ĠGermany":5705,"Ġprevent":5706,"ontosabb":5707,"ĠMiss":5708,"Ġmarket":5709,"Ġszellem":5710,"eption":5711,"rief":5712,"eff":5713,"Ġasked":5714,"oli":5715,"Ġ65":5716,"puszt":5717,"ĠInter":5718,"ĠÎ":5719,"aud":5720,"Ġaccount":5721,"Ġjour":5722,"Ġfordul":5723,"Ġ42":5724,"ĠMat":5725,"Ġphot":5726,"ĠBoy":5727,"vÃ¡":5728,"ĠnyÃºjt":5729,"Ġ47":5730,"Ġrecording":5731,"ĠBÃ©cs":5732,"ibility":5733,"ĠkerÃ¼ltek":5734,"hajt":5735,"mit":5736,"Ġtransfer":5737,"Ġcenter":5738,"ĠsÃŃr":5739,"Ġsection":5740,"rum":5741,"ĠGovern":5742,"ĠDespite":5743,"tette":5744,"ĠHung":5745,"acing":5746,"Ġagy":5747,"Ġgive":5748,"ĠforrÃ¡s":5749,"Ġwhose":5750,"unyt":5751,"Ġesetben":5752,"Ġbuk":5753,"Ġgroups":5754,"ĠFort":5755,"szÃ©d":5756,"Ġbrother":5757,"Ã©seket":5758,"An":5759,"Ġidea":5760,"As":5761,"rich":5762,"sÃ©gben":5763,"ogrÃ¡":5764,"Ġ1964":5765,"ĠKore":5766,"pped":5767,"zsa":5768,"Ġaudi":5769,"ĠRoute":5770,"Ġquickly":5771,"Ġlines":5772,"cel":5773,"ston":5774,"Ġwhom":5775,"hile":5776,"Ġcred":5777,"Ġvisszavon":5778,"ĠvÃ¶rÃ¶s":5779,"Ã¡tum":5780,"ores":5781,"ĠGreen":5782,"Ġgold":5783,"mes":5784,"Ġ44":5785,"Ġintroduced":5786,"zÃ¡s":5787,"Ġfuture":5788,"Ġkics":5789,"ĠRam":5790,"ĠvÃ¡ltoz":5791,"Ġleague":5792,"ĠegyedÃ¼l":5793,"edelem":5794,"ĠRh":5795,"ections":5796,"Ġalready":5797,"Ġult":5798,"part":5799,"Ð¸":5800,"ĠszÃ¼ksÃ©ges":5801,"airs":5802,"Ġbridge":5803,"level":5804,"Ġdeep":5805,"ĠOs":5806,"ĠÃ©ppen":5807,"Ġmechan":5808,"ĠEs":5809,"adÃ¡ly":5810,"Ġdeterm":5811,"Ġsitu":5812,"ĠTri":5813,"szerk":5814,"Ġsat":5815,"ĠleÃŃr":5816,"ĠHab":5817,"szÃ¶vetsÃ©g":5818,"Ġarrived":5819,"Ġkelt":5820,"ĠmellÃ©k":5821,"ĠMost":5822,"Ġkapcsolat":5823,"Ġinternational":5824,"Egy":5825,"Ġobject":5826,"mÃ³d":5827,"ĠDa":5828,"Ġtudta":5829,"Ã¡ris":5830,"Ġentire":5831,"Ġtisztelet":5832,"ĠmÃ©gis":5833,"ĠâĢ¦":5834,"ĠmegerÅĳs":5835,"Ġamelyben":5836,"ĠVirginia":5837,"Ġdeal":5838,"go":5839,"Ġhelyre":5840,"Ã³nak":5841,"ĠSong":5842,"ground":5843,"ĠrendÅĳr":5844,"Ġminor":5845,"Ġgyerek":5846,"Ġevidence":5847,"ĠaktÃŃv":5848,"ĠRÃ³m":5849,"wer":5850,"Ġhord":5851,"afut":5852,"Ġszempont":5853,"ĠDeb":5854,"ĠfellÃ©p":5855,"Ġadditional":5856,"Ġsil":5857,"ĠPest":5858,"jÃ©ben":5859,"ĠKÃ¶zt":5860,"ĠJean":5861,"Ã¡plÃ¡l":5862,"Ġ55":5863,"ĠBas":5864,"Ġappl":5865,"Ġoccup":5866,"Ġmunka":5867,"test":5868,"ĠÃ©vtized":5869,"Ġscore":5870,"ĠJohnson":5871,"illa":5872,"ĠkezdÅĳdÃ¶tt":5873,"ĠOther":5874,"Ġfrequ":5875,"ĠChicago":5876,"Ġusually":5877,"sÃºly":5878,"ĠÃ¡tv":5879,"Ġplat":5880,"ĠrÃ©vÃ©n":5881,"Ġsea":5882,"ĠfiÃº":5883,"eccs":5884,"imin":5885,"ĠhÃŃres":5886,"eleb":5887,"ÃŃtÃ¡sÃ¡t":5888,"Ġrag":5889,"Ġcycl":5890,"ĠfÅ±":5891,"ĠalsÃ³":5892,"Ġdeg":5893,"now":5894,"Ġ1966":5895,"ado":5896,"sem":5897,"Ã¶ny":5898,"stein":5899,"inct":5900,"tainment":5901,"fok":5902,"ĠmezÅĳg":5903,"ĠmennyisÃ©g":5904,"ken":5905,"Ã©ve":5906,"Ã©szek":5907,"ĠveresÃ©g":5908,"Ġkup":5909,"ĠAlbert":5910,"Ġmoney":5911,"Ġkiter":5912,"ĠBelg":5913,"ĠhasznÃ¡lt":5914,"jekt":5915,"bury":5916,"Ġfemale":5917,"Ġlegend":5918,"esztivÃ¡l":5919,"heim":5920,"ĠszÃ¡rmazik":5921,"Ġkey":5922,"Ġflood":5923,"erÅĳ":5924,"Ġspecific":5925,"ĠMass":5926,"Ġespec":5927,"Ġemer":5928,"iser":5929,"ĠtelevÃŃz":5930,"elle":5931,"ĠLord":5932,"Ġdecision":5933,"ĠBritain":5934,"Ġfood":5935,"Ġcur":5936,"Ġespecially":5937,"ĠmunkatÃ¡rs":5938,"asons":5939,"Ġegyben":5940,"Ã¡Ã©rt":5941,"ĠLuc":5942,"Ġprior":5943,"ĠmegbÃŃz":5944,"lop":5945,"Ġmegle":5946,"ĠAssociation":5947,"ĠmindkÃ©t":5948,"Ġelkezd":5949,"Ġ64":5950,"ĠvÃ¡lasztottÃ¡k":5951,"lyel":5952,"ĠtanulmÃ¡nyait":5953,"ĠHorvÃ¡t":5954,"ĠFrom":5955,"Ġestimated":5956,"anish":5957,"maradt":5958,"Ġklassz":5959,"szolg":5960,"Ġproduct":5961,"ĠvÃ¡rost":5962,"ady":5963,"Ġmagazine":5964,"Ġ1946":5965,"Ġcarried":5966,"Ġsubject":5967,"ĠBig":5968,"Ġ43":5969,"Ġbajnoki":5970,"Ġdram":5971,"ĠszÃ¡mÃº":5972,"Ġstudy":5973,"nyal":5974,"Ġconstruct":5975,"Ã¡kkal":5976,"win":5977,"Ġmight":5978,"rics":5979,"Ġissue":5980,"ĠkÃ¶zepÃ©n":5981,"Ġremaining":5982,"Ġeastern":5983,"ĠlÅĳ":5984,"pire":5985,"inus":5986,"Ġsometimes":5987,"Ġdefeated":5988,"ĠPri":5989,"194":5990,"ĠcsupÃ¡n":5991,"ĠtÃ¡rsasÃ¡g":5992,"zÅĳje":5993,"ĠvadÃ¡sz":5994,"ught":5995,"Ġlarger":5996,"ĠmegvÃ¡lt":5997,"agn":5998,"Ġelection":5999,"Ġbecoming":6000,"kozott":6001,"szich":6002,"liament":6003,"Ġ1957":6004,"Ġsurface":6005,"ective":6006,"Ġfelkel":6007,"Ġden":6008,"Ġslow":6009,"Ġapprox":6010,"ĠJapÃ¡n":6011,"ĠJo":6012,"ĠOld":6013,"ĠKal":6014,"Ġwood":6015,"ĠMihÃ¡ly":6016,"ĠOlymp":6017,"Ġterrit":6018,"ĠkÃ¶l":6019,"ĠadomÃ¡ny":6020,"vey":6021,"kÃ¶zel":6022,"ĠAwards":6023,"ĠÃ©pÃŃtÃ©s":6024,"ĠsÅĳt":6025,"irth":6026,"ĠManc":6027,"Ġentered":6028,"Ġfogy":6029,"ĠellentÃ©t":6030,"Ġ1965":6031,"ĠHow":6032,"szÃ¡zad":6033,"ĠszÃ¡raz":6034,"Ġelterjed":6035,"Ġshows":6036,"Ġ1938":6037,"Ġ+":6038,"ĠfÅĳkÃ©nt":6039,"enge":6040,"Ġcommunity":6041,"Ġshoot":6042,"ĠszomszÃ©d":6043,"ĠsÃºlyos":6044,"ĠKat":6045,"Ġjavas":6046,"rid":6047,"Ġsuggested":6048,"ĠÃºn":6049,"Ġcomplete":6050,"kar":6051,"mÅ±vÃ©szeti":6052,"ving":6053,"uÃ¡lis":6054,"ĠfelvÃ©tel":6055,"ĠmegelÅĳ":6056,"kÃ¶vet":6057,"Ġpolice":6058,"ping":6059,"olyg":6060,"bon":6061,"Ã©rium":6062,"ĠWood":6063,"change":6064,"Ġlatter":6065,"anced":6066,"Ġ46":6067,"ĠezÃ¼st":6068,"Ġsurround":6069,"hol":6070,"ĠhatÃ¡sÃ¡ra":6071,"Ã¡sÃ¡hoz":6072,"ĠEar":6073,"ĠKan":6074,"ero":6075,"Ġrelat":6076,"Ã¡lja":6077,"Ġelny":6078,"ĠUt":6079,"197":6080,"ĠQueen":6081,"alled":6082,"Ġpressure":6083,"orial":6084,"Ġbrief":6085,"alog":6086,"erty":6087,"ĠdÃ¶ntÃ¶tt":6088,"Ġenter":6089,"ĠarrÃ³l":6090,"AS":6091,"Ġconcert":6092,"ĠkÃ©nyszer":6093,"pÃ¡r":6094,"ecting":6095,"Ġ00":6096,"Ġpan":6097,"mÃ©rsÃ©k":6098,"ĠSom":6099,"ĠkÃ©s":6100,"ĠszereplÅĳ":6101,"Ġmegf":6102,"Ġszerkezet":6103,"ĠmegprÃ³b":6104,"Ġteams":6105,"ĠszÃ¡zadi":6106,"ĠÃ¡ldozat":6107,"hÃ¶z":6108,"ession":6109,"ĠCarl":6110,"Ġbig":6111,"Ġ1949":6112,"Ġstudents":6113,"rov":6114,"Ġfarm":6115,"ĠkÃ¶zponti":6116,"ĠAnna":6117,"porary":6118,"Ġsikert":6119,"Ġsummer":6120,"Ġconsider":6121,"Ã¡it":6122,"ĠlehetÅĳvÃ©":6123,"Ġbord":6124,"Ġacqu":6125,"ĠsÃ¶tÃ©t":6126,"Ġprison":6127,"ĠApp":6128,"lying":6129,"Ġappointed":6130,"nel":6131,"Ġnyerte":6132,"Ġscreen":6133,"elves":6134,"Ġdestroyed":6135,"Ġbejelent":6136,"Ã³ra":6137,"aries":6138,"Ġzaj":6139,"Ġalkalm":6140,"Ġdiscuss":6141,"ĠOrszÃ¡g":6142,"fa":6143,"Ġelhely":6144,"ĠadtÃ¡k":6145,"Ġcommission":6146,"olic":6147,"ĠkÃ¼zd":6148,"Ġhelyezked":6149,"Ġamount":6150,"Ġriver":6151,"Ġleaving":6152,"onse":6153,"Ġscenes":6154,"Ġsize":6155,"ĠmagÃ¡n":6156,"ĠTown":6157,"ĠKÃ¶ztÃ¡rsasÃ¡g":6158,"ector":6159,"Ġ1962":6160,"Ġcoup":6161,"isk":6162,"ĠsÃ©r":6163,"Ġfleet":6164,"utas":6165,"ĠParty":6166,"ĠStan":6167,"ĠvÃ¡rosi":6168,"ĠtovÃ¡bbÃ¡":6169,"Ġinvestig":6170,"ĠFre":6171,"Ġstaff":6172,"Ġlimited":6173,"ĠrÃ³l":6174,"Ġscript":6175,"olk":6176,"azz":6177,"ĠAut":6178,"ĠBudapesten":6179,"Ġwinning":6180,"ulated":6181,"Ġterem":6182,"illy":6183,"besz":6184,"egyetem":6185,"ilities":6186,"ĠTexas":6187,"Ġ1919":6188,"ĠKl":6189,"ĠKirÃ¡lysÃ¡g":6190,"Ġdraw":6191,"Ġepisodes":6192,"ĠhiÃ¡ny":6193,"Ġ1963":6194,"Ġcsatlakozott":6195,"ĠnyÃŃlt":6196,"magas":6197,"inese":6198,"ĠNyug":6199,"zott":6200,"ĠkÃ¶zÃ¶n":6201,"ĠmindÃ¶ssze":6202,"Ġjud":6203,"ĠLab":6204,"izÃ³d":6205,"ĠmunkÃ¡s":6206,"ends":6207,"Ġminim":6208,"onnan":6209,"ĠmÃ©rkÅĳzÃ©sen":6210,"iny":6211,"Ã¶rtÃ¶n":6212,"Ġlegyen":6213,"Ġkid":6214,"hu":6215,"ĠkÃ¶tet":6216,"Ġelfoglal":6217,"Ã¡jÃ¡n":6218,"Ġprovide":6219,"Ġself":6220,"Ġgit":6221,"Ġgirl":6222,"ĠfekvÅĳ":6223,"jakÃ©nt":6224,"ĠBow":6225,"well":6226,"Ġbow":6227,"ĠHist":6228,"Ġfinan":6229,"ĠszÃ¡rmazÃ¡sÃº":6230,"Ġoverall":6231,"ension":6232,"terÃ¼let":6233,"Ã¡vol":6234,"MS":6235,"ĠkÃ¶rÃ¼lbelÃ¼l":6236,"szÃ¶g":6237,"Ġchanges":6238,"ĠÃŃtÃ©l":6239,"Ġtartoz":6240,"ĠvilÃ¡gbajnoksÃ¡g":6241,"Ġdate":6242,"igade":6243,"abban":6244,"erve":6245,"ĠjelÃ¶lt":6246,"Ġfavor":6247,"Ġ160":6248,"Ġagreed":6249,"ĠbÅ±n":6250,"ca":6251,"mitted":6252,"ĠfilozÃ³":6253,"atai":6254,"Ġbox":6255,"rÃ©t":6256,"ography":6257,"had":6258,"ĠAdam":6259,"Ġroom":6260,"Ġrunning":6261,"Ġvia":6262,"ĠLaw":6263,"ĠÃ¶sszek":6264,"Ġcertain":6265,"amin":6266,"oszlÃ¡v":6267,"Ġproposed":6268,"ĠElÅĳ":6269,"ĠPi":6270,"Ġmegye":6271,"Ġintended":6272,"kelet":6273,"Ġtext":6274,"ĠLong":6275,"ĠOrosz":6276,"imate":6277,"ĠcÃ©lja":6278,"viron":6279,"di":6280,"ĠlÃ¡togat":6281,"ĠnyelvÅ±":6282,"adian":6283,"iga":6284,"Ġnearly":6285,"Ġintell":6286,"ĠÃ³r":6287,"Ġmegkap":6288,"Ġhelped":6289,"ĠtartottÃ¡k":6290,"Ġkorai":6291,"Ġdivision":6292,"pad":6293,"ĠWind":6294,"Ġpurch":6295,"ĠhagyomÃ¡nyos":6296,"Ãºttal":6297,"Ġtransport":6298,"ĠBart":6299,"Ġwide":6300,"ĠSpanish":6301,"Äį":6302,"Ġsupported":6303,"Ġequip":6304,"Å±k":6305,"Ġnyar":6306,"Ġspir":6307,"bÃ¡n":6308,"ĠerÅĳd":6309,"ĠÃģllamok":6310,"ething":6311,"ĠkÃ¶ltÃ¶zÃ¶tt":6312,"Ġham":6313,"ĠGra":6314,"Ġlass":6315,"Ġrights":6316,"iatt":6317,"ÃŃtÃ¡sÃ¡ra":6318,"ication":6319,"oles":6320,"ĠBÃ©la":6321,"33":6322,"Ġ1958":6323,"Ġpolic":6324,"ils":6325,"ĠhelyszÃŃn":6326,"uing":6327,"ĠmegÃ¡llap":6328,"ocrat":6329,"ĠszÃ¡rmazÃ³":6330,"oo":6331,"ĠCa":6332,"ĠtÃ¡madÃ¡s":6333,"ĠWal":6334,"sÃ©ggel":6335,"Ġgar":6336,"Ġ52":6337,"ĠBank":6338,"ĠrÃ©szlet":6339,"Ġtype":6340,"Ġbroadcast":6341,"rep":6342,"ĠBon":6343,"ĠrendezÅĳ":6344,"Ġeffects":6345,"Ġnatural":6346,"Ġlegfontosabb":6347,"ĠkÃ¶lcs":6348,"ault":6349,"Ġagg":6350,"Ġresponse":6351,"Ġtemper":6352,"Ġdaughter":6353,"Ġdark":6354,"Ġintens":6355,"ĠalakÃº":6356,"ĠCenter":6357,"ĠLake":6358,"ĠteljesÃŃtmÃ©ny":6359,"ĠForm":6360,"ening":6361,"Ġelpuszt":6362,"Ġwriter":6363,"ĠKent":6364,"Ġ120":6365,"Ġlemond":6366,"ĠbÃŃrÃ³":6367,"eteg":6368,"esked":6369,"Ġsikeres":6370,"ĠVel":6371,"kÃ¡n":6372,"Ġreact":6373,"Ġinfluence":6374,"Ġcreate":6375,"adott":6376,"icles":6377,"itÃ¡ny":6378,"ĠTrans":6379,"Ġfunk":6380,"tÃ¶rtÃ©n":6381,"nÃ©v":6382,"At":6383,"idents":6384,"iskola":6385,"Ġhab":6386,"Ġamb":6387,"ĠvÃ¶lgy":6388,"Ġpill":6389,"Ġlay":6390,"Ġmegrend":6391,"Ġevang":6392,"90":6393,"ĠHit":6394,"Ġ1947":6395,"ĠepizÃ³d":6396,"ĠSoviet":6397,"mÅ±vel":6398,"inkÃ¡bb":6399,"esk":6400,"Ġhasonl":6401,"Ġcommercial":6402,"ĠHaw":6403,"ĠjelÃ¶l":6404,"ĠkÃ¶vetÅĳ":6405,"ĠDar":6406,"Ġ1914":6407,"ĠJoseph":6408,"Ġmegkezd":6409,"Ġmovement":6410,"ously":6411,"ĠtudomÃ¡ny":6412,"ĠChinese":6413,"ĠpÃ¡pa":6414,"zÅĳk":6415,"Ġstructure":6416,"ĠCouncil":6417,"Ġkg":6418,"Ġstay":6419,"ĠvÃ¡sÃ¡r":6420,"Ġsusp":6421,"ekbÅĳl":6422,"Ġ1961":6423,"cy":6424,"elni":6425,"Ġcaptured":6426,"Ã³lag":6427,"lav":6428,"ĠÃ¡llami":6429,"Ġcsata":6430,"ĠkorlÃ¡t":6431,"ĠelÅĳre":6432,"ĠEnd":6433,"Ġmarried":6434,"uter":6435,"Ġcompared":6436,"Ġmur":6437,"ostor":6438,"ĠLee":6439,"ĠIll":6440,"Ġplanned":6441,"Ġmelyben":6442,"Ġfans":6443,"Ġstars":6444,"ĠInf":6445,"Ã³gÃ©p":6446,"ĠAmerikai":6447,"Ġbronz":6448,"ĠirÃ¡nt":6449,"Ġincreasing":6450,"Ġlonger":6451,"mÃ©rsÃ©klet":6452,"Ġbird":6453,"gyek":6454,"kÃ¶nyv":6455,"Ġbizton":6456,"ĠmÅ±ve":6457,"ĠIntÃ©zet":6458,"Ġkir":6459,"ĠterÃ¼lete":6460,"ennyi":6461,"Ġmegfi":6462,"ĠHat":6463,"ikt":6464,"hatatlan":6465,"ĠtartÃ³":6466,"shire":6467,"ĠAtlantic":6468,"Ġtartotta":6469,"ĠintÃ©zmÃ©ny":6470,"ĠHor":6471,"iles":6472,"Ġhigher":6473,"Ġchanged":6474,"ĠPacific":6475,"ĠarÃ¡ny":6476,"icted":6477,"Ġfifth":6478,"Ġapproximately":6479,"ĠkÃ¶lcsÃ¶n":6480,"bers":6481,"ÃŃtik":6482,"kan":6483,"selves":6484,"Ġdone":6485,"vÃ©delmi":6486,"rajz":6487,"thing":6488,"anded":6489,"ailed":6490,"Ġcourse":6491,"ĠJones":6492,"ois":6493,"Ġfolyamatosan":6494,"ĠStep":6495,"Ġawarded":6496,"Ġkocs":6497,"Ġpen":6498,"Ġtehet":6499,"ozÃ¡sa":6500,"ospital":6501,"Ġexperience":6502,"andid":6503,"Ġnar":6504,"ĠemlÃŃtik":6505,"Ġconclud":6506,"ĠfelnÅĳtt":6507,"ĠOver":6508,"Ġthemselves":6509,"Ġolimpiai":6510,"Ðµ":6511,"ĠClark":6512,"ĠtÃ¡rsadalmi":6513,"Ġliving":6514,"Ġmostly":6515,"ĠKolozs":6516,"ĠutÃ³d":6517,"ĠMatt":6518,"ques":6519,"Ġarchit":6520,"ĠmÃºl":6521,"Ġemelked":6522,"Ġattract":6523,"Ġens":6524,"jÃ¡rat":6525,"Ã³sÃ¡g":6526,"ĠkÃ¶zeli":6527,"ĠMos":6528,"Ã©sÃ©ben":6529,"Ġwithd":6530,"Ġdiss":6531,"itting":6532,"ĠengedÃ©ly":6533,"196":6534,"omes":6535,"ĠzÃ¶ld":6536,"ĠFlorida":6537,"vez":6538,"ĠTop":6539,"ĠHon":6540,"Ġdead":6541,"orf":6542,"almÃ¡t":6543,"Ġlanguage":6544,"uge":6545,"Ġobs":6546,"ique":6547,"Ġbring":6548,"mis":6549,"22":6550,"ĠWilliams":6551,"ĠGroup":6552,"Ġvagyis":6553,"reak":6554,"ĠCarol":6555,"ĠFin":6556,"ĠWall":6557,"ĠFred":6558,"ĠSa":6559,"Ġwoman":6560,"ĠCentral":6561,"ounds":6562,"Ġszavaz":6563,"ĠTy":6564,"lament":6565,"ĠGeorg":6566,"ĠkÃŃvÃ¡n":6567,"Ġthus":6568,"pÃ¡ly":6569,"ĠmÃ¶gÃ¶tt":6570,"Ġremains":6571,"onic":6572,"ĠplÃ©b":6573,"Ġutca":6574,"Ġmit":6575,"Ġ1953":6576,"ĠBra":6577,"Ġspace":6578,"akkal":6579,"ĠstÃºd":6580,"ĠkÃ©szÃ¼l":6581,"Ġkorszak":6582,"Ġcopies":6583,"Ġ1954":6584,"ĠNemzetkÃ¶zi":6585,".-":6586,"35":6587,"Ġprobably":6588,"Ġsoldiers":6589,"ĠesetÃ©ben":6590,"Ġmedia":6591,"ĠSecond":6592,"ĠtÃ¡plÃ¡l":6593,"Ġrelated":6594,"ĠtovÃ¡bbra":6595,"owers":6596,"ĠterÃ¼leten":6597,"Ġreally":6598,"Ã¡lÃ¡s":6599,"iano":6600,"Å±nik":6601,"ĠArch":6602,"Ġweap":6603,"ĠSol":6604,"ĠRail":6605,"Åĳdik":6606,"Ġere":6607,"Ġstandard":6608,"ĠtermÃ©k":6609,"ccs":6610,"meg":6611,"aph":6612,"Ġboy":6613,"Ġrank":6614,"Ġextended":6615,"ĠerdÃ©lyi":6616,"ĠÃ©rz":6617,"Ġcseh":6618,"ĠkÃ¶zre":6619,"Ġforward":6620,"Ġbreed":6621,"Ġguitar":6622,"Ġthr":6623,"Ġcal":6624,"ĠtÃ¶rtÃ©nelmi":6625,"Ġhamarosan":6626,"ĠifjÃº":6627,"oston":6628,"irÅĳl":6629,"Ã¡nk":6630,"ĠEarth":6631,"ĠkÃ©m":6632,"ĠKÃ¼l":6633,"Ġlearn":6634,"ĠSea":6635,"Ġsuffered":6636,"Ġrendez":6637,"rot":6638,"ĠkastÃ©ly":6639,"Ã¡poly":6640,"ĠkÃ¼lfÃ¶ldi":6641,"fÅĳ":6642,"ĠMÃºzeum":6643,"encs":6644,"Ġwhether":6645,"Ġhozott":6646,"akter":6647,"ĠTim":6648,"ples":6649,"Ġ176":6650,"Ġhot":6651,"Ġkider":6652,"Ġ175":6653,"Ġ1952":6654,"ĠMinden":6655,"anda":6656,"ĠorszÃ¡gos":6657,"jait":6658,"Ð½":6659,"Ġrej":6660,"Ġheav":6661,"Ġchall":6662,"Ġbecs":6663,"kutat":6664,"Ġfeature":6665,"ĠÃ¡talak":6666,"Ġboard":6667,"foglal":6668,"Ġceleb":6669,"ĠJan":6670,"Ġtracks":6671,"Ġimmediately":6672,"ĠeljÃ¡r":6673,"Ġ1936":6674,"Ġdepart":6675,"Ġface":6676,"ecsk":6677,"munk":6678,"ĠRog":6679,"ĠvÃ©delm":6680,"Ġour":6681,"ĠSil":6682,"Ã©lt":6683,"ti":6684,"ĠKÃ¶zÃ©p":6685,"ĠhÃºz":6686,"Ġesett":6687,"ĠkulturÃ¡lis":6688,"Ġfelb":6689,"Ġblock":6690,"Ġbuildings":6691,"vÃ¡j":6692,"Ġrajta":6693,"Ġ1959":6694,"Ġissued":6695,"Ġvoice":6696,"ĠIz":6697,"chen":6698,"eman":6699,"Ġcann":6700,"Ġcit":6701,"ikÃ¡t":6702,"ĠJac":6703,"ordin":6704,"ĠpÃ¡lyÃ¡ra":6705,"ĠautÃ³":6706,"ĠcentimÃ©ter":6707,"ĠServ":6708,"cean":6709,"orning":6710,"Ġquarter":6711,"och":6712,"ĠÃ©letÃ©t":6713,"orÃº":6714,"ĠKe":6715,"ĠOb":6716,"ĠCD":6717,"ĠChris":6718,"ĠArm":6719,"ÃŃthatÃ³":6720,"Ġjelentette":6721,"git":6722,"Ġoperations":6723,"Ġelveszt":6724,"Ġmixed":6725,"ĠFox":6726,"Ġhatalom":6727,"Ġleader":6728,"Ġmanager":6729,"Ġmach":6730,"ĠDani":6731,"Ġemb":6732,"ĠBab":6733,"hood":6734,"ĠlegalÃ¡bb":6735,"ras":6736,"ability":6737,"Ġcapital":6738,"Ġcurrent":6739,"HL":6740,"emlÃ©k":6741,"ĠkÃ¶rben":6742,"antasy":6743,"Ġkereskedelmi":6744,"ĠSzÃ©k":6745,"ridge":6746,"Ã©nyek":6747,"terem":6748,"tained":6749,"Ġbattles":6750,"Ġ600":6751,"Ġcountries":6752,"ĠdiÃ¡k":6753,"oljÃ¡k":6754,"Ã¶dik":6755,"Ġlikely":6756,"ĠOx":6757,"Ġremoved":6758,"thur":6759,"Ġleave":6760,"Ġcomplex":6761,"ĠhÃŃd":6762,"Ġuns":6763,"ĠViet":6764,"uj":6765,"ikat":6766,"Ġprivate":6767,"Ġsubsequently":6768,"ĠtÃ¡bornok":6769,"ĠSok":6770,"ĠhercegnÅĳ":6771,"Ġincrease":6772,"lie":6773,"inson":6774,"Ġfolytatta":6775,"Ġunit":6776,"ioned":6777,"Ġofficers":6778,"ĠTerm":6779,"ĠWales":6780,"Ġinitial":6781,"ĠÃĵ":6782,"venue":6783,"Ġmozdony":6784,"szter":6785,"Ġadop":6786,"ĠDam":6787,"Ġvisit":6788,"megy":6789,"ĠSur":6790,"ĠCongress":6791,"Ġalways":6792,"rÃ¡d":6793,"Ġimpl":6794,"ging":6795,"ĠtÃ¡rgyal":6796,"ĠStone":6797,"oszk":6798,"Ġmegalak":6799,"ĠrÃ³la":6800,"ĠJew":6801,"ĠkiadÃ¡s":6802,"Ġdemon":6803,"ĠgÃ³lt":6804,"Ġkop":6805,"ĠJen":6806,"Ġnevezte":6807,"ĠvÃ¡rosban":6808,"isztÃ©rium":6809,"Ġkan":6810,"Ġplant":6811,"Ġsuppl":6812,"ĠFollowing":6813,"Ġsal":6814,"Ã¶p":6815,"ĠManchester":6816,"Ġostrom":6817,"ko":6818,"ĠkikÃ¶t":6819,"ĠScot":6820,"Ġoffered":6821,"ĠreformÃ¡tus":6822,"Ġ170":6823,"olling":6824,"Ġnetwork":6825,"ĠlakÃ³":6826,"jÃ¡":6827,"Ġexped":6828,"ĠTime":6829,"ĠÃ¡gy":6830,"Ġtons":6831,"Ġmatemat":6832,"Ġ1955":6833,"korban":6834,"adium":6835,"Ġahogy":6836,"hod":6837,"utt":6838,"Ġmaguk":6839,"ĠChina":6840,"Ġgoals":6841,"ĠFed":6842,"Ġtrib":6843,"ĠbÃ¡rm":6844,"ĠtÃ¡nc":6845,"ĠPenn":6846,"ĠDen":6847,"iker":6848,"Ġplans":6849,"Ġkateg":6850,"dy":6851,"ĠvilÃ¡gbajnok":6852,"Ġvillage":6853,"ĠforrÃ¡sok":6854,"Ġsomething":6855,"Ġirodalmi":6856,"Ġcompan":6857,"Ġincludes":6858,"Ġbad":6859,"Ġstatus":6860,"Ġlyrics":6861,"ĠsebessÃ©g":6862,"ĠmegfelelÅĳen":6863,"ĠhelyÃ©n":6864,"Ġszik":6865,"ĠMod":6866,"Ġapproach":6867,"oj":6868,"kodott":6869,"ĠRod":6870,"ĠFranciaorszÃ¡g":6871,"Ã¡kban":6872,"ĠPop":6873,"Ġhealth":6874,"ĠÃ©rvÃ©ny":6875,"Ġlocation":6876,"ima":6877,"Ġmom":6878,"Ġmajority":6879,"Ġcolon":6880,"ĠorszÃ¡ggyÅ±l":6881,"ĠKÃŃn":6882,"onyi":6883,"Ġconfl":6884,"ĠBell":6885,"Ġsyn":6886,"Ġdamaged":6887,"Ġproblems":6888,"loy":6889,"Ġ1937":6890,"sek":6891,"ills":6892,"Ġcanc":6893,"Ġflag":6894,"gen":6895,"etÃ©t":6896,"Ġindividual":6897,"During":6898,"zsÃ©b":6899,"ĠkeretÃ©ben":6900,"ĠvÃ¡d":6901,"Ġelmond":6902,"rajzi":6903,"kett":6904,"ĠIl":6905,"Ġ56":6906,"ĠBern":6907,"Ġkoron":6908,"aded":6909,"nevezett":6910,"Ġhosszabb":6911,"Ġigyek":6912,"aches":6913,"ĠCanadian":6914,"Ġrefl":6915,"Ġminute":6916,"ato":6917,"vit":6918,"down":6919,"ĠGÃ¡bor":6920,"Ġadminist":6921,"ĠÃ¡llomÃ¡s":6922,"21":6923,"Ġmeeting":6924,"Ġgam":6925,"kezÅĳ":6926,"Ġels":6927,"Ġmol":6928,"Ġterms":6929,"ĠBec":6930,"Ġhalad":6931,"Ġkinev":6932,"fact":6933,"Ġcounter":6934,"ĠLes":6935,"ify":6936,"riage":6937,"atory":6938,"vin":6939,"ĠWin":6940,"tenger":6941,"ÃŃtve":6942,"ĠÅĳsz":6943,"arÃ¡nt":6944,"ĠhasznÃ¡ltÃ¡k":6945,"Ġkapcsolatban":6946,"ĠbÃŃ":6947,"Ġeddig":6948,"ĠHu":6949,"aine":6950,"ĠSum":6951,"ĠAfrica":6952,"umed":6953,"here":6954,"ĠbÅĳv":6955,"Ġjun":6956,"ugoszlÃ¡v":6957,"ĠIts":6958,"Ġconsist":6959,"ulÃ¡sa":6960,"can":6961,"ĠBul":6962,"des":6963,"Ġ54":6964,"Ġidegen":6965,"Ġrevealed":6966,"lim":6967,"Ã³rium":6968,"Ġ1951":6969,"ĠHighway":6970,"olÃ³gus":6971,"ami":6972,"Ġcause":6973,"Ġmodel":6974,"Ġconfir":6975,"ollÃ©g":6976,"Ġservices":6977,"ĠBerlin":6978,"ĠAzonban":6979,"Ġ1917":6980,"herceg":6981,"assa":6982,"Ġgrand":6983,"bÃ©":6984,"ĠLater":6985,"ĠAss":6986,"Äĥ":6987,"Ġezeket":6988,"ĠAnn":6989,"ĠmÃ³dos":6990,"Ġgal":6991,"ĠÃ¡s":6992,"ĠOut":6993,"ĠfelesÃ©gÃ¼l":6994,"El":6995,"jog":6996,"Ã¡mos":6997,"ĠnÃ¶veked":6998,"enged":6999,"Ġpiac":7000,"Ġranked":7001,"kÅĳ":7002,"Ġdistrib":7003,"ele":7004,"Ġmakes":7005,"ĠNic":7006,"Ġinteg":7007,"ĠÃŃz":7008,"ĠJud":7009,"ĠebbÅĳl":7010,"ĠhasznÃ¡ljÃ¡k":7011,"Ġszim":7012,"Ġattacks":7013,"Ġraised":7014,"Ġtorped":7015,"Ġdiscovered":7016,"ĠtudÃ³s":7017,"ukt":7018,"ĠtermÃ©szetes":7019,"Ġneeded":7020,"ÑĢ":7021,"Ġkib":7022,"ĠfelelÅĳs":7023,"ĠKap":7024,"Ġrespectively":7025,"vironment":7026,"ĠtÅĳ":7027,"rial":7028,"ĠelÅĳadÃ¡s":7029,"Ġprofessional":7030,"Ġazonnal":7031,"Ġszeret":7032,"rak":7033,"ĠÃģr":7034,"seb":7035,"Ġappears":7036,"Ġdomb":7037,"ĠSquadron":7038,"ĠOh":7039,"Ġattacked":7040,"Ġflight":7041,"Ġconcept":7042,"Ġtakes":7043,"ĠdrÃ¡m":7044,"ÅĤ":7045,"Ġlived":7046,"ĠLatin":7047,"quar":7048,"ĠVÃ©gÃ¼l":7049,"ersey":7050,"sÃ¡gos":7051,"ĠSzovjet":7052,"Ġteng":7053,"Ġlaunched":7054,"ania":7055,"Ġfolyt":7056,"Ġnumerous":7057,"Ġnyelven":7058,"Ġfeny":7059,"Ġdokument":7060,"Ġspl":7061,"ĠNot":7062,"Ġattempted":7063,"ĠJon":7064,"ube":7065,"ĠAkadÃ©mia":7066,"Ġabb":7067,"Ġmoving":7068,"ule":7069,"Ġabs":7070,"ĠSimp":7071,"ĠelÅĳzÅĳ":7072,"Ġinspired":7073,"Ġoccurred":7074,"ĠFest":7075,"Ġgot":7076,"riai":7077,"ĠegyarÃ¡nt":7078,"Ġupper":7079,"szaki":7080,"Ġsors":7081,"ĠBoth":7082,"Ġtapasztal":7083,"jen":7084,"gyÃ¡r":7085,"ĠmagyarorszÃ¡gi":7086,"aja":7087,"ĠbÃ¶rtÃ¶n":7088,"reme":7089,"Ġfer":7090,"ĠÃ¡ram":7091,"inger":7092,"Ġyet":7093,"Ġalkalmas":7094,"ĠFC":7095,"ĠgimnÃ¡zium":7096,"ĠRussian":7097,"Ġrab":7098,"Ġassociated":7099,"ĠtÃŃpusÃº":7100,"ĠRay":7101,"ĠcsÃ¡szÃ¡ri":7102,"ĠArab":7103,"ĠegyhÃ¡zi":7104,"Ã¡sait":7105,"Ã©lyes":7106,"Ã©ket":7107,"ĠChe":7108,"Ġklasszikus":7109,"ĠArg":7110,"spap":7111,"Ġteszi":7112,"ĠhÃŃm":7113,"ĠÃ©ven":7114,"uries":7115,"umn":7116,"Ġmaximum":7117,"32":7118,"ĠÃºgynevezett":7119,"ĠTÃ¡rsasÃ¡g":7120,"Ġ1935":7121,"Ġaccomp":7122,"ĠMarc":7123,"Ġcoach":7124,"ĠDist":7125,"ĠrÃ¶gz":7126,"Ġsecret":7127,"Ġslight":7128,"ĠÃģllamokban":7129,"ĠGyula":7130,"ĠSport":7131,"ĠImre":7132,"ĠFerdin":7133,"ĠtalÃ¡lt":7134,"ĠEmpire":7135,"artÃ³":7136,"mai":7137,"Ã¡ciÃ³t":7138,"joy":7139,"ĠtartÃ³z":7140,"Ġveh":7141,"ĠHarry":7142,"Ġsales":7143,"heti":7144,"Ġroy":7145,"195":7146,"Ġegyike":7147,"ĠkÃ¶ltÅĳ":7148,"Ã¼lÃ©se":7149,"ortun":7150,"Ġhour":7151,"Ġrejt":7152,"list":7153,"Ġbuddh":7154,"Ġshown":7155,"Ġ1848":7156,"ĠÃ©jszak":7157,"Ġyards":7158,"Ġforradalom":7159,"Ġnature":7160,"ĠalapÃŃtott":7161,"ĠmentÃ©n":7162,"ĠColumb":7163,"ellow":7164,"Ã©nyi":7165,"Ġprinci":7166,"Ġfinally":7167,"Ġconditions":7168,"Ar":7169,"ĠJeff":7170,"leti":7171,"ĠsvÃ©d":7172,"anyja":7173,"izing":7174,"ÃŃli":7175,"egÃ©sz":7176,"ĠtÃ¼n":7177,"Ġresulted":7178,"ĠLengyel":7179,"ĠCamb":7180,"ĠleginkÃ¡bb":7181,"Ġsmaller":7182,"pat":7183,"szal":7184,"ukciÃ³":7185,"Ġobser":7186,"ĠidÅĳszakban":7187,"Ġdefeat":7188,"Ġbirth":7189,"Ġple":7190,"ĠDev":7191,"Ġwhole":7192,"24":7193,"27":7194,"iÃ¡lis":7195,"Ġautom":7196,"Ã¢":7197,"vad":7198,"ĠNÃ©metorszÃ¡g":7199,"atre":7200,"ĠCath":7201,"ĠHenrik":7202,"Ġcomposed":7203,"Ġanny":7204,"ĠtÃ¶ltÃ¶tte":7205,"nyom":7206,"aining":7207,"felÃ©":7208,"ĠhÃ¡zassÃ¡g":7209,"Ġincor":7210,"Åį":7211,"ĠnevÃ©n":7212,"Ġisten":7213,"ĠaztÃ¡n":7214,"ighter":7215,"ĠvÃ©gig":7216,"ĠCons":7217,"veg":7218,"urity":7219,"Ġcerem":7220,"rez":7221,"ĠvÃ©get":7222,"Ġ1929":7223,"pool":7224,"ĠMint":7225,"Ġopera":7226,"Ġdom":7227,"Ġezred":7228,"Ġreferred":7229,"Ġpair":7230,"Ġnehez":7231,"Ġdraft":7232,"Ġlargely":7233,"Ġfore":7234,"Ġszerepl":7235,"Ġaw":7236,"atikus":7237,"Ġcritical":7238,"Ġholland":7239,"Ġselected":7240,"ĠFIFA":7241,"ĠTanÃ¡cs":7242,"ozni":7243,"Ġhip":7244,"ici":7245,"Ġmegyei":7246,"Ã¼m":7247,"nÃ¶v":7248,"vÃŃz":7249,"ĠPers":7250,"Ġkiemelked":7251,"enant":7252,"Ġ1933":7253,"ĠEntertainment":7254,"Ġstrat":7255,"Ġprogress":7256,"rol":7257,"Ġfigyelm":7258,"hatnak":7259,"ezve":7260,"ĠtÃ¡b":7261,"Ġnort":7262,"Ġearned":7263,"ĠMadonna":7264,"ĠBBC":7265,"Ġtran":7266,"Ġvast":7267,"oldal":7268,"ĠjÃ©g":7269,"utch":7270,"ramm":7271,"Ġassigned":7272,"ĠCorps":7273,"Ġactive":7274,"Ã¡jÃº":7275,"ĠsÃŃk":7276,"aging":7277,"ĠId":7278,"Ġexpected":7279,"Ġsinger":7280,"Ġrendezett":7281,"Ġrokon":7282,"Ġcommented":7283,"Ġelind":7284,"Ġelected":7285,"ĠÃ©rdeklÅĳd":7286,"onald":7287,"Ġportray":7288,"Ġunable":7289,"ican":7290,"Ġgyorsan":7291,"ĠTeam":7292,"Ġscient":7293,"ĠRy":7294,"ĠfelÃ¼l":7295,"Ġzeneszer":7296,"Ġhib":7297,"ĠszÃ¼lÅĳ":7298,"Ġmeccs":7299,"Ġfoglalkozott":7300,"jes":7301,"ĠtÃ¶bbnyire":7302,"ĠtÃ¶rtÃ©nÅĳ":7303,"ĠfelÃ©ben":7304,"Ġaudience":7305,"Ġgre":7306,"ĠkÃ©pest":7307,"CA":7308,"ĠNB":7309,"rue":7310,"ĠAnton":7311,"Ġasp":7312,"ĠGreek":7313,"acher":7314,"ĠGall":7315,"ĠtartjÃ¡k":7316,"ĠlÃ©trej":7317,"ĠMany":7318,"stitute":7319,"ĠSzeged":7320,"ĠbÃ¡ny":7321,"emplom":7322,"Ġrefused":7323,"Ġfriends":7324,"Ã¡llt":7325,"ĠÃ¶sszet":7326,"ĠkÃ¶zigazgat":7327,"huz":7328,"Ġsaf":7329,"ĠAcad":7330,"Ã¡zott":7331,"Ġmegm":7332,"ĠSat":7333,"inte":7334,"ĠLev":7335,"Ġmission":7336,"iket":7337,"ĠBraz":7338,"ĠAh":7339,"Ġindustry":7340,"Ġoperation":7341,"Ã¡rÃ³lag":7342,"inner":7343,"ĠÃ¡llÃŃt":7344,"olÃ³gi":7345,"Ã©Ã©rt":7346,"thlet":7347,"ĠAv":7348,"Ġlegis":7349,"Ġinformation":7350,"Ġsched":7351,"Ġnapig":7352,"ĠÃ³ra":7353,"Ġartist":7354,"Ġmale":7355,"37":7356,"Ġ85":7357,"Ġpromin":7358,"Ġ1900":7359,"Ġheart":7360,"Ġviszonylag":7361,"ĠItalian":7362,"sÃ©gÃ©nek":7363,"ĠIS":7364,"ĠÅĳk":7365,"house":7366,"Ġgran":7367,"Ġissues":7368,"ĠÃ¶sszef":7369,"ĠStephen":7370,"ĠÃ©vesen":7371,"Ġclosed":7372,"ĠmÃºzeum":7373,"ĠNi":7374,"Ġalt":7375,"ĠgazdasÃ¡g":7376,"olled":7377,"Ġtalaj":7378,"asi":7379,"elÅĳd":7380,"ĠMot":7381,"Ġhangszer":7382,"Ġpszich":7383,"Ġnumbers":7384,"urb":7385,"Ã¡nyi":7386,"Ġkever":7387,"Ġtrade":7388,"Ġtouch":7389,"olgÃ¡r":7390,"Ġattention":7391,"Ġcontains":7392,"Ġorvos":7393,"Ġnapon":7394,"ĠkultÃºr":7395,"harc":7396,"Ġrendelkezik":7397,"Ġpurp":7398,"ĠkÃ¶vette":7399,"ezÅĳk":7400,"Ġcikk":7401,"itude":7402,"Ġmeant":7403,"pi":7404,"ĠErzsÃ©b":7405,"Ġtraditional":7406,"ĠlÃ©tes":7407,"Ġdepression":7408,"hajÃ³":7409,"ĠmÃ©teres":7410,"ĠidÃ©ny":7411,"ĠOlaszorszÃ¡gban":7412,"Ġenjoy":7413,"dÃŃjas":7414,"ĠVol":7415,"Ġsister":7416,"ĠdebÃ¼t":7417,"Ġcovered":7418,"ĠhelyeztÃ©k":7419,"38":7420,"road":7421,"ĠtestvÃ©re":7422,"ĠMichigan":7423,"Ġkind":7424,"Ġadat":7425,"ĠlÃ©nyeg":7426,"Ġcsapata":7427,"Ġnewspap":7428,"Ġmount":7429,"ĠMÃ©g":7430,"Ġmultip":7431,"rob":7432,"ĠLand":7433,"uv":7434,"Ġcontem":7435,"Ġfranci":7436,"ĠegyÃ©ni":7437,"ĠLy":7438,"Ġhelyezett":7439,"Ġdouble":7440,"ĠleÃ¡ny":7441,"ĠvÃ¡lasz":7442,"sk":7443,"ĠMen":7444,"annel":7445,"ĠWay":7446,"ĠpÃ¡lyafut":7447,"Ġlez":7448,"Ġipar":7449,"una":7450,"ĠTay":7451,"Ġaband":7452,"Ġreason":7453,"Ġ1928":7454,"ĠkÃ©tszer":7455,"ĠvÃ¡g":7456,"ogue":7457,"Ġability":7458,"Ġprimary":7459,"Ġszenvedett":7460,"Ġ1934":7461,"Ġ1921":7462,"ĠIsten":7463,"Ġfighting":7464,"agÃ³g":7465,"Ġfilmben":7466,"ĠvettÃ©k":7467,"Ġdeclared":7468,"ebbi":7469,"agan":7470,"Ġexam":7471,"ĠFour":7472,"ĠBeat":7473,"ĠSi":7474,"abeth":7475,"ezÃ©sÃ©t":7476,"Ġmeghal":7477,"undred":7478,"Ġgiving":7479,"Ġmethod":7480,"Ġru":7481,"rÃ³":7482,"Ġinters":7483,"Ġunderst":7484,"azon":7485,"Ġelej":7486,"Ġoda":7487,"Ġindic":7488,"era":7489,"ĠelmÃ©let":7490,"Ġchief":7491,"Ġ168":7492,"Ġblood":7493,"Ġimpact":7494,"ĠVilÃ¡g":7495,"Ã©nyes":7496,"Ġlisted":7497,"Ġ95":7498,"iana":7499,"kÃ©ppen":7500,"Ġ58":7501,"Ġrapid":7502,"ingu":7503,"Ġaminek":7504,"atÃ³":7505,"26":7506,"Ġmiddle":7507,"Ġcommander":7508,"Ġofficer":7509,"ĠSociety":7510,"keleti":7511,"ĠhÃ³d":7512,"Ġalapvet":7513,"ĠÃ©rdem":7514,"ĠDor":7515,"Ġsen":7516,"Ġparlament":7517,"Ġ57":7518,"kÃ¼lÃ¶nb":7519,"vÃ©g":7520,"Ġles":7521,"magasabb":7522,"Ġger":7523,"ĠkÃ©pessÃ©g":7524,"ĠBad":7525,"Ġleb":7526,"ĠrepÃ¼l":7527,"Ġfeldolg":7528,"forg":7529,"ĠPier":7530,"Ġmegtart":7531,"Ã©ta":7532,"ĠelvÃ©g":7533,"Ġkarakter":7534,"Ġszig":7535,"Ġword":7536,"bit":7537,"ĠvezetÃ©sÃ©vel":7538,"Ġ41":7539,"Ġadj":7540,"Ġvonult":7541,"ĠKenn":7542,"Ġnappal":7543,"Ġreligious":7544,"ĠszÃ©n":7545,"etic":7546,"ĠEver":7547,"ĠMunk":7548,"isco":7549,"AT":7550,"ĠMax":7551,"Ġconflict":7552,"Ġrate":7553,"ĠLip":7554,"Ġplatform":7555,"ĠUnder":7556,"hips":7557,"Ġserious":7558,"Ġplot":7559,"ĠÃ³ri":7560,"ĠIly":7561,"aiban":7562,"ĠSpr":7563,"itÃŃv":7564,"ĠzÃ¡rt":7565,"aped":7566,"Ġsettl":7567,"Ġbelow":7568,"ĠVi":7569,"Ġdisapp":7570,"vÃ¡rosi":7571,"Ġ250":7572,"ĠFoot":7573,"Ġproduce":7574,"Ġ1915":7575,"Ġlovag":7576,"jÃ¡vÃ¡":7577,"rai":7578,"Ġ800":7579,"ĠTw":7580,"ĠCont":7581,"ĠYear":7582,"tettÃ©k":7583,"epp":7584,"Ġabandon":7585,"odies":7586,"aka":7587,"ĠbÅĳr":7588,"del":7589,"Ġnemcsak":7590,"ãĥ":7591,"Ġmegismer":7592,"Ġestablish":7593,"ĠCorn":7594,"ĠSzab":7595,"Ġgyalog":7596,"Ġler":7597,"Ġ1926":7598,"ether":7599,"Ġlegk":7600,"ĠBrad":7601,"ĠorszÃ¡gban":7602,"Ġdisplay":7603,"oda":7604,"Ġ1932":7605,"Ġalig":7606,"Ġ1925":7607,"itation":7608,"szÃ³":7609,"ĠSta":7610,"ounded":7611,"Ã§":7612,"lam":7613,"Ġmagn":7614,"Ġtudja":7615,"ĠOxford":7616,"szab":7617,"ĠZeal":7618,"Ã¡szt":7619,"ĠbÃ©csi":7620,"Ġlakott":7621,"aire":7622,"ĠGard":7623,"Ġdance":7624,"ĠÃºjjÃ¡":7625,"ires":7626,"Ġ);":7627,"lywood":7628,"ĠfelszÃŃn":7629,"ĠszerzÅĳ":7630,"eller":7631,"Ġ1927":7632,"ozza":7633,"abin":7634,"ĠRÃ¡k":7635,"ĠkivÃ¡lÃ³":7636,"oldog":7637,"ĠSav":7638,"ĠXI":7639,"tÃ¶r":7640,"adel":7641,"kÃ¶t":7642,"Ġconstructed":7643,"ĠMir":7644,"ĠMah":7645,"ĠlehetÅĳsÃ©g":7646,"Ġbooks":7647,"Ġtraff":7648,"ĠfelÃ©p":7649,"ĠNews":7650,"akban":7651,"ĠkategÃ³ri":7652,"szeg":7653,"Ġ1916":7654,"ĠAnother":7655,"ĠazÃ³ta":7656,"Ġcompetition":7657,"Ã³di":7658,"ĠCreek":7659,"Ġjobban":7660,"ĠGood":7661,"ĠkÃ³rhÃ¡z":7662,"ĠKim":7663,"ĠlÃ¶v":7664,"Ġposzt":7665,"osaurus":7666,"Ġnecess":7667,"ikusok":7668,"ĠkÃ©k":7669,"Ġmanu":7670,"Ġcontact":7671,"Ġyard":7672,"las":7673,"lok":7674,"Ġ1912":7675,"ĠVar":7676,"ĠâĪ":7677,"ishop":7678,"Ġnearby":7679,"Ġszezonban":7680,"Ġhighly":7681,"Ġkonz":7682,"ĠtÃ©rt":7683,"Ġmatches":7684,"ĠlehetsÃ©ges":7685,"Ġazokat":7686,"Ġovers":7687,"Ġcontinue":7688,"Ã©sen":7689,"szent":7690,"hette":7691,"ĠszabadsÃ¡g":7692,"ĠRaj":7693,"szki":7694,"ĠVietn":7695,"uma":7696,"Ġcaptain":7697,"Ġtheme":7698,"ĠÃ©re":7699,"34":7700,"ĠtÃ¼":7701,"ĠnÃ©m":7702,"lay":7703,"ĠAfrican":7704,"Ġmegegy":7705,"Ġkegy":7706,"Ġpontos":7707,"ĠCas":7708,"ĠlevÃ©l":7709,"ĠÃ¶lt":7710,"Å±ek":7711,"Ġadult":7712,"Ġtavasz":7713,"Ġsav":7714,"jÃ©vel":7715,"icip":7716,"ĠEzÃ©rt":7717,"ĠmikÃ¶zben":7718,"ÃŃtÃ³ja":7719,"ĠgyÃ¡r":7720,"ĠfordulÃ³":7721,"ĠEgyetemen":7722,"Ġ66":7723,"Ġoklevel":7724,"Ġseparate":7725,"ĠZealand":7726,"ĠelkÃ©p":7727,"ĠXV":7728,"ĠSand":7729,"Ġcombat":7730,"Ġreduced":7731,"ĠKa":7732,"Ġ1931":7733,"Ã¡nia":7734,"abeli":7735,"ĠnÅĳtt":7736,"vention":7737,"Ġdocument":7738,"overs":7739,"Ġtried":7740,"ĠtalÃ¡n":7741,"ĠDebrec":7742,"Ã¡ndÃ©k":7743,"ĠÃ¼tkÃ¶z":7744,"Ġwatch":7745,"ĠBoston":7746,"sch":7747,"rovers":7748,"Ġalakul":7749,"ĠPost":7750,"Ġrecords":7751,"ÃŃtÃ©sÃ©re":7752,"ĠMinister":7753,"Ġdirection":7754,"eway":7755,"ĠÃ¶tÃ¶dik":7756,"dÃŃjat":7757,"ĠgyÃ³gyszer":7758,"ĠFinal":7759,"Ġenergy":7760,"Ġjelenti":7761,"ĠpÃ¡ros":7762,"ĠMike":7763,"Ġletter":7764,"Ġattended":7765,"Ã¡snak":7766,"ĠTudomÃ¡nyos":7767,"Ġlevels":7768,"Ġ130":7769,"Ġeducation":7770,"Ġ1922":7771,"ĠbeszÃ©d":7772,"Ġpresented":7773,"mas":7774,"ÃŃtÃ©st":7775,"ĠpozÃŃciÃ³":7776,"ĠvÃ©lemÃ©ny":7777,"ĠTar":7778,"Ġ1924":7779,"SC":7780,"ĠLew":7781,"osabb":7782,"Ġpet":7783,"Ġdirectly":7784,"ĠpÃ¡rhuz":7785,"Ġnuc":7786,"ĠszÃ¡mÃŃtÃ³gÃ©p":7787,"ĠFar":7788,"Ġaccepted":7789,"ĠmÅ±kÃ¶dik":7790,"Ġannual":7791,"Ġnames":7792,"Ġcsom":7793,"ĠsugÃ¡r":7794,"ĠShow":7795,"ĠelÅĳfordul":7796,"Ġlettek":7797,"ĠParis":7798,"Ġtwenty":7799,"Ġstep":7800,"ĠMexico":7801,"alty":7802,"Ġtrain":7803,"ĠkizÃ¡rÃ³lag":7804,"Ġ76":7805,"Ġneigh":7806,"Ġfast":7807,"ugÃ¡l":7808,"Ġcentre":7809,"ĠjÃ³val":7810,"sych":7811,"36":7812,"ĠmÅ±kÃ¶dÅĳ":7813,"Ġadapt":7814,"44":7815,"ĠÃºton":7816,"Ġzene":7817,"Ġnation":7818,"Ġimpress":7819,"ĠDemocrat":7820,"gyes":7821,"Ġ1913":7822,"ĠfÃ©m":7823,"ĠGen":7824,"seh":7825,"Ã¡lni":7826,"right":7827,"Ã¶mb":7828,"hhez":7829,"ĠÃ©t":7830,"ĠHabsburg":7831,"Ġmob":7832,"Ġfill":7833,"Ġhors":7834,"Ġstating":7835,"Ġmeans":7836,"ĠVI":7837,"uals":7838,"Ġlit":7839,"39":7840,"ĠInn":7841,"Ġpopul":7842,"ĠDepartment":7843,"rodalmi":7844,"uzs":7845,"ĠfelÃºj":7846,"sÃ¡gÃº":7847,"Ġrein":7848,"ĠpolgÃ¡r":7849,"Ġszoci":7850,"gyÅ±jt":7851,"ĠAdmir":7852,"ĠEliz":7853,"Ġlabor":7854,"aux":7855,"ĠBizottsÃ¡g":7856,"Ġalkalma":7857,"ĠmÃºlva":7858,"prise":7859,"Ġtervezett":7860,"ĠErzsÃ©bet":7861,"ĠfolyamÃ¡n":7862,"Ġpractice":7863,"szere":7864,"Ġkilomet":7865,"wide":7866,"ombat":7867,"Ġthick":7868,"aszk":7869,"etty":7870,"Ã´":7871,"lovÃ©n":7872,"umber":7873,"ĠKh":7874,"Ġunok":7875,"Ġfres":7876,"Ġseem":7877,"atives":7878,"ylvan":7879,"ĠBus":7880,"Ġcompos":7881,"ĠelÅĳtti":7882,"uce":7883,"like":7884,"enior":7885,"Ġdemonstr":7886,"ĠMaria":7887,"ĠVik":7888,"Ã³ba":7889,"Ġist":7890,"Ã¡ncÃ©l":7891,"ieut":7892,"Ã¨s":7893,"essÃ©":7894,"hetnek":7895,"ĠJoe":7896,"ĠvÃ¡ltoztat":7897,"Ġfogyaszt":7898,"Ġroyal":7899,"Ġscience":7900,"Ã¡son":7901,"Ġkolostor":7902,"ĠkÃ¼ldÃ¶tt":7903,"ĠcÃŃmer":7904,"light":7905,"Ġbeat":7906,"49":7907,"Ġmovie":7908,"elemben":7909,"ĠPÃ¡rt":7910,"Ġcandid":7911,"ĠelÅĳl":7912,"Ġmanaged":7913,"Ġszil":7914,"ĠBC":7915,"Ġrat":7916,"ĠBru":7917,"Ġarab":7918,"Ġded":7919,"ĠfestÅĳ":7920,"ĠPrince":7921,"ĠSecret":7922,"hossz":7923,"ĠCross":7924,"ĠGames":7925,"Ġdropped":7926,"pÃ¡rt":7927,"Ġszerepe":7928,"Ġbit":7929,"Ã¡suk":7930,"Ġcollege":7931,"29":7932,"ĠerÅĳsen":7933,"28":7934,"aven":7935,"riz":7936,"Ġpositions":7937,"Ġarchitect":7938,"Ġinches":7939,"Ġshowed":7940,"essel":7941,"Ã¸":7942,"Ġfot":7943,"iszer":7944,"ĠTok":7945,"Ġrecomm":7946,"Ġending":7947,"orter":7948,"ĠfÃ¼r":7949,"ansion":7950,"Ġinside":7951,"ĠJelen":7952,"Ġfavour":7953,"Ġtalk":7954,"biz":7955,"ĠvÃ©ge":7956,"Ġresulting":7957,"Ġavoid":7958,"ĠminiszterelnÃ¶k":7959,"Ġbul":7960,"illery":7961,"ĠvÃ¡lasztotta":7962,"ĠÃ¶v":7963,"Ġdalt":7964,"isions":7965,"ĠjelentÃ©se":7966,"23":7967,"Ġkept":7968,"Ġ97":7969,"Ġcust":7970,"rical":7971,"ĠkiÃ¡llÃŃtÃ¡s":7972,"Ġmorning":7973,"Ġpurs":7974,"Ġcik":7975,"Ġpremi":7976,"ĠmÃºlt":7977,"ĠZolt":7978,"ĠkivÃ©tel":7979,"Ġresponsible":7980,"Ġsokat":7981,"ĠStr":7982,"Ġve":7983,"45":7984,"TC":7985,"ĠHard":7986,"ĠScotland":7987,"rÃ©g":7988,"ceeded":7989,"Ġefforts":7990,"cle":7991,"fehÃ©r":7992,"Ã³kkal":7993,"Ġexcept":7994,"helyi":7995,"Ġschools":7996,"Ġprep":7997,"ĠPu":7998,"atÃ³rium":7999,"Ġdism":8000,"ĠkifejezÃ©s":8001,"Ez":8002,"ĠVen":8003,"Ġkaptak":8004,"ĠszÃ¶vetsÃ©ges":8005,"Ġcyclone":8006,"ĠKong":8007,"uba":8008,"orvÃ©g":8009,"intend":8010,"ĠÃŃrÃ¡s":8011,"elÃ©se":8012,"oti":8013,"ĠBa":8014,"Ġmegfigyel":8015,"rupt":8016,"ĠAlf":8017,"don":8018,"Ġincorpor":8019,"utions":8020,"Ġhouses":8021,"ĠÃ©lÃ©n":8022,"Ġstra":8023,"Ġbegins":8024,"almak":8025,"ĠSimon":8026,"ĠTheir":8027,"ĠfilozÃ³f":8028,"Ġvul":8029,"Ġkiterjed":8030,"csalÃ¡d":8031,"isa":8032,"mark":8033,"Ġcontrovers":8034,"ĠfÃ¡j":8035,"Ġbolyg":8036,"Ġcell":8037,"esti":8038,"ĠszolgÃ¡lat":8039,"ases":8040,"Ġhen":8041,"TE":8042,"ĠKom":8043,"Ġunivers":8044,"ĠszlovÃ¡k":8045,"ĠTit":8046,"ĠMem":8047,"Ġ51":8048,"Ġaud":8049,"eball":8050,"track":8051,"ĠMuseum":8052,"Ġbevezet":8053,"Ġmand":8054,"ĠSzovjetun":8055,"ĠSS":8056,"adja":8057,"Ġcontinues":8058,"Ġleveg":8059,"ĠTaylor":8060,"Ġmarriage":8061,"eds":8062,"ĠBet":8063,"ĠJak":8064,"Ġenvironment":8065,"Ġ140":8066,"peror":8067,"Ġanyja":8068,"ĠprÃ³bÃ¡l":8069,"anna":8070,"fect":8071,"Ġmess":8072,"asztia":8073,"ilton":8074,"Ġleggy":8075,"ĠLittle":8076,"ĠnÅĳk":8077,"Ġobserv":8078,"Ð²":8079,"nyugati":8080,"ĠFi":8081,"ĠtÅĳle":8082,"cip":8083,"kes":8084,"Ġfolytatott":8085,"ĠFri":8086,"ĠlÃ¡tta":8087,"ĠOrszÃ¡gos":8088,"Ġoil":8089,"rael":8090,"Ġkies":8091,"ĠTov":8092,"Amer":8093,"Ġintellig":8094,"Ġvariety":8095,"Ġmeaning":8096,"okba":8097,"elÅĳle":8098,"tag":8099,"ĠkÃ³d":8100,"ĠjelentÅĳsen":8101,"Ġromant":8102,"ĠHolland":8103,"Ġchampionship":8104,"ental":8105,"alatt":8106,"adion":8107,"usk":8108,"ztak":8109,"Ġdial":8110,"ĠMarsh":8111,"entr":8112,"Ġschol":8113,"Ġedition":8114,"kn":8115,"ettÅĳl":8116,"Ġmarked":8117,"Ġteszt":8118,"ĠLind":8119,"ĠegymÃ¡ssal":8120,"Ġrepe":8121,"mon":8122,"Ġcases":8123,"ĠDisney":8124,"Ġmes":8125,"ees":8126,"ltal":8127,"Ġhivatalosan":8128,"Ġelvesz":8129,"Ġperformances":8130,"gr":8131,"Ġadtak":8132,"ibly":8133,"ĠmaradvÃ¡ny":8134,"Ġbattal":8135,"Ġmegkapta":8136,"Ġberend":8137,"ĠbelÅĳle":8138,"Ã©sei":8139,"ĠfelÃ¼let":8140,"Ġapr":8141,"sztÃ¶n":8142,"usa":8143,"ieutenant":8144,"iller":8145,"Ġkiadott":8146,"ĠcsatÃ¡ban":8147,"ĠkÃ¼lÃ¶nleges":8148,"gyÃ¡rt":8149,"ĠmegÃ©r":8150,"Ġkiss":8151,"ĠhÅĳmÃ©rsÃ©klet":8152,"iance":8153,"Ã¼gymin":8154,"ĠLor":8155,"ĠsegÃ©d":8156,"ĠÃºtvonal":8157,"Ġx":8158,"Ġviewers":8159,"ĠigazgatÃ³ja":8160,"Ġ1923":8161,"ĠgyÅ±jtemÃ©ny":8162,"Ġappar":8163,"ty":8164,"ĠkÃ¼lÃ¶nfÃ©le":8165,"Ġallowing":8166,"fÃ©r":8167,"Ġjelentek":8168,"Ġhundred":8169,"onyol":8170,"Ã©snek":8171,"laltÃ¡k":8172,"Ġsejt":8173,"Ġ155":8174,"ĠHÃ¡rom":8175,"rown":8176,"Ġconducted":8177,"elme":8178,"Ġjogi":8179,"Ġquality":8180,"ĠnyÃ¡ri":8181,"Ġmetres":8182,"ĠInfantry":8183,"ĠbÃ¶lcs":8184,"table":8185,"ĠHarrison":8186,"Ġsource":8187,"onok":8188,"astic":8189,"oztÃ¡k":8190,"Ġismeretlen":8191,"ĠJun":8192,"Ġtoj":8193,"Ġchap":8194,"48":8195,"Ġmountain":8196,"Ġstrugg":8197,"ĠSouthern":8198,"Ġforms":8199,"Ġstarting":8200,"ĠkÃ¶zvetlenÃ¼l":8201,"igmond":8202,"perial":8203,"avi":8204,"ĠstÃºdiÃ³":8205,"ĠChap":8206,"ĠHay":8207,"Ġwords":8208,"Ġlif":8209,"helyett":8210,"ĠDire":8211,"ĠÃ©rett":8212,"Ġeconomic":8213,"Ġugyanakkor":8214,"ĠSund":8215,"Ġyour":8216,"ĠYoung":8217,"ĠZoltÃ¡n":8218,"ĠelÅĳny":8219,"iverpool":8220,"Ġfont":8221,"eces":8222,"Ġpeaked":8223,"oes":8224,"Ġod":8225,"ĠSpec":8226,"iak":8227,"odÃ¡s":8228,"ĠAcademy":8229,"Ġmagasabb":8230,"ĠFur":8231,"Ġtraffic":8232,"ĠszÃ³r":8233,"elik":8234,"Ġsides":8235,"Ġ59":8236,"ĠvÃ¡ltak":8237,"Ġ96":8238,"kereszt":8239,"Ġtransferred":8240,"lev":8241,"ĠNight":8242,"vÃ©tel":8243,"ezd":8244,"Ġideje":8245,"Ġtoll":8246,"oir":8247,"ĠhÃ¡lÃ³z":8248,"ĠEgypt":8249,"Ġpresence":8250,"47":8251,"Ġdrum":8252,"ĠAlexander":8253,"ĠÃ©pÃŃtettek":8254,"Ġinstr":8255,"Ġpublik":8256,"Ġextra":8257,"ĠrÃ©teg":8258,"ĠbÃ¼ntet":8259,"ĠSystem":8260,"ĠLive":8261,"Ã¶ket":8262,"Ġbusz":8263,"Ġcontrast":8264,"Ã¡la":8265,"ĠMajor":8266,"ĠBob":8267,"ĠEst":8268,"ĠszolgÃ¡ltat":8269,"ĠszÃŃnÃ©sznÅĳ":8270,"rig":8271,"ĠRi":8272,"Ġ1880":8273,"encia":8274,"Ġ1890":8275,"ĠvalÃ³jÃ¡ban":8276,"Ġwing":8277,"ĠSus":8278,"ĠHy":8279,"ĠellenÅĳr":8280,"ÃŃtÃ¡si":8281,"Ġ1911":8282,"ĠWilson":8283,"ĠStud":8284,"Ġcastle":8285,"Ġlegs":8286,"ease":8287,"ĠSince":8288,"isation":8289,"ĠCommittee":8290,"nÃ©p":8291,"ĠelÃ©":8292,"Ã¨re":8293,"Ġbecomes":8294,"Ġenemy":8295,"ĠeredetÅ±":8296,"Ġraid":8297,"Ġdistinct":8298,"Ã¡llomÃ¡s":8299,"ĠrÃ¡diÃ³":8300,"Ġ99":8301,"ancy":8302,"ĠBudapesti":8303,"ĠOk":8304,"ĠLine":8305,"ĠkiegÃ©sz":8306,"Ġ68":8307,"ĠÃľ":8308,"Ġscoring":8309,"Ġejt":8310,"Ġnyer":8311,"Ġopportun":8312,"ĠkemÃ©ny":8313,"ĠkÃ¶zÃ¶sen":8314,"Ġadvance":8315,"ĠVictoria":8316,"ality":8317,"Ġportion":8318,"ĠmellÃ©":8319,"ĠRud":8320,"ĠÃ©pÃŃtettÃ©k":8321,"harm":8322,"Ġviselked":8323,"Ġuses":8324,"ĠJB":8325,"Ġpotential":8326,"ĠZsigmond":8327,"ĠParliament":8328,"Ġmis":8329,"Ġelektron":8330,"Ġthings":8331,"Ġyoun":8332,"ĠkÃ¶zÃ©pkori":8333,"Ġowned":8334,"Ġrelatively":8335,"Ġexhib":8336,"Ġfounded":8337,"Ġelektrom":8338,"Ġotthon":8339,"Ġinch":8340,"Ġkilenc":8341,"Ġpilot":8342,"hing":8343,"Åĳj":8344,"acu":8345,"Ġforeign":8346,"elmÅ±":8347,"arak":8348,"nik":8349,"ĠevangÃ©l":8350,"Ġconcluded":8351,"ekrÅĳl":8352,"Ġgreater":8353,"valÃ³s":8354,"ĠEp":8355,"ĠStudi":8356,"ails":8357,"Ġrespond":8358,"Ġess":8359,"rt":8360,"ĠLight":8361,"Ġattend":8362,"ĠAngli":8363,"ĠDef":8364,"Ã¡zat":8365,"Ġdog":8366,"ĠTod":8367,"ekhez":8368,"odox":8369,"ĠÃ¶nkormÃ¡ny":8370,"Ġprimarily":8371,"ĠkÃ¶rnyÃ©kÃ©n":8372,"Ġactually":8373,"ĠtÃ©v":8374,"jÃ©k":8375,"ĠutÃ¡ni":8376,"ĠkettÅĳ":8377,"Ġwor":8378,"ĠFinn":8379,"Ã©pett":8380,"Ġfigyelem":8381,"Ġkorabeli":8382,"ĠDuna":8383,"Ġfelszer":8384,"agu":8385,"ĠlÃ¡zad":8386,"ĠVilm":8387,"ĠBook":8388,"ĠMas":8389,"ezz":8390,"Ġwrite":8391,"ismertebb":8392,"ĠszÃ³t":8393,"ading":8394,"uf":8395,"ĠBall":8396,"Ġdra":8397,"31":8398,"esc":8399,"ĠChief":8400,"ĠSher":8401,"ĠLife":8402,"ĠUN":8403,"kezik":8404,"ĠkezdtÃ©k":8405,"Ġattempts":8406,"ĠvalÃ³s":8407,"ĠelnevezÃ©s":8408,"Ġ169":8409,"ĠPen":8410,"Ġstories":8411,"esszor":8412,"ĠÃ©lete":8413,"ĠCaptain":8414,"Ġlic":8415,"ications":8416,"ĠBond":8417,"ĠPo":8418,"ĠSeries":8419,"Ġtil":8420,"Ġfinancial":8421,"Ġwriters":8422,"erto":8423,"Ġobserved":8424,"ote":8425,"Ġproperty":8426,"Ġfederal":8427,"hagy":8428,"ogrÃ¡f":8429,"ezred":8430,"ĠÄ":8431,"ĠrendelkezÅĳ":8432,"Ã©sÃ©hez":8433,"ĠAndrew":8434,"ÃŃrÃ¡s":8435,"arkas":8436,"Ġhaza":8437,"ĠbizottsÃ¡g":8438,"ĠSant":8439,"mester":8440,"Ġwalk":8441,"Ġfesz":8442,"atty":8443,"album":8444,"ours":8445,"ĠBridge":8446,"ĠpolgÃ¡ri":8447,"ĠÃ¼zlet":8448,"Ġmajdnem":8449,"ranch":8450,"erate":8451,"akon":8452,"Ġfutam":8453,"ĠRoss":8454,"Ġstrength":8455,"ĠmunkatÃ¡rsa":8456,"ster":8457,"nyel":8458,"mos":8459,"Ġpaid":8460,"ĠvÃŃv":8461,"ĠMD":8462,"Ġrule":8463,"rip":8464,"pÃ¡t":8465,"ovÃ¡cs":8466,"Ġparents":8467,"ĠÃ©vszÃ¡zad":8468,"ĠtÃ¶rtÃ©nete":8469,"ĠMore":8470,"ĠjÃ¡tÃ©kvezet":8471,"Ġmultiple":8472,"yer":8473,"ĠszÃ¡ndÃ©k":8474,"ĠKen":8475,"ĠVÃ¶rÃ¶s":8476,"Ġslightly":8477,"Ġrating":8478,"ims":8479,"Ġlot":8480,"ela":8481,"Ġrough":8482,"Ġbes":8483,"Ġonto":8484,"ĠâĢľ":8485,"Ġahhoz":8486,"Ġ77":8487,"Ġnyilatkoz":8488,"Ġmegnyerte":8489,"ĠlevÅĳ":8490,"Ġ67":8491,"ĠvÃ¡ll":8492,"Ã¡kon":8493,"Ġselling":8494,"ĠAlap":8495,"Ġanimals":8496,"ĠBattal":8497,"igg":8498,"Ġgyilk":8499,"ĠÃ©pÃŃtett":8500,"iskolai":8501,"ĠfÃ¶lÃ¶tt":8502,"ztÃ©k":8503,"Ġzong":8504,"Ġinnings":8505,"Ġshare":8506,"ĠkÃ¶rÃ¼li":8507,"Ġcollection":8508,"Ġtitled":8509,"ĠTudomÃ¡nyegyetem":8510,"Ġliber":8511,"Ã©telt":8512,"Ġacting":8513,"Ġlegmagasabb":8514,"aszer":8515,"ĠHum":8516,"Ġgradu":8517,"Ġigazi":8518,"Ġsituation":8519,"Ġinstrument":8520,"Ġdistance":8521,"erc":8522,"Ġbroke":8523,"ĠBey":8524,"Ã«":8525,"ĠCard":8526,"Ġnevezik":8527,"Ġsymb":8528,"ĠArthur":8529,"Ġvillamos":8530,"ĠMTV":8531,"ui":8532,"ĠmÃ©l":8533,"Ã©ppen":8534,"jal":8535,"ello":8536,"Ġtarget":8537,"ĠkÃ¶nyvtÃ¡r":8538,"Ġdokumentum":8539,"Ġpowerful":8540,"ĠCommission":8541,"ĠGirl":8542,"Ġvocal":8543,"iced":8544,"Ġprotest":8545,"ĠelkÃ©pzel":8546,"ĠÃ©rsek":8547,"Ġfigure":8548,"apor":8549,"Ã©sÃ¼k":8550,"mÃ©rkÅĳz":8551,"Ġlin":8552,"atait":8553,"Ġgyakori":8554,"vÃ¶lgy":8555,"Ġcat":8556,"tÃ¡rs":8557,"ĠSwed":8558,"hÃŃr":8559,"ĠCseh":8560,"Ġprint":8561,"ĠAvenue":8562,"Ġnemes":8563,"Ġstabil":8564,"Ġpiece":8565,"Ġcompanies":8566,"Ġultimately":8567,"Ã©nÃ©l":8568,"ĠEurÃ³pÃ¡ban":8569,"ĠjellegÅ±":8570,"ĠmegvalÃ³s":8571,"'s":8572,"ajÃ¡t":8573,"ĠmegszÅ±nt":8574,"oztak":8575,"Ġterjeszt":8576,"ĠAbb":8577,"Ġdivided":8578,"ĠClass":8579,"Ġwaters":8580,"ĠKÃ¶nyv":8581,"ĠtÃ¡rsadalom":8582,"ĠszÅĳl":8583,"ĠâĪĴ":8584,"akciÃ³":8585,"arian":8586,"ĠrÃ©giÃ³ban":8587,"Ġindependent":8588,"rof":8589,"ĠÃ¼zemelt":8590,"ĠÃĹ":8591,"ronic":8592,"Ġcollabor":8593,"Ġforgalom":8594,"ĠElizabeth":8595,"ĠFleet":8596,"Ġactor":8597,"ĠKÃ©p":8598,"ĠSteve":8599,"ĠLar":8600,"ĠkÃ¶rÃ©ben":8601,"von":8602,"Ġtourn":8603,"pret":8604,"Ġcompletely":8605,"inth":8606,"Ġjournal":8607,"ĠÃ©vre":8608,"ĠFelsÅĳ":8609,"ylvania":8610,"enti":8611,"ĠNov":8612,"Ġdefin":8613,"Ġ110":8614,"Ġfert":8615,"ĠBalt":8616,"Ġsought":8617,"Ġmeleg":8618,"Ġhusz":8619,"Ġfejedelem":8620,"Ġfan":8621,"Ã¼d":8622,"hatja":8623,"ĠLiverpool":8624,"ĠvÃ©gÃ©ig":8625,"fordulÃ³":8626,"aza":8627,"Ġnapja":8628,"Ġolaj":8629,"iger":8630,"oma":8631,"Ã¡ciÃ³k":8632,"osen":8633,"Ġbirtoka":8634,"lÃ¡sa":8635,"Ġpolitikus":8636,"ĠtelevÃŃziÃ³s":8637,"ĠerÅĳk":8638,"oud":8639,"ciÃ³k":8640,"Ġbot":8641,"ĠkÃ©szÃŃtette":8642,"Ġwinter":8643,"kup":8644,"iptomi":8645,"Ġhus":8646,"Ġelev":8647,"Ãºgy":8648,"okhoz":8649,"Ġstruck":8650,"isp":8651,"ricket":8652,"bled":8653,"66":8654,"iant":8655,"ĠmegkÃ¶zel":8656,"encei":8657,"ĠjanuÃ¡rjÃ¡ban":8658,"ĠFe":8659,"Ġ1000":8660,"ĠmÅ±faj":8661,"Ġmainly":8662,"isher":8663,"zÃ©st":8664,"umi":8665,"Ġfenntart":8666,"Ġsout":8667,"Ã¡ron":8668,"ĠhozzÃ¡j":8669,"while":8670,"Ġtoday":8671,"ĠgyÃ¶k":8672,"ĠValley":8673,"grad":8674,"Ã¼v":8675,"Ġsu":8676,"itution":8677,"Ġnortheast":8678,"ĠnyarÃ¡n":8679,"eszi":8680,"Ġnevezett":8681,"ĠLinc":8682,"ĠLov":8683,"ager":8684,"ĠnÃ©lkÃ¼li":8685,"ĠStudios":8686,"szel":8687,"Ġseconds":8688,"Ġfeaturing":8689,"Ġpun":8690,"ĠFootball":8691,"Ġwear":8692,"Ġpitch":8693,"ĠBrian":8694,"hew":8695,"ips":8696,"ĠCroat":8697,"Ġcalling":8698,"Ġhozta":8699,"Ġ1908":8700,"bÃ¡ny":8701,"Ġbound":8702,"Ġscale":8703,"Ġteher":8704,"Ġactions":8705,"ĠszÃŃ":8706,"imet":8707,"ĠDal":8708,"ĠmunkÃ¡t":8709,"oses":8710,"ĠÃ³kori":8711,"ĠkÃ¶zÃ¶nsÃ©g":8712,"ĠNyugat":8713,"olved":8714,"hettek":8715,"Ġofficials":8716,"lem":8717,"ĠEg":8718,"sey":8719,"Ġprem":8720,"ĠhullÃ¡m":8721,"Ġelsz":8722,"Ġculture":8723,"ĠkevÃ©sbÃ©":8724,"ĠpartjÃ¡n":8725,"ĠWeek":8726,"Ġbenef":8727,"Ġinfluenced":8728,"ĠNÃ©hÃ¡ny":8729,"jÃ¡ba":8730,"ĠKÃ¶zpont":8731,"ĠtÃ¶rtÃ©nelem":8732,"Ġakarta":8733,"Ġcrow":8734,"ĠgyÅĳzelem":8735,"ĠHitler":8736,"Ġdesignated":8737,"ĠmeghÃŃv":8738,"ĠFÃ¼l":8739,"Ġplays":8740,"ĠAmericans":8741,"Ã©rd":8742,"ĠRend":8743,"Ġcombined":8744,"ĠService":8745,"mission":8746,"tered":8747,"Ġsearch":8748,"Ġsquare":8749,"Ġtrial":8750,"Ġthous":8751,"AR":8752,"ĠThree":8753,"ĠJugoszlÃ¡v":8754,"ĠCy":8755,"anes":8756,"Ġsociety":8757,"ĠtalÃ¡ltak":8758,"adtÃ¡k":8759,"Ġprepar":8760,"Ġalongside":8761,"iban":8762,"rie":8763,"ziÃ³":8764,"Ġbatter":8765,"overy":8766,"szerv":8767,"Ġelker":8768,"Ġinnen":8769,"writ":8770,"ĠadÃ³":8771,"Ġinspir":8772,"ĠlelkÃ©sz":8773,"Ġfelk":8774,"istry":8775,"Ġalatti":8776,"ĠWild":8777,"si":8778,"ĠKelet":8779,"Ġsorozatban":8780,"ĠjelentÅĳ":8781,"war":8782,"Ġgained":8783,"ski":8784,"ĠmÃ¡sok":8785,"ĠTag":8786,"uper":8787,"eivel":8788,"ezer":8789,"izm":8790,"ĠlÃ¡nya":8791,"Ġkapcsolatos":8792,"ĠkÃ¶zremÅ±kÃ¶d":8793,"jei":8794,"ĠkÃ¶zÃ©psÅĳ":8795,"ĠvÃ¡ltozata":8796,"Ġatom":8797,"ĠvÃ¡lik":8798,"Ġtol":8799,"Ġsokszor":8800,"Ġpromoted":8801,"Ġtun":8802,"Ġemiatt":8803,"ĠCsak":8804,"Ġcorn":8805,"ipar":8806,"uzz":8807,"ancing":8808,"Ġruh":8809,"bant":8810,"appen":8811,"Ġreaching":8812,"Ġpit":8813,"Ġproved":8814,"ĠtÃ¼z":8815,"ĠSzak":8816,"ĠerdÅĳ":8817,"ĠalapÃŃtottÃ¡k":8818,"Ġtech":8819,"arnok":8820,"Ġjoin":8821,"Ã¼mÃ¶lcs":8822,"nan":8823,"ĠszÃŃnÅ±":8824,"Ġalkalmazott":8825,"sze":8826,"Ġnotes":8827,"Ġ700":8828,"Ġlelet":8829,"andy":8830,"Ġ1905":8831,"szerte":8832,"ĠesÅĳ":8833,"Ġnaval":8834,"ĠalkotmÃ¡ny":8835,"tatta":8836,"Ãºk":8837,"ĠmÃ©rtÃ©kben":8838,"izes":8839,"zÅĳdÃ©s":8840,"Ġproblem":8841,"ĠmegtalÃ¡lhatÃ³":8842,"ĠIlyen":8843,"eki":8844,"ĠSzabad":8845,"hetÅĳk":8846,"Ã¡szat":8847,"Ġencour":8848,"etes":8849,"ĠAsh":8850,"ĠCommun":8851,"Ġcle":8852,"Ġpassing":8853,"Ġnorthwest":8854,"ĠkÃ¶nnyÅ±":8855,"more":8856,"ĠkormÃ¡nyz":8857,"ĠkÃ¡p":8858,"Ġelectric":8859,"uled":8860,"ĠItaly":8861,"ĠBrigade":8862,"ĠDoug":8863,"urd":8864,"Ġcomes":8865,"ĠamÃŃg":8866,"ĠakadÃ©m":8867,"Ġfilmet":8868,"Ġcolor":8869,"gazd":8870,"Ġcoming":8871,"Ġweather":8872,"ĠvonatkozÃ³":8873,"ĠHeart":8874,"ĠpÃ¡ncÃ©l":8875,"ĠforgatÃ³k":8876,"Ġconfirmed":8877,"Ġpolicy":8878,"ĠDer":8879,"ĠszerepÃ©t":8880,"Ġwidely":8881,"Ġactivity":8882,"Ġsixth":8883,"kÃ¶zt":8884,"reland":8885,"ĠvÃ¡llalkoz":8886,"Ġ87":8887,"ĠkÃ¶zpontja":8888,"ĠJersey":8889,"Ġsuit":8890,"Ġhusband":8891,"Ġmang":8892,"Ġrecent":8893,"ĠvallÃ¡s":8894,"Ġnews":8895,"heless":8896,"Ġartists":8897,"Ġko":8898,"Ġice":8899,"Ġwebs":8900,"Ġamelyeket":8901,"ĠLincoln":8902,"hatta":8903,"Ġ88":8904,"Ġexplained":8905,"ĠAlli":8906,"ĠhalÃ¡lÃ¡ig":8907,"Ġfunction":8908,"ĠWhat":8909,"Ġshortly":8910,"Ġgreatest":8911,"ĠbefolyÃ¡s":8912,"ĠEurÃ³pai":8913,"Ġmondta":8914,"ĠegyÃ¼ttmÅ±kÃ¶d":8915,"jelentÅĳsebb":8916,"ĠtanÃŃtvÃ¡ny":8917,"ibrary":8918,"ĠIreland":8919,"bÃ¶l":8920,"ĠÃ¡ltala":8921,"ĠBlue":8922,"front":8923,"Ġrendszeresen":8924,"Ġelk":8925,"ĠmutattÃ¡k":8926,"ĠTib":8927,"ĠUp":8928,"Ġcausing":8929,"Ġsubsequent":8930,"ĠmÅ±vel":8931,"ĠÃ¡llatok":8932,"ĠMid":8933,"ezÃ©si":8934,"ĠmÃ©retÅ±":8935,"ĠhelyÃ©re":8936,"Ġnyugat":8937,"ĠterÃ¼letet":8938,"ype":8939,"Ġcounty":8940,"Station":8941,"Ġpath":8942,"Ġshell":8943,"semmis":8944,"ĠigazgatÃ³":8945,"quarters":8946,"Ã©h":8947,"Ġring":8948,"ĠTa":8949,"uri":8950,"ĠWalter":8951,"itness":8952,"iled":8953,"ĠGuard":8954,"worth":8955,"ĠHold":8956,"Ġ69":8957,"ĠÃ¶sztÃ¶n":8958,"ĠBattalion":8959,"Ġcontent":8960,"ĠslÃ¡g":8961,"wick":8962,"Ġcharge":8963,"amber":8964,"Ġemot":8965,"ĠTre":8966,"Ġty":8967,"ĠColumbia":8968,"Ġburn":8969,"ĠWat":8970,"Ġinvasion":8971,"aival":8972,"ĠÃ¶sszefÃ¼gg":8973,"Ġcselek":8974,"Ġnominated":8975,"Ġ1870":8976,"Ġ159":8977,"ĠFrancisco":8978,"ĠPenns":8979,"ĠMu":8980,"ighth":8981,"Ġ78":8982,"ĠÃģltal":8983,"Ġeny":8984,"ĠMul":8985,"town":8986,"polit":8987,"Ġgreen":8988,"Ġseek":8989,"Ġserve":8990,"Ã¡szati":8991,"Ã³nia":8992,"ĠSpanyol":8993,"ads":8994,"Ã¡tyja":8995,"Ġborder":8996,"kÃ¡ny":8997,"Ġ165":8998,"Ġmutatja":8999,"Ġhospital":9000,"rott":9001,"erd":9002,"ĠCatholic":9003,"Ġresist":9004,"hÃ¡za":9005,"Ġiron":9006,"ocked":9007,"Ġkath":9008,"izÃ¡lt":9009,"ollÃ©gium":9010,"Åĳn":9011,"Ġesk":9012,"ÃŃtÃ¡sÃ¡val":9013,"ĠRa":9014,"jÃ¡tÃ³l":9015,"ĠsokÃ¡ig":9016,"AC":9017,"ÅĳtÃ©r":9018,"Ġpartn":9019,"ĠEmellett":9020,"ĠszÃ¼r":9021,"ĠvÃ©grehajt":9022,"Ġresidents":9023,"ĠgÃ¡z":9024,"ĠhangsÃºly":9025,"vai":9026,"ĠWork":9027,"Ġsoundtrack":9028,"ĠlÃ©trejÃ¶tt":9029,"Ġsays":9030,"ĠPlayStation":9031,"Ġadatok":9032,"Ġkarrier":9033,"ĠÃ©rzÃ©k":9034,"alties":9035,"Ġdeliv":9036,"Ã¡zÃ³":9037,"szerkeszt":9038,"Ġadja":9039,"Ġblue":9040,"ĠmegtÃ¡m":9041,"ĠnÃ©metek":9042,"aked":9043,"ĠkezdemÃ©ny":9044,"ĠDet":9045,"ĠKolozsvÃ¡r":9046,"etni":9047,"Ġalbums":9048,"moz":9049,"Ġsystems":9050,"ĠLewis":9051,"emic":9052,"Ġexpressed":9053,"Ġtells":9054,"ĠKriszt":9055,"tetett":9056,"ĠHug":9057,"adelph":9058,"Ġsources":9059,"Ġsense":9060,"stantin":9061,"ĠTamÃ¡s":9062,"Ġfle":9063,"ĠtevÃ©kenysÃ©g":9064,"ĠhatÃ¡s":9065,"Ġhands":9066,"ĠSzt":9067,"ĠkiadÃ³":9068,"wart":9069,"ĠkÃ©szÃŃt":9070,"ĠhozzÃ¡jÃ¡r":9071,"inem":9072,"itk":9073,"ĠlehetÅĳsÃ©get":9074,"ĠkitÃ¶r":9075,"ĠTelev":9076,"etts":9077,"elli":9078,"Ġahead":9079,"ĠsÃŃ":9080,"ĠtÃ©rkÃ©p":9081,"Ġolder":9082,"itel":9083,"ategory":9084,"ĠÃ©nekesnÅĳ":9085,"Ġ1906":9086,"ĠbÃ©r":9087,"vÃ¡sÃ¡r":9088,"ĠAdd":9089,"Ġadvis":9090,"Ġoffer":9091,"Ġartillery":9092,"ĠNob":9093,"range":9094,"ceÃ¡n":9095,"Ġtheory":9096,"Ġrival":9097,"ĠjÃ¡tÃ©kosa":9098,"ĠdÃŃjat":9099,"fÃ¶ldÃ¶n":9100,"Ġsexual":9101,"Ġtartja":9102,"Ñģ":9103,"Ġsemm":9104,"ĠazutÃ¡n":9105,"ĠÅĳsi":9106,"usion":9107,"vilÃ¡gbajnoksÃ¡g":9108,"Ġlenne":9109,"Ġheavily":9110,"ĠUnivers":9111,"ĠvasÃºti":9112,"ĠÃ¼veg":9113,"NS":9114,"Ġbegin":9115,"Ġtrue":9116,"Ġek":9117,"ĠCart":9118,"jÃ¶n":9119,"ĠHollywood":9120,"ĠMount":9121,"ĠjÃ¡rmÅ±":9122,"icient":9123,"stone":9124,"ĠFord":9125,"Ġfelismer":9126,"Ġfocus":9127,"erb":9128,"Ġchem":9129,"hab":9130,"ĠPrem":9131,"ĠkiÃ¡ll":9132,"ĠidÅĳsebb":9133,"Ġphysical":9134,"ĠField":9135,"Ġmegsemmis":9136,"ĠDaniel":9137,"Ġera":9138,"jÃ¡tsz":9139,"ĠLike":9140,"ĠGord":9141,"ĠUE":9142,"Ġnegoti":9143,"ĠkÃ¶zÃ¶ssÃ©g":9144,"Ġidentified":9145,"Ġorvosi":9146,"Ġalone":9147,"vÃ¡l":9148,"ĠBre":9149,"Ġglob":9150,"esett":9151,"Ġseasons":9152,"ĠhelyÃ©t":9153,"ĠCivil":9154,"Ġweapons":9155,"Ġï¿½ï¿½ï¿½":9156,"Ġrequire":9157,"ĠOcean":9158,"Ġ1907":9159,"Ġkevesebb":9160,"Ġkora":9161,"jÃ¡rÃ³":9162,"Ġwick":9163,"Ġannyira":9164,"rix":9165,"Ġdebuted":9166,"Ã©leti":9167,"ĠDutch":9168,"Ġelb":9169,"key":9170,"Ġmegak":9171,"Ġsort":9172,"ĠmÃ¡g":9173,"Ġszar":9174,"ÃŃtÃ©k":9175,"Ġspread":9176,"Ġrepresented":9177,"Ġnemesi":9178,"Ġexecutive":9179,"Ġfired":9180,"Ġconsisted":9181,"ĠkivÃ¡lt":9182,"Ġzsin":9183,"ĠRegiment":9184,"ĠGil":9185,"ĠBroad":9186,"ĠszerzÅĳdÃ©st":9187,"ĠapÃ¡t":9188,"Ġcapture":9189,"IA":9190,"emet":9191,"Ġdistrict":9192,"Ġlovas":9193,"Ã¡rny":9194,"ĠfÅĳt":9195,"Ġpack":9196,"Ġsenior":9197,"Ġfloor":9198,"Ġrajong":9199,"tani":9200,"ito":9201,"Ġcities":9202,"anner":9203,"ĠKev":9204,"Ġsokan":9205,"Ã©szett":9206,"ĠÃ©ltek":9207,"Ġmelyeket":9208,"ĠnÅĳst":9209,"Ġoldalon":9210,"Ġ89":9211,"Ġwild":9212,"Ġdefense":9213,"kins":9214,"Ġ1909":9215,"ĠSzÃ¡mos":9216,"Ġoszlop":9217,"ĠFestival":9218,"known":9219,"ĠrendeztÃ©k":9220,"ĠminÅĳs":9221,"Ġelhunyt":9222,"Ġmoment":9223,"ĠtÃ¶k":9224,"ĠInstitute":9225,"Ġgas":9226,"Ġofficially":9227,"ĠelÃ©rhetÅĳ":9228,"ĠcsalÃ¡di":9229,"Ġresults":9230,"ĠHomer":9231,"ushed":9232,"ĠÃ©vet":9233,"eri":9234,"Ġlek":9235,"ĠMiskol":9236,"Ġprominent":9237,"ossal":9238,"Ġsoha":9239,"Ġstone":9240,"ĠMountain":9241,"Ġgraph":9242,"ĠOf":9243,"Ġlegel":9244,"ĠErdÃ©ly":9245,"ĠAdmiral":9246,"tere":9247,"Ġalakban":9248,"ĠKel":9249,"Ġnyitott":9250,"ĠSzÃ¶vetsÃ©g":9251,"Ġappeal":9252,"ĠTisz":9253,"Ġdoing":9254,"Ġfeletti":9255,"Ġcompar":9256,"Ġoka":9257,"Ġszervezett":9258,"pass":9259,"etting":9260,"Ġmagukat":9261,"ĠArgent":9262,"Ġreturning":9263,"esse":9264,"ĠFantasy":9265,"ĠkÃ¶rÃ¼lmÃ©nyek":9266,"ÃŃd":9267,"Ġeth":9268,"ionÃ¡lis":9269,"Ġstudent":9270,"ĠtelepÃ¼lÃ©st":9271,"Ġdefend":9272,"Ġhorse":9273,"ĠCarolina":9274,"ĠDuke":9275,"Ġ98":9276,"ĠKÃ¡l":9277,"Ġ2018":9278,"pÃ¡d":9279,"Ġresc":9280,"ĠnÃ©ha":9281,"Ġargued":9282,"Ġhere":9283,"Ã³le":9284,"Ġaired":9285,"Ġinjury":9286,"een":9287,"Ġisz":9288,"Ġhers":9289,"ĠFerdinÃ¡nd":9290,"ĠPhilipp":9291,"Ġdoktor":9292,"anni":9293,"ĠVII":9294,"Ġcrowd":9295,"Å±nÅĳ":9296,"Ġlaid":9297,"Ġ53":9298,"Ġimage":9299,"ĠcsÃ¶kken":9300,"dÃŃ":9301,"ĠtÃ¼k":9302,"Ġszerencs":9303,"lel":9304,"ĠMÃ¡ty":9305,"Ġlaws":9306,"Ġkezdet":9307,"ĠVide":9308,"ĠCambridge":9309,"intendo":9310,"eless":9311,"Ġpict":9312,"ĠPap":9313,"fut":9314,"Ð»":9315,"ĠszÃŃnpad":9316,"ÃŃtÃ©sÃ©t":9317,"vegy":9318,"rea":9319,"Ġfogva":9320,"fÃ¼gg":9321,"Ġmaintained":9322,"Ġablak":9323,"Ġpattern":9324,"org":9325,"Ġeas":9326,"Ġcontemporary":9327,"ĠSquare":9328,"ĠLeon":9329,"ĠPa":9330,"Ã¡ciÃ³ja":9331,"Ġstudies":9332,"Ġmozgalom":9333,"Ġmilyen":9334,"ĠAzt":9335,"Ġ167":9336,"Ġpeace":9337,"ĠvÃ¡llalat":9338,"ĠfelÅĳl":9339,"ĠmielÅĳtt":9340,"Ġszek":9341,"ĠGab":9342,"Ġequipment":9343,"ĠPhiladelph":9344,"Ġaffected":9345,"Ġfigures":9346,"ĠGram":9347,"Ġappearances":9348,"ezhetÅĳ":9349,"Ġmindegy":9350,"szem":9351,"box":9352,"Äģ":9353,"rÃ¡t":9354,"Ġcsont":9355,"ĠBurn":9356,"42":9357,"Ġtransl":9358,"Ġrestaur":9359,"hÃ¡rom":9360,"Ã¼lni":9361,"terv":9362,"Ġasszony":9363,"ias":9364,"Ġbott":9365,"Ã¨res":9366,"By":9367,"acity":9368,"ĠJam":9369,"Ġpieces":9370,"ĠNorthern":9371,"janak":9372,"Ġvirt":9373,"Ġorganization":9374,"ĠlÃ©tezik":9375,"Ġkort":9376,"Ã¡sokkal":9377,"ĠvallÃ¡si":9378,"Ġcriticized":9379,"lines":9380,"Ã¡jÃ¡ra":9381,"Ġdrug":9382,"ĠtettÃ©k":9383,"ĠlegjelentÅĳsebb":9384,"ĠChristmas":9385,"Ġleaders":9386,"Ġegyetemen":9387,"Ġgrowth":9388,"Ġpoet":9389,"Ġbackground":9390,"ĠOszt":9391,"phere":9392,"Ġmatter":9393,"Ġinterpret":9394,"ĠÃ¡llÃ¡s":9395,"Ġoccasion":9396,"Ġbab":9397,"ĠRÃ³":9398,"Ġvisited":9399,"irty":9400,"szky":9401,"ĠBand":9402,"gom":9403,"ĠNintendo":9404,"ĠSeveral":9405,"Ġkezdetben":9406,"ĠDavis":9407,"Ġonline":9408,"ĠellentÃ©tben":9409,"ĠBak":9410,"46":9411,"ÃŃtÃ³k":9412,"elnek":9413,"ĠKÃ¶r":9414,"ĠkÃ¶nnyen":9415,"Ġattrib":9416,"Ġszakmai":9417,"ĠLady":9418,"Ġalakja":9419,"embly":9420,"ivatal":9421,"Ġcouple":9422,"Ã©nnyel":9423,"ĠBelgium":9424,"ĠHart":9425,"Ġtechni":9426,"alkot":9427,"ĠMoz":9428,"Ã±":9429,"Ġquestion":9430,"ucky":9431,"ĠÃ¶tlet":9432,"inÃ¡l":9433,"ruit":9434,"fajta":9435,"Ġhivatkoz":9436,"ĠhÅĳs":9437,"ĠmÅ±vÃ©szeti":9438,"ĠgyÃ¼mÃ¶lcs":9439,"ĠHistor":9440,"Ġtoward":9441,"ĠAC":9442,"Ġhelyettes":9443,"Ġtemplomot":9444,"sÃ©gre":9445,"ĠCarey":9446,"ĠszÃ¡mÃŃtott":9447,"Ġtrees":9448,"ĠkirÃ¡lynÃ©":9449,"Ġuralom":9450,"Ġrajt":9451,"ĠAntal":9452,"Ġdress":9453,"Ġrac":9454,"Ġtengely":9455,"apcsol":9456,"ĠDark":9457,"Ġanyagi":9458,"Ã©rtelmÅ±":9459,"ĠProd":9460,"ĠLaur":9461,"Ġtrying":9462,"ĠgyÅĳztes":9463,"Ġolt":9464,"ĠtÃ¡mogatta":9465,"ĠSerb":9466,"onia":9467,"ented":9468,"Ġchair":9469,"ĠBrook":9470,"yster":9471,"ĠOpen":9472,"Ġpropos":9473,"ĠTony":9474,"Ġversions":9475,"ĠSyd":9476,"ĠveresÃ©get":9477,"ĠUl":9478,"ĠGÃ©z":9479,"ĠtanszÃ©k":9480,"iÃ¡ba":9481,"adai":9482,"ĠPennsylvania":9483,"hid":9484,"ĠSub":9485,"ĠmÃ©rnÃ¶k":9486,"Ġphil":9487,"ĠAlexand":9488,"ĠKoss":9489,"ĠDistrict":9490,"ĠSound":9491,"Ġterritory":9492,"ĠPict":9493,"Ġdelay":9494,"ĠalapÃŃtÃ³":9495,"ĠChart":9496,"Ġworldwide":9497,"ĠSu":9498,"Ġrainfall":9499,"ĠnÃ©zet":9500,"ĠAttila":9501,"ĠRem":9502,"Ġkilog":9503,"edd":9504,"ĠzÃ¡szlÃ³":9505,"Ġ1904":9506,"fest":9507,"ĠMiller":9508,"Ġdim":9509,"oration":9510,"szob":9511,"ĠHome":9512,"opter":9513,"ext":9514,"Ġexec":9515,"ĠfÃ©rje":9516,"Ġteach":9517,"usztrÃ¡l":9518,"resp":9519,"ĠvÃ©gsÅĳ":9520,"ĠNHL":9521,"ilis":9522,"ĠSanta":9523,"gu":9524,"ĠVilmos":9525,"Ġearth":9526,"rance":9527,"ĠJelenleg":9528,"ĠGolden":9529,"ĠterÃ¼letek":9530,"ĠTurn":9531,"ĠEle":9532,"Ġmedical":9533,"41":9534,"Ġsens":9535,"ĠÃ©rtek":9536,"cialista":9537,"ĠmunkÃ¡ja":9538,"ĠkatonÃ¡k":9539,"Ġconver":9540,"kodÃ¡s":9541,"tori":9542,"okrat":9543,"burn":9544,"Ġ1860":9545,"cz":9546,"Ġ1857":9547,"Ġfully":9548,"acement":9549,"Ġ79":9550,"ĠBos":9551,"Ġchosen":9552,"Ġbocs":9553,"ĠAusztrÃ¡l":9554,"Ġhyd":9555,"Ġpontot":9556,"ĠÃ¡tmÃ©r":9557,"Ġfokozatosan":9558,"Ġlink":9559,"artÃ³zt":9560,"Ġegyiptomi":9561,"ĠJohann":9562,"Ġrid":9563,"ĠTak":9564,"Ġgod":9565,"Ġkolozs":9566,"ĠÃģrpÃ¡d":9567,"ĠMoszk":9568,"ĠCz":9569,"Ġfizikai":9570,"ĠbejÃ¡r":9571,"ĠÃ¡llnak":9572,"ĠmenekÃ¼lt":9573,"ĠEszter":9574,"Ġsingles":9575,"ĠGrant":9576,"ĠBol":9577,"Ġmachine":9578,"ĠDream":9579,"Ġformation":9580,"phas":9581,"ĠHamilton":9582,"ĠBecause":9583,"Ġbirds":9584,"uous":9585,"lusion":9586,"Ġspeech":9587,"ĠminÅĳsÃ©g":9588,"ezÅĳd":9589,"rav":9590,"ĠUk":9591,"ĠScottish":9592,"Ġleaves":9593,"Ġtherefore":9594,"dÃ©k":9595,"Ġhero":9596,"ĠrepÃ¼lÃ©s":9597,"ĠkÃ¶ztÃ¡rsasÃ¡g":9598,"Ġreign":9599,"ĠspeciÃ¡lis":9600,"Ġcong":9601,"ĠOsc":9602,"ĠzeneszerzÅĳ":9603,"Ġforint":9604,"ysis":9605,"ohol":9606,"ĠEastern":9607,"Ġsetting":9608,"Ġguest":9609,"ĠWW":9610,"Ġfeed":9611,"ĠdÃ©lre":9612,"ĠAlb":9613,"Ġfaced":9614,"ĠÃ©rtÃ©kes":9615,"ĠTech":9616,"Ġclaims":9617,"landÃ³":9618,"Ġtournament":9619,"ĠmegÃ¶l":9620,"Ġreference":9621,"When":9622,"hÃ¡zi":9623,"ĠSzovjetuniÃ³":9624,"Ġvettek":9625,"Ġgrew":9626,"Ġamivel":9627,"ĠvÃ©gÃ©re":9628,"Ġemellett":9629,"folyam":9630,"Ġfrequently":9631,"vÃ¶s":9632,"ĠtÃ¶rtÃ©nik":9633,"Ġcsatorn":9634,"Ġmurder":9635,"Ġentir":9636,"olÃ¡sa":9637,"birtok":9638,"Ġfair":9639,"ĠAny":9640,"ĠKarl":9641,"Ġtwice":9642,"Ġcamer":9643,"Â²":9644,"Ã¡sokon":9645,"ĠBarb":9646,"erÃ¼lt":9647,"Ġkert":9648,"jebb":9649,"Ġaccident":9650,"Ġvocals":9651,"Ġuniversity":9652,"Ġfear":9653,"ĠInc":9654,"ecsap":9655,"Ġbillion":9656,"pet":9657,"ĠkapitÃ¡ny":9658,"ĠKÃ¼lÃ¶n":9659,"ĠCastle":9660,"Ġremark":9661,"Ġhistorian":9662,"fejleszt":9663,"Ã©dia":9664,"Ġkeletkezett":9665,"atÃ©r":9666,"ĠÃ¶sszeh":9667,"Åĳsen":9668,"ting":9669,"Ġherself":9670,"etta":9671,"iring":9672,"ji":9673,"gyilk":9674,"Ġlabel":9675,"43":9676,"ĠszÃ¡n":9677,"Ġzongor":9678,"Ġspirit":9679,"ĠFried":9680,"ĠindÃŃtott":9681,"Ġwounded":9682,"ĠTal":9683,"ĠMars":9684,"Ġsupply":9685,"Ġstations":9686,"ĠmunkÃ¡l":9687,"Ġhonor":9688,"Ġescape":9689,"mouth":9690,"Ġvert":9691,"Ġgovernor":9692,"jÃ¡hoz":9693,"ĠÃ©rtelmÃ©ben":9694,"Ġhorses":9695,"ĠmezÅĳgazdasÃ¡g":9696,"Ġ125":9697,"Ġprec":9698,"Ġhop":9699,"Ġreports":9700,"isters":9701,"opron":9702,"ĠBour":9703,"stitution":9704,"Ġwalls":9705,"Ġpasses":9706,"ĠHind":9707,"ĠnemzetisÃ©g":9708,"Ġipari":9709,"antly":9710,"ĠkiemelkedÅĳ":9711,"gyal":9712,"Ġgyeng":9713,"Ġcontained":9714,"ivity":9715,"Ġplanet":9716,"ĠOhio":9717,"Ġexperiment":9718,"Ġtypically":9719,"iptom":9720,"ĠJr":9721,"Ġutazott":9722,"rate":9723,"ĠHun":9724,"ĠÃ©ve":9725,"ĠtanÃ¡ra":9726,"ĠUEFA":9727,"Ġsorrend":9728,"Ġnormal":9729,"ezÃ©sek":9730,"Ġmaradtak":9731,"elmes":9732,"edik":9733,"chest":9734,"Ġsurrounding":9735,"ĠeltÃ©rÅĳ":9736,"Ġfiction":9737,"rect":9738,"wall":9739,"ĠtestvÃ©r":9740,"ocsÃ¡t":9741,"ĠLyn":9742,"ĠerÅĳszak":9743,"Ġweight":9744,"Ġ1896":9745,"Ġvastag":9746,"Ġhumor":9747,"ĠDu":9748,"rÃ¡ny":9749,"Ġdang":9750,"ĠvalÃ³di":9751,"ĠvÃ©dett":9752,"Ġfranch":9753,"Ġreinfor":9754,"ĠSky":9755,"ĠHMS":9756,"essions":9757,"Ġbejelentette":9758,"Ġtorony":9759,"Ġlaunch":9760,"Ġtreatment":9761,"Ġven":9762,"ĠAlbum":9763,"szlovÃ¡k":9764,"Ġdegree":9765,"mÃ©rnÃ¶k":9766,"Ã¡nok":9767,"Ġreng":9768,"ĠvÃ©gleg":9769,"Ġaccompan":9770,"enkÃ©nt":9771,"Ġsimply":9772,"Ġtank":9773,"ĠAnderson":9774,"Â°":9775,"Ġcondition":9776,"Ġoperated":9777,"ÑĤ":9778,"ĠbÃºcs":9779,"ĠPoint":9780,"Ġchose":9781,"Ãºak":9782,"ĠgyÅ±l":9783,"ulcs":9784,"ĠformÃ¡ban":9785,"ĠPress":9786,"Ġmanufact":9787,"ĠKossuth":9788,"ĠkirÃ¡lynÅĳ":9789,"Ã¡rmester":9790,"ĠbetegsÃ©g":9791,"Ġcert":9792,"ĠÃ¡tmen":9793,"Ġeleg":9794,"orship":9795,"Ġactivities":9796,"ĠFrigyes":9797,"stream":9798,"ĠAllied":9799,"Ġcoal":9800,"rong":9801,"eszked":9802,"Ġpaper":9803,"ĠmegakadÃ¡ly":9804,"mÃ¡r":9805,"ifying":9806,"Ġ166":9807,"Ġelement":9808,"Ġassault":9809,"Ġdyn":9810,"Ġaddress":9811,"Ġvalue":9812,"Ġnothing":9813,"add":9814,"ĠFam":9815,"ÃŃtÃ¡sok":9816,"Ġhird":9817,"avig":9818,"Ġtend":9819,"ĠegysÃ©ges":9820,"ĠArn":9821,"Ġopposed":9822,"Ã³czi":9823,"Ġboldog":9824,"ĠcsalÃ¡dok":9825,"ĠdebÃ¼tÃ¡lt":9826,"Ġprefer":9827,"Ġaratott":9828,"Ã¡jÃ¡val":9829,"Ġworkers":9830,"seg":9831,"zÅĳdik":9832,"ĠPolish":9833,"Ġpsych":9834,"ĠkolozsvÃ¡ri":9835,"awa":9836,"Ġgraf":9837,"Ġprofesszor":9838,"Ġelterjedt":9839,"Ġproducers":9840,"ĠFall":9841,"Ġparticipated":9842,"Ġfuel":9843,"Ġrendelkezett":9844,"rif":9845,"ÃŃrt":9846,"ĠFA":9847,"Ġserving":9848,"ĠtiszteletÃ©re":9849,"Ġkidolg":9850,"Ã³knak":9851,"set":9852,"ĠPre":9853,"Ġellenfel":9854,"Ġ1903":9855,"Ġaszt":9856,"Ġlosing":9857,"ĠÃĸssz":9858,"oft":9859,"Ġkont":9860,"Ġversenyen":9861,"szÃŃ":9862,"ĠXX":9863,"Ġorders":9864,"Ġopin":9865,"ĠHaz":9866,"ĠfÃ¶ldes":9867,"Ġnewly":9868,"ĠÃ¼gyvÃ©d":9869,"Ġjelenlegi":9870,"efon":9871,"ĠÃ©pÃŃtkez":9872,"Ġgrowing":9873,"zon":9874,"engt":9875,"Ġlives":9876,"ledge":9877,"Ġconsecutive":9878,"ĠConn":9879,"Ġmegszerezte":9880,"appy":9881,"Ġadvanced":9882,"ais":9883,"ĠmÅ±vÃ©szet":9884,"Ġauthority":9885,"Ġvote":9886,"ĠszomszÃ©dos":9887,"ĠGovernor":9888,"Ġbales":9889,"ĠakciÃ³":9890,"Ġgyermeke":9891,"fort":9892,"ĠkultÃºra":9893,"ĠsÃ©rÃ¼lÃ©s":9894,"Ġnative":9895,"Ġelrend":9896,"Ġmindkett":9897,"ĠedzÅĳ":9898,"ĠGreg":9899,"ricult":9900,"Ġrisk":9901,"eje":9902,"ĠMak":9903,"Ġ86":9904,"eed":9905,"ĠhatÃ¡ssal":9906,"ĠSenate":9907,"ĠgÅĳz":9908,"eztet":9909,"Ġbrown":9910,"ĠtÃ¶rÃ¶kÃ¶k":9911,"ĠWars":9912,"Ch":9913,"Ġemphas":9914,"ervation":9915,"ĠhatÃ¡sa":9916,"ĠhadjÃ¡r":9917,"Ġsevere":9918,"Ġ1902":9919,"ĠCoast":9920,"Ġunknown":9921,"ĠGimnÃ¡zium":9922,"olna":9923,"izsi":9924,"ĠÃģg":9925,"ĠkÃ¶ltsÃ©g":9926,"Ġcannot":9927,"ĠidÅĳre":9928,"szÃ¼l":9929,"icial":9930,"onents":9931,"ĠpozitÃŃv":9932,"Ġrailway":9933,"Ġsquadron":9934,"Ġmaster":9935,"Ġtartottak":9936,"ĠkettÅĳs":9937,"Ġï¿½ï¿½ï¿½ï¿½ï¿½ï¿½":9938,"Ã©je":9939,"ĠSeg":9940,"ĠMov":9941,"ĠLig":9942,"Ġeljut":9943,"Ġfirm":9944,"ĠPÃ©ld":9945,"Ġprompt":9946,"ĠWalk":9947,"uments":9948,"Ġban":9949,"Ġeditor":9950,"Ġnewspaper":9951,"ware":9952,"ĠElek":9953,"ĠÃ©szre":9954,"Ġtengeri":9955,"ĠalapÃŃtotta":9956,"Ġguard":9957,"ĠvÃ©dÅĳ":9958,"ezÃ©sÃ©re":9959,"Ġug":9960,"ĠtemetÅĳ":9961,"Ã¡stÃ³l":9962,"Ġsym":9963,"ikÃ³":9964,"Ġfilming":9965,"Ġheard":9966,"Ġtekintve":9967,"Ġegyet":9968,"ĠelÅĳd":9969,"ĠnyomÃ¡n":9970,"Ġabandoned":9971,"ĠÃ¼lt":9972,"Ã©c":9973,"ĠTÃ¶rÃ¶k":9974,"Ġadvant":9975,"ĠMerc":9976,"iel":9977,"Ġgall":9978,"Ġadopted":9979,"Ġwebsite":9980,"ĠMÃ¡tyÃ¡s":9981,"ĠDoctor":9982,"lÃ¡m":9983,"Ġtitkos":9984,"essed":9985,"Ġactors":9986,"Ġhappen":9987,"Ġoffensive":9988,"omy":9989,"helm":9990,"ĠpÃ¡rhuzam":9991,"ĠUs":9992,"Ġiv":9993,"amm":9994,"Ġversenyt":9995,"Ġlegfel":9996,"Ġnekik":9997,"Ġopposition":9998,"ĠOd":9999,"Ðº":10000,"Ġvo":10001,"ĠIslands":10002,"ĠPhiladelphia":10003,"ĠDom":10004,"Ġneut":10005,"olis":10006,"ĠrÃ©szes":10007,"mÃ©nye":10008,"Ġends":10009,"ĠkezdÅĳd":10010,"Ġselejt":10011,"okl":10012,"ĠtudtÃ¡k":10013,"Ġarms":10014,"achus":10015,"Ġpillan":10016,"ĠÃ¶nmag":10017,"roc":10018,"ĠJord":10019,"ilies":10020,"Ġmilli":10021,"jÃ¡rÃ³l":10022,"regÃ©ny":10023,"Ġfeladat":10024,"Ġveszi":10025,"Ġamik":10026,"Ã©rek":10027,"Ã©tele":10028,"Ã¼h":10029,"kord":10030,"asszony":10031,"Ġhasznos":10032,"kat":10033,"ancsnok":10034,"Ġgyakorl":10035,"Ġiniti":10036,"Ġdisz":10037,"ĠhatÃ©kony":10038,"ĠÃ¼ld":10039,"ovics":10040,"Ã©sekor":10041,"ĠConc":10042,"Ġcouncil":10043,"Ġsplit":10044,"Ã©rmet":10045,"Ġshar":10046,"ĠIrish":10047,"eton":10048,"Ã¼lly":10049,"Ġcapacity":10050,"Ġfriss":10051,"Ġhomes":10052,"Ġencounter":10053,"Ġparall":10054,"Ġkaland":10055,"Ġsilver":10056,"Ġkard":10057,"ocated":10058,"ĠmegszÃ¡ll":10059,"ĠGeorgia":10060,"ĠÃ¶nt":10061,"oktÃ³l":10062,"eknÃ©l":10063,"Ġbirodalom":10064,"ĠmÃ¡jusÃ¡ban":10065,"ĠDzs":10066,"ĠhÃ¡ttÃ©r":10067,"ĠrendezvÃ©ny":10068,"ĠTen":10069,"ĠBir":10070,"Ġfilmed":10071,"Ġcreating":10072,"isztikus":10073,"ĠtulajdonsÃ¡g":10074,"ĠGovernment":10075,"Ġflying":10076,"ancell":10077,"ĠMit":10078,"Ġbasis":10079,"Ġpull":10080,"kin":10081,"ĠSR":10082,"ulmÃ¡ny":10083,"ĠtanÃŃtott":10084,"ĠegyÃ©rtelmÅ±":10085,"ĠJour":10086,"Ã¡nci":10087,"nyelv":10088,"Ġparaszt":10089,"ĠbÃ©keszer":10090,"Ġbey":10091,"Ġkijelent":10092,"ĠColon":10093,"Ġregarded":10094,"BS":10095,"ĠElÅĳszÃ¶r":10096,"Ġspring":10097,"ĠigazsÃ¡g":10098,"Ġarrang":10099,"ĠBurg":10100,"Ġpoll":10101,"ĠkormÃ¡nyzÃ³":10102,"ĠkÃ¡rt":10103,"csapat":10104,"Ġ156":10105,"ĠÅ±rhaj":10106,"ĠÃ©letÃ©ben":10107,"Ġagreement":10108,"ĠlÃ©l":10109,"ĠÃ©szakra":10110,"ĠRA":10111,"ĠlÅĳtt":10112,"ĠHurricane":10113,"ĠSydney":10114,"ĠNar":10115,"eration":10116,"ĠszeptemberÃ©ben":10117,"Ġhelyezkedik":10118,"Ġzavar":10119,"ĠFÃ¼lÃ¶p":10120,"annon":10121,"ĠlÃ¡tott":10122,"ĠCop":10123,"engthen":10124,"ukor":10125,"Ġeye":10126,"ĠakadÃ¡ly":10127,"ĠvÃ¡ndor":10128,"ĠsajtÃ³":10129,"Ġdismiss":10130,"Ãºton":10131,"ĠÃ©vente":10132,"Ġilleg":10133,"ĠegyesÃ¼let":10134,"ĠtÃ¶bbsÃ©ge":10135,"Ġpalot":10136,"Ġsail":10137,"Ġmegind":10138,"Ġdrive":10139,"Ġindividuals":10140,"Ġspect":10141,"ĠOperation":10142,"ĠmÃ©ltÃ³":10143,"adal":10144,"FL":10145,"edom":10146,"Ġfordult":10147,"Ġfailure":10148,"ocks":10149,"uls":10150,"ĠjelkÃ©p":10151,"ĠAnth":10152,"ĠBoard":10153,"ĠhÃ¡tsÃ³":10154,"Ã¡f":10155,"Ġsports":10156,"okr":10157,"ĠPozs":10158,"Ã¡rozta":10159,"ĠtÅ±nik":10160,"ivat":10161,"ĠeltÃ¡vol":10162,"Ġgyakorlatilag":10163,"ĠPak":10164,"ĠRon":10165,"ristÃ¡ly":10166,"Ġboat":10167,"Ġsequence":10168,"Ġachieved":10169,"ii":10170,"Ġfak":10171,"szerÅ±en":10172,"ĠGaga":10173,"ĠÃ¡llomÃ¡ny":10174,"ĠutÃ¡na":10175,"ĠMÅ±vÃ©sz":10176,"Ġvac":10177,"Ġdeploy":10178,"ĠszemÃ©lyisÃ©g":10179,"Ġnarrow":10180,"Ġmagazin":10181,"Ġmessz":10182,"Ġremix":10183,"Ġ1901":10184,"ĠlegyÅĳz":10185,"ante":10186,"iday":10187,"ĠAst":10188,"ĠGill":10189,"estic":10190,"Ġbeyond":10191,"ĠBah":10192,"Ġbizonyult":10193,"aba":10194,"Ġhomlok":10195,"ĠelÃ©rte":10196,"Ġaf":10197,"Ġdiam":10198,"ĠajÃ¡nl":10199,"ĠChild":10200,"Ġtip":10201,"ÃŃtanak":10202,"Ġpartner":10203,"Ġpossibly":10204,"ĠkiadvÃ¡ny":10205,"Ġrear":10206,"Ã³tÃ³l":10207,"ĠrÃ©giÃ³":10208,"ĠrÃ©sztv":10209,"ĠtÃ©rsÃ©g":10210,"Ġbelieve":10211,"ĠpÃ¡lya":10212,"ription":10213,"athan":10214,"ĠmÃ¡rciusÃ¡ban":10215,"irÃ¡ny":10216,"ĠNÃ©metorszÃ¡gban":10217,"Ġtorpedo":10218,"iva":10219,"rus":10220,"kÃ¶zben":10221,"ĠOscar":10222,"ĠszÅ±k":10223,"ĠSzil":10224,"ĠmegjelenÃ©se":10225,"ĠSpain":10226,"ĠszempontbÃ³l":10227,"ĠMoh":10228,"Ġsikeresen":10229,"ĠlegyÅĳzt":10230,"ĠjÃ¡tszotta":10231,"Ġhideg":10232,"Ġhair":10233,"ĠNik":10234,"anning":10235,"eanwhile":10236,"Ġmeasure":10237,"Ġdeleg":10238,"ĠRadio":10239,"uki":10240,"Ġperman":10241,"ĠnÃ©zÅĳ":10242,"ĠkerÃ©k":10243,"ampion":10244,"ĠjÃ¡tÃ©kvezetÅĳ":10245,"gi":10246,"ĠtÃ¶kÃ©let":10247,"ĠidÅĳt":10248,"izens":10249,"Ġbriefly":10250,"Ġbodies":10251,"ĠArany":10252,"Ġkilling":10253,"pÃ³t":10254,"Ġlep":10255,"Ġfeladata":10256,"RA":10257,"ario":10258,"Ã©tlen":10259,"Ġideas":10260,"ĠIskol":10261,"Ġnegative":10262,"ĠegymÃ¡stÃ³l":10263,"aszn":10264,"ĠjÃ¡rÃ³":10265,"ellenes":10266,"ĠElect":10267,"Ġincident":10268,"put":10269,"Ġhabit":10270,"Ġimag":10271,"Ġfellow":10272,"Ġcriticism":10273,"Ġmegment":10274,"Ã¡lisan":10275,"Ġfamous":10276,"Ġik":10277,"ĠoktÃ³berÃ©ben":10278,"ĠMÃ¼n":10279,"Ġgross":10280,"Ġudv":10281,"ĠRoger":10282,"Ã©sbe":10283,"ĠkezelÃ©s":10284,"Ġflu":10285,"uccess":10286,"Ġstrike":10287,"ĠEgyesÃ¼let":10288,"Ġ72":10289,"Ġinterchange":10290,"ulnak":10291,"ĠkivÃ©g":10292,"Ġ1850":10293,"Ġtower":10294,"orszÃ¡gba":10295,"dÃ¶ntÅĳ":10296,"felv":10297,"enyÃ©szt":10298,"isers":10299,"Ġbonyol":10300,"Ġmegmaradt":10301,"Ġarmed":10302,"Ġembert":10303,"Ġbudget":10304,"ĠintÃ©zet":10305,"Ġexpansion":10306,"ĠdecemberÃ©ben":10307,"Ġelhagyta":10308,"Ġrejected":10309,"Ġszub":10310,"ione":10311,"Ġ62":10312,"Ġreceive":10313,"Ġkilometres":10314,"hard":10315,"ĠHans":10316,"ĠPed":10317,"zsi":10318,"aha":10319,"bach":10320,"ĠMiddle":10321,"szav":10322,"Ġeffective":10323,"Ġroads":10324,"Ġgranted":10325,"ĠFal":10326,"Ġjelentett":10327,"fully":10328,"Ġretired":10329,"acks":10330,"cing":10331,"Ġlegismertebb":10332,"iew":10333,"ĠautÃ³b":10334,"ĠszemÃ©lyes":10335,"ĠGÃ©za":10336,"Ġbass":10337,"uther":10338,"ardo":10339,"icked":10340,"Ġsurrend":10341,"ĠnagyjÃ¡bÃ³l":10342,"Ġfollows":10343,"Ġturns":10344,"Ġrepeated":10345,"ĠhasznÃ¡lta":10346,"ĠvelÃ¼k":10347,"Ġhistorical":10348,"ĠvilÃ¡gbajnoki":10349,"ãĤ":10350,"oto":10351,"Ġkontin":10352,"Ġimproved":10353,"nic":10354,"vement":10355,"ĠbekÃ¶vet":10356,"egyhÃ¡z":10357,"Ġvitt":10358,"asa":10359,"Ġbed":10360,"ĠPass":10361,"ajÃ¡n":10362,"ĠtÃºlÃ©l":10363,"Ġtwelve":10364,"Ġstraight":10365,"ipari":10366,"Ġevacu":10367,"ĠÃīdes":10368,"ĠfÃ©nykÃ©p":10369,"ĠEred":10370,"stead":10371,"Ġextensive":10372,"Ġdidn":10373,"Ġpontosan":10374,"Ġemig":10375,"ĠÃ©lnek":10376,"ĠKaz":10377,"ifik":10378,"ĠbÃ¡n":10379,"Ã¡ld":10380,"Ġrendszeres":10381,"Ġcrossing":10382,"Ġinteract":10383,"inity":10384,"ĠÃ©desanyja":10385,"Ġelutas":10386,"Ġroles":10387,"ĠÃ©pp":10388,"amerikai":10389,"ĠhasznÃ¡lat":10390,"Ġlands":10391,"Ġexpanded":10392,"Ġsoft":10393,"ĠmeghatÃ¡rozÃ³":10394,"ĠdollÃ¡r":10395,"Ġsuccessfully":10396,"Ġeszt":10397,"Ġ1893":10398,"ĠfÃ¼l":10399,"vÃ¡laszt":10400,"ĠNick":10401,"Ġinfantry":10402,"Ġ157":10403,"ĠverziÃ³":10404,"ĠelsÅĳkÃ©nt":10405,"ĠThough":10406,"ĠtÃ¶rek":10407,"Ġlanding":10408,"Ġnecessary":10409,"Ġcig":10410,"ĠGordon":10411,"ĠRevolution":10412,"ĠkÃ©pesek":10413,"onder":10414,"Ġta":10415,"ĠDebrecen":10416,"Ġchor":10417,"ĠrÃ©szÃ©re":10418,"water":10419,"ĠÃ¡lltak":10420,"Ġbroken":10421,"ĠkÃ©szÃ¼ltek":10422,"umes":10423,"este":10424,"Ġmutatkozott":10425,"ĠtÅ±":10426,"Ġcaught":10427,"roll":10428,"Ġcolumn":10429,"ĠszegÃ©ny":10430,"ffy":10431,"Ġmile":10432,"ĠszÃ©khely":10433,"ĠÃºr":10434,"Ġajt":10435,"Ġcomedy":10436,"jenek":10437,"elmÃ©t":10438,"Ġchoice":10439,"Ġyellow":10440,"ĠmadÃ¡r":10441,"ĠBruce":10442,"appal":10443,"Ġgenus":10444,"Ġseat":10445,"Ġdisease":10446,"Ġtree":10447,"ego":10448,"Ġtouchdown":10449,"Ġ1895":10450,"Ġ1898":10451,"odor":10452,"Ġcho":10453,"Ġcommissioned":10454,"Ġjelenik":10455,"kÃ³":10456,"Ġadministration":10457,"Ġmic":10458,"ĠmÃ©sz":10459,"iments":10460,"Ġdb":10461,"Ã³dnak":10462,"Ġfought":10463,"Ã©seit":10464,"ĠBefore":10465,"Ġexplos":10466,"ĠlÃ³":10467,"ĠCat":10468,"Ġvalamely":10469,"Ġ1861":10470,"Ġorganized":10471,"pa":10472,"enberg":10473,"Ġsac":10474,"ĠRepublican":10475,"Ã©ria":10476,"ĠSzem":10477,"Ġanimal":10478,"Ġkam":10479,"ĠJel":10480,"Ġbolt":10481,"igny":10482,"teni":10483,"Ġstreet":10484,"Am":10485,"ĠKatal":10486,"Ġhyp":10487,"rah":10488,"ache":10489,"Ġdata":10490,"Ġacquired":10491,"ĠÃīrd":10492,"Ġfinish":10493,"avalry":10494,"Although":10495,"Ġsark":10496,"Ġplants":10497,"Ġsuggests":10498,"ĠtÃ©li":10499,"ĠmezÅĳgazdasÃ¡gi":10500,"Ġfogadta":10501,"Ġmeglehet":10502,"ĠEric":10503,"ĠletartÃ³zt":10504,"atus":10505,"ĠjÃ¶n":10506,"Ġseventh":10507,"ules":10508,"Ġdispl":10509,"oktat":10510,"idae":10511,"oured":10512,"ĠJu":10513,"olaj":10514,"Ġriv":10515,"Ġgard":10516,"Ġgyarm":10517,"ĠNaz":10518,"Ã¡llÃŃtott":10519,"ĠHead":10520,"wich":10521,"ĠlÃ©gi":10522,"ĠrÃ¡k":10523,"Ġkapcsolatot":10524,"Ġfish":10525,"ÃŃthetÅĳ":10526,"ĠfÅĳs":10527,"ĠlakossÃ¡ga":10528,"bo":10529,"Ġprote":10530,"Ġathlet":10531,"eteor":10532,"ĠeredmÃ©nyek":10533,"Ġpurpose":10534,"ĠFair":10535,"Ġmenet":10536,"Ġleadership":10537,"Ġhunyt":10538,"ĠRen":10539,"ĠhadmÅ±vel":10540,"Ġsolo":10541,"ĠMassachus":10542,"Ġcsapatban":10543,"lÃ¡n":10544,"gÃ©":10545,"Ã³dtak":10546,"Ġmal":10547,"ĠDown":10548,"Ġ61":10549,"Ã¡tÃ©k":10550,"Ġcommittee":10551,"ĠÃ¶ccs":10552,"haps":10553,"ĠKey":10554,"Ġroof":10555,"hattak":10556,"ĠmegvÃ¡laszt":10557,"senal":10558,"ĠeszkÃ¶zÃ¶k":10559,"ĠTro":10560,"Ġmagyarul":10561,"ĠFerr":10562,"ĠAsia":10563,"Ġegyszerre":10564,"Ġmegnyit":10565,"ĠnovemberÃ©ben":10566,"Ġteremt":10567,"Ġvehicles":10568,"hass":10569,"ĠProg":10570,"Ġjunior":10571,"ĠbetÅ±":10572,"fit":10573,"ader":10574,"izÃ¡ciÃ³":10575,"ĠjÃ¡tszik":10576,"kos":10577,"real":10578,"ĠSeb":10579,"ĠGlo":10580,"ĠLin":10581,"opher":10582,"ĠStorm":10583,"ĠAlan":10584,"onent":10585,"Ġdescribes":10586,"Ã¡szok":10587,"ĠKu":10588,"ĠkitÃ¼ntet":10589,"Ġesetleg":10590,"ĠezÃºttal":10591,"ĠorszÃ¡ggyÅ±lÃ©si":10592,"struction":10593,"Ġlooking":10594,"vest":10595,"Ġplaces":10596,"Ġdrama":10597,"ĠÃ¶z":10598,"Ġkapu":10599,"csÅĳ":10600,"ĠjelzÃ©s":10601,"Ġnob":10602,"Ġauthorities":10603,"BI":10604,"Ġturr":10605,"ĠPor":10606,"Ġugyancsak":10607,"ĠattÃ³l":10608,"Ġgives":10609,"ĠJay":10610,"bourne":10611,"room":10612,"Ġdur":10613,"Ġvagyon":10614,"ĠtartalmazÃ³":10615,"Ġancient":10616,"Ġfinds":10617,"Ġmanagement":10618,"Following":10619,"ĠMassachusetts":10620,"Ġpain":10621,"Ġcasu":10622,"ellen":10623,"ĠmagÃ¡nak":10624,"Ġhousehold":10625,"rons":10626,"Ġheadquarters":10627,"Ġenergia":10628,"Ã©di":10629,"ĠegyÃ©bkÃ©nt":10630,"ĠOffice":10631,"Ġwave":10632,"no":10633,"otten":10634,"Ġcontrolled":10635,"ĠRolling":10636,"ĠDaily":10637,"Ġ63":10638,"Ġdetermined":10639,"rin":10640,"tattÃ¡k":10641,"ĠÃ©k":10642,"ĠLud":10643,"erny":10644,"Ġbeaut":10645,"ĠÃ¡llÃŃtotta":10646,"ĠSummer":10647,"ĠmeglÃ¡t":10648,"awn":10649,"Ġing":10650,"Ġfejezte":10651,"ĠirÃ¡nyban":10652,"ĠtalÃ¡lkozott":10653,"ĠSecretary":10654,"ekezet":10655,"ĠLiber":10656,"mot":10657,"ĠSem":10658,"Ġislands":10659,"Ġfinn":10660,"Ġfelker":10661,"hon":10662,"mad":10663,"ĠelÅĳkÃ©sz":10664,"ĠjÃ¡tszottak":10665,"ĠMun":10666,"ĠbarÃ¡tja":10667,"ĠÃīlet":10668,"Ġaim":10669,"etÃ©ben":10670,"ĠJÃ©z":10671,"ĠZen":10672,"ĠEach":10673,"Ġrendes":10674,"Ġpick":10675,"sÃ¡gba":10676,"Ġelektromos":10677,"ĠFil":10678,"oted":10679,"Ġrecently":10680,"Ġszabadon":10681,"ĠpÃ¡rizsi":10682,"ĠslÃ¡ger":10683,"Ġinterc":10684,"ĠBert":10685,"ĠevangÃ©likus":10686,"ĠWhit":10687,"Ġkialakult":10688,"ĠÃ©rkeztek":10689,"rag":10690,"ĠMoore":10691,"Ġfranchise":10692,"hatunk":10693,"ryst":10694,"Ġurban":10695,"ĠSix":10696,"po":10697,"uting":10698,"Ġkommunik":10699,"Ġmindent":10700,"Ġkapcs":10701,"Ġstanding":10702,"Ġfelte":10703,"Ġhogyan":10704,"ĠnÃ©pessÃ©g":10705,"Ġ1892":10706,"bÃŃr":10707,"ĠkÃ¶vetkezett":10708,"Ġcommonly":10709,"Ġhatodik":10710,"ĠalÃ³l":10711,"Ã¡rtÃ¡k":10712,"Ġbattalion":10713,"utation":10714,"ĠnyÃºl":10715,"ĠjelentÅĳsÃ©g":10716,"engers":10717,"outs":10718,"Ġsuppor":10719,"marad":10720,"ĠgÃ¡t":10721,"ĠUni":10722,"ĠelkÃ¶vet":10723,"ĠgyÅĳzelmet":10724,"ĠFront":10725,"Ġlassan":10726,"agement":10727,"Ġfamilies":10728,"onym":10729,"Ġgyerm":10730,"ĠvÃ¡rosa":10731,"ĠvasÃºtvonal":10732,"isztikai":10733,"flikt":10734,"Ġtat":10735,"ĠTechn":10736,"ĠCommon":10737,"Ġconvers":10738,"Ġnarr":10739,"ĠnemzetsÃ©g":10740,"erick":10741,"ĠlÃ¡tvÃ¡ny":10742,"ĠBrazil":10743,"poration":10744,"Ġheight":10745,"feld":10746,"Ġsinging":10747,"Ġcreation":10748,"Ġflooding":10749,"ĠvesztesÃ©g":10750,"For":10751,"ĠFire":10752,"Ġkezdtek":10753,"Ã©lzet":10754,"ĠversenyzÅĳ":10755,"Ġrug":10756,"OS":10757,"utatÃ³":10758,"istics":10759,"ĠPeople":10760,"ĠMichel":10761,"Ġorg":10762,"Ġentirely":10763,"ĠszerkesztÅĳ":10764,"Ġfresh":10765,"ĠhÃ¡zt":10766,"ĠGa":10767,"Ġmagyarok":10768,"etlenÃ¼l":10769,"pontja":10770,"ĠShort":10771,"ĠProv":10772,"Ġtrav":10773,"iform":10774,"Ġarticle":10775,"ĠajÃ¡ndÃ©k":10776,"ĠfesztivÃ¡l":10777,"Ã¼lnek":10778,"ĠEgyiptom":10779,"Ġprotect":10780,"Ġnuclear":10781,"ĠsÃ¡rga":10782,"osszÃº":10783,"Ġtim":10784,"Ã¼sz":10785,"ige":10786,"FC":10787,"ĠVÃ¡r":10788,"ĠcsapatÃ¡ban":10789,"ĠSzerb":10790,"ĠSzÃ©":10791,"Ġperfect":10792,"entin":10793,"Ġlemondott":10794,"ĠYour":10795,"ĠSel":10796,"Ġtry":10797,"Ġmist":10798,"Ġkommunista":10799,"Mar":10800,"Ġort":10801,"ĠterÃ¼leteken":10802,"ayer":10803,"Ġ1888":10804,"ĠWho":10805,"Ġwithdraw":10806,"Ġprotot":10807,"kÃ¼lÃ¶nbÃ¶zt":10808,"ÅĳkÃ©p":10809,"Ġadvert":10810,"hatjuk":10811,"Ġuk":10812,"Ġsession":10813,"ĠKir":10814,"Ġpurchased":10815,"uli":10816,"ĠRome":10817,"Ġunique":10818,"Ġspecim":10819,"Ġ1899":10820,"Ġtas":10821,"Ġextrem":10822,"ĠkissÃ©":10823,"ibb":10824,"ĠKo":10825,"Ġdefensive":10826,"Ġdepict":10827,"ĠmÃ¡sodper":10828,"beszÃ©l":10829,"ĠlÃ¡tsz":10830,"Ġillust":10831,"ezs":10832,"Ã¡ng":10833,"ĠRÃ¡d":10834,"Ġtechnik":10835,"ĠPierre":10836,"onz":10837,"Ġfalut":10838,"Ġacad":10839,"Ġtypes":10840,"orna":10841,"ĠMain":10842,"Ġthing":10843,"uda":10844,"ables":10845,"ĠPrime":10846,"Ã³ly":10847,"Ġyounger":10848,"Ġdecre":10849,"ĠGyÅĳr":10850,"ĠFormula":10851,"Ġsecurity":10852,"ĠmÃ©rt":10853,"Ġarrival":10854,"ĠRailway":10855,"szabÃ¡ly":10856,"oviÄĩ":10857,"ĠrÃ©gÃ©szeti":10858,"Ġsets":10859,"ĠszÃ¼n":10860,"icit":10861,"Ġsikere":10862,"Ġinfr":10863,"Ġ1891":10864,"Ġ1894":10865,"ĠszÃ©khelye":10866,"Ġadvantage":10867,"ÈĻ":10868,"izett":10869,"Ġbaseball":10870,"Ġcontributed":10871,"ĠegÃ©szsÃ©g":10872,"Ġlimit":10873,"Ġscheduled":10874,"enh":10875,"Ġelimin":10876,"Ã³pusi":10877,"Ġmentioned":10878,"ĠRussia":10879,"Ġaccompanied":10880,"ĠAlsÃ³":10881,"ĠÃģllami":10882,"szerÅ±bb":10883,"rac":10884,"pel":10885,"ĠhÃºs":10886,"Ġquite":10887,"Ġmonarch":10888,"Ġgather":10889,"ĠPower":10890,"ĠdiplomÃ¡t":10891,"ĠFurther":10892,"Ġprojekt":10893,"ĠMcG":10894,"Ġworth":10895,"88":10896,"Ġcatch":10897,"Ġpir":10898,"ĠAD":10899,"Ġunus":10900,"Ġsikerrel":10901,"Ġcart":10902,"prÃ©m":10903,"laim":10904,"It":10905,"ĠKentucky":10906,"ĠszigorÃº":10907,"ĠMoon":10908,"obby":10909,"Ġmindenki":10910,"Ġpros":10911,"ĠKereszt":10912,"Ġcomputer":10913,"aly":10914,"Ġbez":10915,"ĠMagaz":10916,"ĠKennedy":10917,"intÃ©zet":10918,"ĠHom":10919,"Ġrequest":10920,"elson":10921,"Ġcontaining":10922,"ĠlegfÅĳbb":10923,"osis":10924,"ikusan":10925,"ÃŃtÃ¡sÃ¡ban":10926,"tatott":10927,"ÃŃlia":10928,"ikÃ³i":10929,"ĠmunkÃ¡jÃ¡t":10930,"Ġintensity":10931,"Ã¡lat":10932,"Ġperforming":10933,"zer":10934,"Ġbarokk":10935,"kezet":10936,"Ġkorban":10937,"Ġsemmi":10938,"Ġkonflikt":10939,"orok":10940,"ĠRel":10941,"Ġ1897":10942,"wen":10943,"Ġszal":10944,"ranged":10945,"Ġlegislat":10946,"ĠsikerÃ¼l":10947,"Ġsle":10948,"keresked":10949,"Ġmig":10950,"Ġdeck":10951,"Ã©gy":10952,"Ġtail":10953,"Ġ1889":10954,"Ġexisting":10955,"respond":10956,"Ġoccupied":10957,"ĠMikor":10958,"ĠKirÃ¡lyi":10959,"Ġsteam":10960,"ĠLap":10961,"ĠGun":10962,"ĠellenÃ¡ll":10963,"ĠtÃ¡volsÃ¡g":10964,"ĠIndust":10965,"ĠSin":10966,"ĠThrough":10967,"Ġdiagn":10968,"tekint":10969,"ua":10970,"ĠfebruÃ¡rjÃ¡ban":10971,"Ġrengeteg":10972,"zant":10973,"bizt":10974,"ĠPlan":10975,"ajzs":10976,"ĠJewish":10977,"ĠWolf":10978,"Ġadvent":10979,"ĠAndy":10980,"Ġpowers":10981,"Ġdall":10982,"ĠfeltÃ¡r":10983,"vÃ¡jci":10984,"Mi":10985,"olo":10986,"rogÃ©n":10987,"Ġamelyen":10988,"jekÃ©nt":10989,"ĠjelenlÃ©t":10990,"Ã¼gyminiszter":10991,"ĠKevin":10992,"lett":10993,"ĠWell":10994,"istol":10995,"Ġtemet":10996,"Ġprovides":10997,"Ġdigital":10998,"Ġceremony":10999,"Ġ145":11000,"ĠkÃ©nytelen":11001,"ElsÅĳ":11002,"Ġmounted":11003,"Ġphilos":11004,"ĠremÃ©ny":11005,"ĠRet":11006,"ĠRain":11007,"Ġokozott":11008,"Ġclosely":11009,"Ã¡sba":11010,"ĠPC":11011,"Ġstore":11012,"Ġmouth":11013,"ĠKorean":11014,"Ġcold":11015,"Ġcarry":11016,"Ġtitles":11017,"oncÃ©":11018,"ulate":11019,"Ġvisual":11020,"ibli":11021,"vÃ¡ltozat":11022,"ĠMaur":11023,"ĠmagyarÃ¡z":11024,"ĠJÃº":11025,"eire":11026,"ĠConference":11027,"Ġholding":11028,"Ã¡polyi":11029,"Ġexpedition":11030,"ĠDean":11031,"weet":11032,"itenger":11033,"ĠCape":11034,"Ġhun":11035,"Ġ1867":11036,"Magyar":11037,"ĠBeach":11038,"ĠOlympic":11039,"ĠJacob":11040,"Ã©rmes":11041,"eplay":11042,"Ġwhy":11043,"Ġescort":11044,"Ġdzs":11045,"Ġrated":11046,"Ġspeak":11047,"Ġnyel":11048,"ĠIgaz":11049,"onta":11050,"adni":11051,"ĠDig":11052,"Ġboats":11053,"ĠhatÃ³sÃ¡g":11054,"Ġclimb":11055,"ĠSongs":11056,"Ġcultural":11057,"kit":11058,"ĠtÃ³":11059,"Ġfoglalta":11060,"Ã¡rokat":11061,"Ġtall":11062,"sejt":11063,"ĠhoztÃ¡k":11064,"ĠWater":11065,"ĠArts":11066,"Ġegg":11067,"Ġtrail":11068,"ĠalapvetÅĳ":11069,"olv":11070,"ĠHel":11071,"ĠÃ©letben":11072,"adÃ¡sul":11073,"ĠbizonyÃŃtÃ©k":11074,"lÃ©k":11075,"Ġrendezte":11076,"ĠemlÃŃtett":11077,"Ġ1885":11078,"Ġlocations":11079,"otic":11080,"Ġahonnan":11081,"wing":11082,"ĠportugÃ¡l":11083,"Ġindustrial":11084,"lÃ³k":11085,"Ġexport":11086,"ĠStock":11087,"inois":11088,"ailag":11089,"ezÃ©sÃ©ben":11090,"Ġakarja":11091,"iner":11092,"Ġdedicated":11093,"ĠDur":11094,"ĠkÃ¶rzet":11095,"Ġ127":11096,"onnel":11097,"Ġegykor":11098,"Ġfeud":11099,"Ġlig":11100,"ĠpÃ©nzt":11101,"ando":11102,"Ã¡llom":11103,"Ġterror":11104,"szervezet":11105,"Ġmelletti":11106,"ĠpÃ¡lyÃ¡n":11107,"Ġsupporting":11108,"ketball":11109,"190":11110,"sÃ©gnek":11111,"ĠPremier":11112,"mund":11113,"Ġflow":11114,"ĠToront":11115,"ĠEven":11116,"ĠÃºjsÃ¡gÃŃrÃ³":11117,"iab":11118,"ĠPÃ¡rizsban":11119,"szkij":11120,"ĠFrancis":11121,"Ġtrains":11122,"ĠrakÃ©t":11123,"ĠCos":11124,"ĠÃ¡llÃŃtottÃ¡k":11125,"Ġkatona":11126,"Ġcenturies":11127,"Ġpolitik":11128,"levÃ©l":11129,"Ġkur":11130,"Ġbelong":11131,"Ġhalott":11132,"Ġkompon":11133,"ĠSzabÃ³":11134,"Ã¡shoz":11135,"ĠJenÅĳ":11136,"ĠÃ¼lÃ©s":11137,"Ġtrag":11138,"Ġdrawn":11139,"ĠHoward":11140,"ĠDick":11141,"Ġprotected":11142,"Ġmotion":11143,"yles":11144,"ĠKam":11145,"erved":11146,"ĠÃ©rvÃ©nyes":11147,"ĠlegrÃ©g":11148,"ĠÃŃg":11149,"ĠStanley":11150,"Ġszult":11151,"Ġstrengthen":11152,"ĠÃ¡llom":11153,"Ġopportunity":11154,"hess":11155,"Ġconsists":11156,"Ġhotel":11157,"ĠDouglas":11158,"Ġengaged":11159,"Ã¡zsiai":11160,"ĠszerzÅĳdÃ©s":11161,"ĠPrin":11162,"ĠtalÃ¡lhatÃ³k":11163,"itled":11164,"inkban":11165,"Ġunf":11166,"Ġfocused":11167,"irÃ³l":11168,"ĠaugusztusÃ¡ban":11169,"ulÃ¡sÃ¡t":11170,"ĠNa":11171,"Ġkong":11172,"Ġeyes":11173,"Ã©stÅĳl":11174,"Ġreceiving":11175,"Ġsoutheast":11176,"Ġvont":11177,"Ġaid":11178,"enburg":11179,"ĠGermans":11180,"ĠBowl":11181,"ĠHÃŃr":11182,"Ġerk":11183,"ye":11184,"Ġsand":11185,"ulni":11186,"ĠvÃ¡ltozÃ¡s":11187,"Ġhagyta":11188,"Ġvezett":11189,"Ġcsal":11190,"Ġpiros":11191,"Ġsquad":11192,"eased":11193,"Ġcomic":11194,"kert":11195,"ekul":11196,"ansas":11197,"Ġcalls":11198,"Ġast":11199,"ĠvÃ©geztek":11200,"fÃ©lÃ©k":11201,"ĠszÃ¡zalÃ©k":11202,"mod":11203,"ĠGulf":11204,"ĠÃ©rkezÅĳ":11205,"ÃŃts":11206,"Ġregions":11207,"ĠEbbÅĳl":11208,"ĠByzant":11209,"Ġfajt":11210,"ĠAlso":11211,"Ġ1884":11212,"Ġthrow":11213,"Ġ149":11214,"Ġsubmar":11215,"Ġharmad":11216,"osh":11217,"agi":11218,"Ġexperienced":11219,"Ġakkoriban":11220,"Ġcard":11221,"ĠErn":11222,"Ġcricket":11223,"Ġfaluban":11224,"ĠSpring":11225,"ĠPozsony":11226,"jelÃ¶lt":11227,"Ġhired":11228,"attan":11229,"ĠhajÃ³t":11230,"ĠReform":11231,"ĠCirc":11232,"Ġshark":11233,"ĠSpace":11234,"ĠJapÃ¡nban":11235,"Ġprotection":11236,"Ġideiglen":11237,"Ġshooting":11238,"Ġisol":11239,"ĠvÃ¡logat":11240,"Ġrapidly":11241,"wa":11242,"Ġcsod":11243,"ĠOroszorszÃ¡g":11244,"sons":11245,"bal":11246,"Ġfennmaradt":11247,"Ġaer":11248,"Ġcitizens":11249,"Ġrise":11250,"szÃ¡ma":11251,"ĠlevegÅĳ":11252,"While":11253,"usc":11254,"Ġfolyamatos":11255,"unting":11256,"Ġsar":11257,"ĠsÃ¡v":11258,"tÃ¶n":11259,"ĠKiss":11260,"Ġnevezet":11261,"ĠkÃ¶nyve":11262,"ĠEmperor":11263,"ĠKup":11264,"ĠturnÃ©":11265,"ĠÃŃv":11266,"Ġdrop":11267,"Ġ900":11268,"Ġthemes":11269,"mÅ±vek":11270,"ographic":11271,"ĠBatman":11272,"ĠNetwork":11273,"ĠformÃ¡jÃ¡ban":11274,"ĠBÃ©csben":11275,"ĠEarl":11276,"Ġszert":11277,"ĠmÃ©rkÅĳzÃ©st":11278,"ĠtÅ±nt":11279,"Ġszex":11280,"Ġresident":11281,"ĠkÃ©sÅĳ":11282,"tudomÃ¡nyi":11283,"Ġviewed":11284,"ĠSpecial":11285,"ĠaprÃ³":11286,"Ġ105":11287,"ĠÃ¡prilisÃ¡ban":11288,"ĠRoc":11289,"Ġlondon":11290,"ĠtelepÃ¼lÃ©sen":11291,"Ġsimple":11292,"Åĳleges":11293,"Ġhitel":11294,"Ġkanadai":11295,"ĠBry":11296,"Ġharang":11297,"ĠDomin":11298,"ĠVÃ¡ros":11299,"uts":11300,"ĠmÅ±szaki":11301,"Ġmerch":11302,"parancsnok":11303,"ĠelkÃ©szÃ¼lt":11304,"Ġtartoznak":11305,"ĠmegkÃ¼lÃ¶nbÃ¶zt":11306,"ĠhÃ¡borÃºban":11307,"ttÃ©":11308,"ĠWindows":11309,"ĠdÃ¡n":11310,"Ġgain":11311,"ĠFa":11312,"magyar":11313,"ĠNapÃ³le":11314,"ompl":11315,"Ġeleven":11316,"TA":11317,"Ġ74":11318,"ĠbetÃ¶lt":11319,"Ġ1881":11320,"olva":11321,"ĠÃ©rettsÃ©g":11322,"ĠJane":11323,"mÃ¡s":11324,"Ġstructures":11325,"Ġleggyak":11326,"Ġproviding":11327,"ĠszÅĳlÅĳ":11328,"Ġcasualties":11329,"Ġroll":11330,"ĠeredmÃ©nye":11331,"Ġbont":11332,"ÃŃni":11333,"ĠsÅ±rÅ±":11334,"Ġtrip":11335,"sea":11336,"Ġwarm":11337,"lÃ©s":11338,"ĠPear":11339,"ĠRick":11340,"ovÃ¡":11341,"Ġintersection":11342,"Ã¡rton":11343,"Ġfelszabad":11344,"ĠBeyoncÃ©":11345,"ĠRun":11346,"ĠhajtÃ³":11347,"ĠHav":11348,"ĠMarie":11349,"ĠBrun":11350,"ĠÃ¶sszekÃ¶t":11351,"Ġedge":11352,"Ġvolume":11353,"Ġconference":11354,"ĠReal":11355,"ĠtÃ¡madÃ¡st":11356,"edtek":11357,"Ġbranch":11358,"Ġcurrently":11359,"MA":11360,"olas":11361,"ĠPont":11362,"asty":11363,"ĠGuy":11364,"Ġegyez":11365,"ĠWarner":11366,"ĠfunkciÃ³":11367,"szÃ¡mÃº":11368,"ĠstratÃ©g":11369,"rÃ¡lt":11370,"iley":11371,"allgat":11372,"ĠritkÃ¡n":11373,"Ã¡jÃ¡ba":11374,"Ġkore":11375,"Ġbevon":11376,"ĠFekete":11377,"elÃ©st":11378,"ĠTropical":11379,"ĠÃ³v":11380,"Ġcorrespond":11381,"ĠAnim":11382,"Ġhossza":11383,"ĠrÃ©szÃ©ben":11384,"Ġshared":11385,"ĠkÃ©rdÃ©s":11386,"wan":11387,"Ġehhez":11388,"ologist":11389,"ĠPublic":11390,"iable":11391,"ĠVl":11392,"Ġfelosz":11393,"Ġdeveloping":11394,"Ã³zs":11395,"Ġchance":11396,"ĠCharlie":11397,"Ġfacilities":11398,"iki":11399,"ĠpÃ¡rhuzamosan":11400,"Ġign":11401,"Ġtudtak":11402,"ĠSingap":11403,"ĠAdams":11404,"Ã³pÃ¡ly":11405,"ĠRÃ¡kÃ³czi":11406,"okrata":11407,"elÅĳk":11408,"Ġjoint":11409,"hÃ¡zban":11410,"ĠArsenal":11411,"inary":11412,"Ġpad":11413,"Ġsubstant":11414,"ĠbajnoksÃ¡gban":11415,"ĠplÃ©bÃ¡ni":11416,"ishes":11417,"ĠÃ³riÃ¡si":11418,"vizsg":11419,"Ġkulcs":11420,"Ġtartalmazza":11421,"ĠBeatles":11422,"ĠÃ¶rÃ¶kÃ¶s":11423,"Ġtheat":11424,"Ġ1849":11425,"Ġnotable":11426,"uil":11427,"Ġscholars":11428,"ĠPÃ©ldÃ¡ul":11429,"omot":11430,"ĠFehÃ©r":11431,"Ġinhab":11432,"Ġrare":11433,"ĠlakÃ³i":11434,"Ġ1876":11435,"ĠRose":11436,"inkron":11437,"ĠSvÃ©d":11438,"verse":11439,"Ġhomok":11440,"Ġfix":11441,"ĠJes":11442,"Ġ|":11443,"ĠVinc":11444,"jÃ¡rÃ¡s":11445,"ĠkÃ¶zigazgatÃ¡si":11446,"ĠJÃ©zus":11447,"ektÅĳl":11448,"Ġtemperature":11449,"ĠÃ©pÃŃtÃ©sz":11450,"ĠettÅĳl":11451,"ĠVis":11452,"Ġapproved":11453,"Ġrecognized":11454,"ĠhÃºsz":11455,"eville":11456,"Ġ1886":11457,"Ġelnyerte":11458,"atures":11459,"ĠÅĳszÃ©n":11460,"ĠpolgÃ¡rmester":11461,"erted":11462,"ĠÃ¶sszetett":11463,"Ġeconomy":11464,"pir":11465,"Ġsave":11466,"Ġsignificantly":11467,"ĠkedvezÅĳ":11468,"ĠDemocratic":11469,"ĠDy":11470,"ossÃ¡":11471,"ĠvalÃ³ban":11472,"Ġdefined":11473,"Ġunsuccess":11474,"ĠnÃ¶vek":11475,"Ġszeml":11476,"ĠOrigin":11477,"ocsi":11478,"Ġsouthwest":11479,"Ġutcai":11480,"ĠfeszÃ¼lt":11481,"ĠvÃ¡llalt":11482,"ĠkortÃ¡rs":11483,"ĠRic":11484,"sÃ¡ggal":11485,"Ġakivel":11486,"Ġknew":11487,"Ġhadi":11488,"ĠHadsereg":11489,"ĠjÃºniusÃ¡ban":11490,"Ġvisszavonult":11491,"Ġsecondary":11492,"telep":11493,"Ġlosses":11494,"iful":11495,"ĠTheatre":11496,"Ġelmenek":11497,"85":11498,"GN":11499,"Ġforest":11500,"Ġ1873":11501,"ĠalkalmÃ¡val":11502,"ibÅĳl":11503,"Ġselection":11504,"ĠMargit":11505,"Ġheads":11506,"ĠmegelÅĳzÅĳ":11507,"raeli":11508,"Ġcontest":11509,"ĠSingapore":11510,"Ã¶rny":11511,"ĠidÅĳn":11512,"ĠRyan":11513,"Ġgoes":11514,"Ġsteel":11515,"Ġcharts":11516,"Ġlondoni":11517,"Ġsi":11518,"Ġprepared":11519,"atÃ¡s":11520,"unte":11521,"ĠLock":11522,"ogrÃ¡fi":11523,"86":11524,"Ġcool":11525,"Ġvalamennyi":11526,"Ġbands":11527,"oknÃ¡l":11528,"sÃ©gÅ±":11529,"uly":11530,"ertheless":11531,"ĠFej":11532,"Ġinstruct":11533,"ĠnegatÃŃv":11534,"uszta":11535,"Ġgameplay":11536,"Ġroughly":11537,"Ġsites":11538,"olnak":11539,"ĠausztrÃ¡l":11540,"Ġwait":11541,"ĠCrit":11542,"Ġhet":11543,"Ã¡h":11544,"ĠOnly":11545,"Ġsemi":11546,"PA":11547,"emÃ©t":11548,"ĠÃºjonnan":11549,"Ġ135":11550,"ĠTÃ¡rs":11551,"Ġwitness":11552,"ĠMagn":11553,"Ġturb":11554,"ezÅĳje":11555,"Ġwatched":11556,"cious":11557,"Ġexact":11558,"ss":11559,"etch":11560,"cesszor":11561,"ĠkiderÃ¼l":11562,"Ġhitt":11563,"Ġask":11564,"ĠVIII":11565,"Ġimplement":11566,"eszkÃ¶z":11567,"edzs":11568,"lyal":11569,"Ã¡th":11570,"ĠLieutenant":11571,"oster":11572,"Ġfeljegy":11573,"lar":11574,"ĠRang":11575,"atart":11576,"etik":11577,"ĠbizÃ¡nci":11578,"break":11579,"uties":11580,"Ġstoryline":11581,"ador":11582,"bÃŃrÃ³":11583,"ĠÃ¶sszeg":11584,"ĠBeth":11585,"irtelen":11586,"Ġlat":11587,"ĠMcK":11588,"ĠkivÃ¡laszt":11589,"ĠÃ©pÃ¼letet":11590,"Ġfalv":11591,"Ġcars":11592,"ĠkÃ¶zti":11593,"There":11594,"ĠÃ¶nkÃ©nt":11595,"Ġbak":11596,"Ġbrothers":11597,"Ġinjured":11598,"ĠszerkesztÅĳje":11599,"Ġmyth":11600,"With":11601,"umot":11602,"Ã¡knak":11603,"ĠcsalÃ¡dja":11604,"Ġanything":11605,"sÃ©rt":11606,"Ã¶ltÃ©k":11607,"ĠEllen":11608,"Ġbom":11609,"Ġvic":11610,"Ġletters":11611,"Ġpublication":11612,"Ġangolul":11613,"ĠtevÃ©kenykedett":11614,"Ġtransz":11615,"anth":11616,"itter":11617,"Î±":11618,"ĠFarkas":11619,"ĠCooper":11620,"ĠApja":11621,"zÃ¡r":11622,"Ġenergi":11623,"Ġenjoyed":11624,"Ġsymbol":11625,"szÃ¡z":11626,"ĠfelÃ¼gy":11627,"Ġemployed":11628,"Ġneighbor":11629,"Ã©e":11630,"umin":11631,"ĠfedÃ©lzet":11632,"ĠjobbÃ¡gy":11633,"Ġsikertelen":11634,"ĠJugoszlÃ¡via":11635,"Ġbuddhista":11636,"Ġtork":11637,"ĠUpon":11638,"elmÃ©let":11639,"Ġfash":11640,"Ġgetting":11641,"ĠigazÃ¡n":11642,"aug":11643,"sÃ¡gÃ¡nak":11644,"ĠStation":11645,"ĠtalÃ¡lta":11646,"gn":11647,"Ġbelief":11648,"Ġactress":11649,"Ġconcent":11650,"hens":11651,"darÃºgÃ³":11652,"forr":11653,"ĠcÃŃme":11654,"ĠÃ©rtelemben":11655,"Ġdeclined":11656,"inton":11657,"Ġshape":11658,"ĠChannel":11659,"ĠforgatÃ³kÃ¶nyv":11660,"kÃ¶zpont":11661,"Ġundert":11662,"ĠegyszerÅ±en":11663,"Ġkick":11664,"ĠfÅĳherceg":11665,"ĠErre":11666,"ĠmeglehetÅĳsen":11667,"Ġcore":11668,"ĠBÃ©k":11669,"ukra":11670,"ĠvilÃ¡gbajnoksÃ¡gon":11671,"ĠAddition":11672,"uble":11673,"ĠKÃ¶zben":11674,"Ġenyh":11675,"aro":11676,"ĠtÃ¡bl":11677,"Ġigazolt":11678,"Ġdaily":11679,"ĠkÃŃ":11680,"eteket":11681,"idi":11682,"Ġpainting":11683,"Ġkock":11684,"ĠszÃ¡zadtÃ³l":11685,"ĠMuslim":11686,"Ġkifejleszt":11687,"ropri":11688,"Ġshaped":11689,"Ġszt":11690,"Ġkerek":11691,"Ã¡kra":11692,"ĠkutatÃ³":11693,"ĠkikÃ¶tÅĳ":11694,"anyar":11695,"Ġadding":11696,"Ġpiano":11697,"viz":11698,"Ġjavaslat":11699,"Ġorient":11700,"ianus":11701,"Ġdry":11702,"edi":11703,"ĠKÃ¡rpÃ¡t":11704,"Ġnehezen":11705,"ĠLow":11706,"ĠApoll":11707,"Ġdrew":11708,"ajt":11709,"szerkezet":11710,"ĠÃ¡llamp":11711,"elhetÅĳ":11712,"ĠPas":11713,"ilding":11714,"adÃ¡sa":11715,"ĠBush":11716,"Ġreasons":11717,"ĠKirÃ¡lysÃ¡gban":11718,"ĠNapÃ³leon":11719,"ns":11720,"Ġsej":11721,"Ġmegjelenik":11722,"aron":11723,"ĠhajÃ³k":11724,"ĠpÃ¡pai":11725,"icz":11726,"ĠÃ©lelm":11727,"Ġrenamed":11728,"Ġawards":11729,"Ġwrest":11730,"ĠIndepend":11731,"emi":11732,"Ġ73":11733,"ĠLanc":11734,"elÅĳje":11735,"Ġanalysis":11736,"Ġtechnology":11737,"pear":11738,"kodÃ³":11739,"ĠHi":11740,"Ġinstall":11741,"ĠalelnÃ¶k":11742,"Ġsun":11743,"Ġmos":11744,"Ã¶bÃ¶l":11745,"Ġrelief":11746,"ĠWilhelm":11747,"jan":11748,"Ġ1887":11749,"ographer":11750,"ĠszlovÃ©n":11751,"ĠrÃ¡j":11752,"Ġ82":11753,"ĠhasznÃ¡ltak":11754,"ĠnyÃºjtott":11755,"bound":11756,"ĠWrit":11757,"Ġnagylemez":11758,"leton":11759,"fokÃº":11760,"Åĳre":11761,"Ġperhaps":11762,"ĠAnne":11763,"Ġmex":11764,"ĠAirport":11765,"Ġdigit":11766,"Ġheaded":11767,"achel":11768,"ĠbÃŃrÃ³sÃ¡g":11769,"ĠmegvÃ©d":11770,"ĠÃ¶sszecsap":11771,"Ġkeletkez":11772,"weg":11773,"akespear":11774,"Ġconverted":11775,"Ãºv":11776,"Ġ1872":11777,"rÃ³mai":11778,"Ġconnected":11779,"hogy":11780,"Ġallows":11781,"Ġresistance":11782,"ĠTenn":11783,"ĠStand":11784,"Ġapproached":11785,"ĠBened":11786,"ceived":11787,"ĠColor":11788,"ĠPatrick":11789,"Ġ115":11790,"Ġszinten":11791,"Ġ1883":11792,"Ġpopularity":11793,"Ġortodox":11794,"ĠBang":11795,"Ġbemutatott":11796,"Ġhoztak":11797,"ĠCam":11798,"ĠIb":11799,"helyen":11800,"Ġestate":11801,"Ġequal":11802,"Ġincreasingly":11803,"Ġkarm":11804,"ĠgÃ³t":11805,"Ġstadion":11806,"teenth":11807,"kutatÃ³":11808,"vÃ¡z":11809,"egyes":11810,"Ġagricult":11811,"ÃŃa":11812,"endes":11813,"anned":11814,"Ġ*":11815,"ĠfelkÃ©sz":11816,"ĠBrand":11817,"gor":11818,"Ġegyenes":11819,"ĠHend":11820,"hegysÃ©g":11821,"ĠAmerikÃ¡ban":11822,"ĠSupreme":11823,"ĠHop":11824,"Ã©zia":11825,"come":11826,"Ġsoul":11827,"Ġutat":11828,"inking":11829,"Ġreputation":11830,"Ġturning":11831,"Ġelfoglalta":11832,"ĠDog":11833,"ĠMans":11834,"Ã©rte":11835,"jainak":11836,"Ġcsaknem":11837,"resszus":11838,"Ġcsatorna":11839,"ĠVideo":11840,"EurÃ³p":11841,"ĠCru":11842,"ĠsvÃ¡jci":11843,"ĠLas":11844,"jav":11845,"Ġele":11846,"ĠgÃ¶r":11847,"Ġdepth":11848,"Ġkritikus":11849,"ĠfennhatÃ³":11850,"vÃ¡jc":11851,"Ġmindegyik":11852,"ĠtalÃ¡ltÃ¡k":11853,"ĠGh":11854,"Ġhenger":11855,"ĠPetÅĳ":11856,"ĠGrammy":11857,"illes":11858,"ĠpÃ©nzÃ¼gyi":11859,"Ġkaz":11860,"Ġrules":11861,"Ġagent":11862,"ĠszÃ¶vetsÃ©gi":11863,"Ġstadium":11864,"ĠOreg":11865,"ĠEzeket":11866,"Ġscientific":11867,"Ġjellegzetes":11868,"ĠszÃ¶k":11869,"Ġfogja":11870,"Ġbenn":11871,"ĠtekinthetÅĳ":11872,"Ġeasily":11873,"Ġdistingu":11874,"ĠfutÃ³":11875,"ĠfÃ©rfiak":11876,"Ġmissing":11877,"Ġszerzetes":11878,"ensis":11879,"ĠMaryland":11880,"Ġstock":11881,"ĠkÃ¶rnyezÅĳ":11882,"ĠNorway":11883,"ĠkÃ©pviselÅĳje":11884,"Ġunp":11885,"Ġresponded":11886,"Ġparallel":11887,"ĠUTC":11888,"ĠGergely":11889,"templom":11890,"Ã¼lete":11891,"ĠAllen":11892,"ĠtrÃ³nra":11893,"Ġporosz":11894,"hessen":11895,"Ġsell":11896,"ĠÃ¶reg":11897,"Ġuradalom":11898,"Ġregarding":11899,"odÃ³":11900,"Ġeste":11901,"posed":11902,"Ġopinion":11903,"Ġalternative":11904,"zÃ©sek":11905,"ĠCE":11906,"Ġ1871":11907,"ĠImperial":11908,"eing":11909,"Ġschem":11910,"Ãºti":11911,"Ġsustained":11912,"ĠhÃ¡ztart":11913,"Ġwealth":11914,"ĠÃ©n":11915,"Ġcited":11916,"Ġrekl":11917,"ĠGlen":11918,"Ġlearned":11919,"agg":11920,"Ã³dÃ¡s":11921,"Ġsucceeded":11922,"Ġcollected":11923,"Ġ1878":11924,"kot":11925,"Ġstages":11926,"Ġkivitel":11927,"Ġjourney":11928,"ĠSzÃ©kely":11929,"Ġexerc":11930,"ĠAI":11931,"almazta":11932,"Ġmuseum":11933,"uston":11934,"Ġtonn":11935,"ĠRey":11936,"Ġvalamilyen":11937,"ĠÃ©desapja":11938,"itors":11939,"ĠNich":11940,"Ġ1882":11941,"Ġszuper":11942,"ĠTol":11943,"Ġrek":11944,"ĠFÅĳiskol":11945,"Ġliterature":11946,"ĠJordan":11947,"iratok":11948,"ĠuralkodÃ¡sa":11949,"ingham":11950,"Ġbelga":11951,"ĠNelson":11952,"ĠHere":11953,"ĠMcL":11954,"ĠLengyelorszÃ¡g":11955,"Ġprojects":11956,"rabban":11957,"ios":11958,"ĠPhilip":11959,"Ġtransform":11960,"Ġweakened":11961,"dok":11962,"organ":11963,"alf":11964,"thm":11965,"ĠtermÃ©szetesen":11966,"ĠbocsÃ¡t":11967,"ĠrepÃ¼lÅĳtÃ©r":11968,"ĠAfr":11969,"Ġkilogramm":11970,"ignment":11971,"Ġplanning":11972,"oznak":11973,"Ġszobr":11974,"ulpt":11975,"Ġveter":11976,"ĠSopron":11977,"rogram":11978,"ĠÃ¡llapotban":11979,"Ġmun":11980,"ĠhÃ¡borÃºs":11981,"kÃ©":11982,"ĠMulder":11983,"ockey":11984,"ĠBan":11985,"ĠMaros":11986,"ĠvÃ¡gy":11987,"Ġonnan":11988,"ĠAmong":11989,"ĠBack":11990,"Ġ71":11991,"Ġknowledge":11992,"orozat":11993,"ossÃ¡ga":11994,"ĠNaval":11995,"ĠhatÃ¡st":11996,"enyom":11997,"Ġoccas":11998,"atlanul":11999,"eveland":12000,"Ġconstitution":12001,"Ã©seinek":12002,"DS":12003,"Ġmo":12004,"ĠpÃ³t":12005,"Ġpercben":12006,"Ġcells":12007,"ÃŃtsa":12008,"Ġrabszolg":12009,"Ġakiket":12010,"ellel":12011,"ewhere":12012,"ĠÃ¶zvegy":12013,"Ġveget":12014,"Ġretire":12015,"Ġcarrying":12016,"ĠHawai":12017,"Ã¡rium":12018,"ĠÃ¼d":12019,"ĠWy":12020,"Ġnyelvet":12021,"ĠPur":12022,"Ġ81":12023,"Ġseems":12024,"Ġiskolai":12025,"Ġlasted":12026,"Ġfreeway":12027,"Ġlelk":12028,"Ġreaction":12029,"Ġrhy":12030,"Ġconfront":12031,"ĠbÃ©keszerzÅĳdÃ©s":12032,"wise":12033,"aren":12034,"upt":12035,"Ġsafety":12036,"lyn":12037,"niuk":12038,"Ġ1800":12039,"ĠShakespear":12040,"ĠszentÃ©ly":12041,"ĠSimpsons":12042,"szÃ¶vet":12043,"Ġ1875":12044,"Ġhind":12045,"Ġnit":12046,"Ġlandfall":12047,"ĠautÃ³busz":12048,"olhatÃ³":12049,"Ġoperating":12050,"ĠVietnam":12051,"osem":12052,"issance":12053,"ĠMedia":12054,"ĠIllinois":12055,"ĠkÃ©miai":12056,"Cs":12057,"rett":12058,"Ġnagyb":12059,"Ġbirtokos":12060,"ĠML":12061,"Ġretained":12062,"pan":12063,"Ġelse":12064,"bell":12065,"Ġ147":12066,"ĠOrder":12067,"ĠNorman":12068,"Ġhits":12069,"Ġszerzet":12070,"ĠszlÃ¡v":12071,"Ġelhelyezked":12072,"ĠAge":12073,"Ġdefence":12074,"ĠUgyanakkor":12075,"hÅĳ":12076,"Ġbelt":12077,"edÃ©s":12078,"ĠszÅĳr":12079,"Ġimprove":12080,"ĠreklÃ¡m":12081,"Ġyouth":12082,"ĠvÃ¡rosÃ¡ban":12083,"ĠOnce":12084,"ĠOregon":12085,"igen":12086,"Ġrebu":12087,"ĠMess":12088,"ĠOlaszorszÃ¡g":12089,"ĠLang":12090,"Ġflat":12091,"Ġshowing":12092,"ĠhasznÃ¡lja":12093,"Ġacres":12094,"Ġviews":12095,"Ġintroduction":12096,"Ġauth":12097,"ĠResearch":12098,"Ġexistence":12099,"egyÃ¼tt":12100,"ohn":12101,"Ġburied":12102,"Ġlb":12103,"Ġpersonnel":12104,"Ġstream":12105,"ĠpolgÃ¡rhÃ¡borÃº":12106,"ĠMorgan":12107,"ĠÃ¡tlagos":12108,"Ġnavig":12109,"Ġarranged":12110,"szÃ¡ml":12111,"ĠDE":12112,"Ġobjekt":12113,"Saint":12114,"Ġ109":12115,"ĠCarter":12116,"ĠRow":12117,"ĠMagazine":12118,"ĠStadium":12119,"ĠRhodes":12120,"fesztivÃ¡l":12121,"ĠThor":12122,"Ġeleinte":12123,"ĠszÃ¡l":12124,"ĠDue":12125,"Ġplatin":12126,"Ġgyan":12127,"Ġ94":12128,"ĠForest":12129,"Ġpatak":12130,"ĠvizsgÃ¡lat":12131,"ĠtÃ¼ntet":12132,"Ġexchange":12133,"Ġtelefon":12134,"ĠmilliÃ¡rd":12135,"Ġreplace":12136,"Ġgenre":12137,"ĠLabor":12138,"ĠÃ©ghaj":12139,"Ġdesigns":12140,"ĠKrist":12141,"ÃŃvum":12142,"ĠOliv":12143,"Ġesik":12144,"Ġdinasztia":12145,"ĠVers":12146,"ĠnÃ¡d":12147,"Ġtudat":12148,"valÃ³":12149,"Ġapart":12150,"ecskemÃ©t":12151,"ĠszabadsÃ¡gharc":12152,"ĠCher":12153,"ĠtanÃ¡ri":12154,"Ġearliest":12155,"ĠIndiana":12156,"Ġcredited":12157,"Ġtized":12158,"Ġcoastal":12159,"ĠMÃ¼nchen":12160,"ĠukrÃ¡n":12161,"ellyel":12162,"ĠJuan":12163,"Ã¡llam":12164,"Ġ1869":12165,"niÃ¼k":12166,"Ġplayoff":12167,"Ġalkotott":12168,"okes":12169,"insula":12170,"ĠrÃ¶gtÃ¶n":12171,"ĠlÃ¨s":12172,"Ġdup":12173,"ĠHorn":12174,"ĠtÃ¼kr":12175,"mill":12176,"ĠszÃ¡mban":12177,"Ġgradually":12178,"Ġcustom":12179,"Ġmocs":12180,"ĠkÃ¶zÃ©pkorban":12181,"ĠAlfred":12182,"ĠKelly":12183,"Ġcsapatot":12184,"Ġproducing":12185,"Ġdomestic":12186,"ĠfÅĳszerepl":12187,"ĠHalÃ¡l":12188,"ĠfiÃ¡t":12189,"ĠfelszÃ¡m":12190,"idden":12191,"ispÃ¡n":12192,"Ġauton":12193,"ĠkÃ©rte":12194,"yt":12195,"ellÃ¡t":12196,"ĠtavaszÃ¡n":12197,"cia":12198,"ĠLam":12199,"Ġfigyel":12200,"Ġjutottak":12201,"ĠÃįr":12202,"Ġstopped":12203,"ĠszÃ³rak":12204,"ĠColonel":12205,"Ġproceed":12206,"Ġtemploma":12207,"ĠIron":12208,"Ġmodels":12209,"Ġpropag":12210,"Ġbattery":12211,"ĠTurk":12212,"ĠtÃ¡plÃ¡lÃ©k":12213,"ushing":12214,"ĠellensÃ©ges":12215,"Ġentrance":12216,"Ġ1865":12217,"ĠSZ":12218,"ĠScience":12219,"ĠkihasznÃ¡l":12220,"uro":12221,"ĠAth":12222,"Ġcamera":12223,"Ã©jÃ©t":12224,"Ġtick":12225,"ĠSvÃ¡jc":12226,"ĠorszÃ¡got":12227,"Ġpoem":12228,"Ġkritik":12229,"Ġlegsz":12230,"ĠCleveland":12231,"ĠmegalapÃŃtotta":12232,"onikus":12233,"ĠTs":12234,"vidÃ©ki":12235,"ĠHarm":12236,"Ġdolgozik":12237,"Ġjazz":12238,"iking":12239,"kirÃ¡ly":12240,"ĠBed":12241,"ampton":12242,"ĠszolgÃ¡lÃ³":12243,"Ġsettlement":12244,"ĠPÃ©cs":12245,"Ã¡lyi":12246,"ĠrÃ©szvÃ©tel":12247,"ivalent":12248,"Ġmaintain":12249,"ĠRap":12250,"ĠSzÃ¶vet":12251,"Ġrekord":12252,"ĠHong":12253,"ĠmagÃ¡val":12254,"reets":12255,"ĠProf":12256,"illing":12257,"Ġfejezet":12258,"Ġcampus":12259,"ĠProject":12260,"Ġreserve":12261,"Ġrecept":12262,"ĠHÃ¡z":12263,"Ã¶vide":12264,"istan":12265,"Ġmegtud":12266,"Ġlakosai":12267,"Ġfilled":12268,"ĠKatalin":12269,"ĠCur":12270,"Ã¶ttek":12271,"Ġmez":12272,"idel":12273,"Ġ146":12274,"ĠKÃ¡lmÃ¡n":12275,"Ġfajok":12276,"ĠOlympics":12277,"Ġbassz":12278,"Ġmeglep":12279,"Ġhav":12280,"Ġexclus":12281,"ĠszÃ¶v":12282,"ĠKÅĳ":12283,"ĠNow":12284,"ĠPhill":12285,"ĠkÃ¶zÃ¼lÃ¼k":12286,"erland":12287,"Ġnote":12288,"ĠStewart":12289,"Ġapplied":12290,"Ġkomb":12291,"Ġ1864":12292,"ĠAbout":12293,"Ġitems":12294,"ĠCall":12295,"ĠUSS":12296,"Ġrendszert":12297,"ĠÃŃrÃ¡sos":12298,"ĠzsÃ¡k":12299,"ĠOttoman":12300,"Ã¡nsz":12301,"Ã©mon":12302,"hn":12303,"vÃ¡llal":12304,"ĠPitt":12305,"Ġ1868":12306,"kai":12307,"rei":12308,"aira":12309,"ĠRÃ³ma":12310,"chestra":12311,"Ġsupplies":12312,"ĠjelÃ¶ltÃ©k":12313,"hÃ¡zy":12314,"ighters":12315,"Ġszerinti":12316,"ĠMeanwhile":12317,"ĠPuerto":12318,"emies":12319,"cser":12320,"ĠUlt":12321,"Ã¶ztek":12322,"Ġdelivered":12323,"Ġhirtelen":12324,"Ġelf":12325,"Ġmilit":12326,"ĠbÃ©ke":12327,"Ġviolence":12328,"ĠIGN":12329,"ĠMaj":12330,"ĠCour":12331,"Ġresour":12332,"Ãīv":12333,"ĠPoland":12334,"Ġvent":12335,"ĠIvan":12336,"Ã¡ga":12337,"ĠbeszÃ¡m":12338,"Ġglass":12339,"ĠÃŃrja":12340,"Ġdala":12341,"Ġcandidate":12342,"ĠMes":12343,"Ġconsequ":12344,"Ġprograms":12345,"izmust":12346,"Ġax":12347,"Ġmort":12348,"ombard":12349,"ĠÃļgy":12350,"ĠWomen":12351,"Ġshall":12352,"ĠAlban":12353,"Ġmegalakult":12354,"Ġmak":12355,"ĠhajlandÃ³":12356,"Ã¶ngy":12357,"ĠifjÃºsÃ¡gi":12358,"Ã¡ram":12359,"Ġtact":12360,"ĠezÃ¡ltal":12361,"Ġindicated":12362,"Ġextremely":12363,"Ġvess":12364,"Ġfolk":12365,"ĠValÃ³":12366,"Ġgon":12367,"Ġregiment":12368,"ĠszÃ¶vetsÃ©g":12369,"ĠstÃŃlusÃº":12370,"ĠhasonlÃŃt":12371,"ĠGri":12372,"Ġkiny":12373,"Ġprisoners":12374,"ĠmÅ±hold":12375,"ĠConfed":12376,"Ġ1879":12377,"Ġspot":12378,"Ġregister":12379,"othes":12380,"utak":12381,"aria":12382,"Ġtable":12383,"kozik":12384,"ĠRussell":12385,"Ġtell":12386,"ĠNAS":12387,"ĠEarly":12388,"Ġ1863":12389,"ĠParker":12390,"Ġrobban":12391,"thy":12392,"ĠvÃ¡rat":12393,"ĠvarÃ¡zs":12394,"egyen":12395,"ĠMcCart":12396,"Ġindiai":12397,"ĠÃ©lvonal":12398,"oci":12399,"ĠrÃ©szesÃ¼lt":12400,"ashed":12401,"idej":12402,"ĠjÃºliusÃ¡ban":12403,"Ġvak":12404,"Ġevening":12405,"Ġtowns":12406,"Ã¡gÃ³":12407,"ĠbÃ¡zis":12408,"Ġalapul":12409,"ĠCorporation":12410,"ĠnorvÃ©g":12411,"unch":12412,"Ġorbit":12413,"Ġfinding":12414,"ĠcsapadÃ©k":12415,"Ġhumans":12416,"Ġsections":12417,"atÅĳr":12418,"mÃ©nyt":12419,"Î¿":12420,"Ġbought":12421,"Ġ1828":12422,"esfehÃ©r":12423,"Ġkip":12424,"Ġengines":12425,"ĠrendÅĳrsÃ©g":12426,"Ã¶videbb":12427,"olnok":12428,"Ġharminc":12429,"lÃ¡ny":12430,"Ġ1830":12431,"ĠMicros":12432,"eksz":12433,"ĠkikÃ©p":12434,"Ġ1862":12435,"gency":12436,"ĠvÃ¡ltozott":12437,"ĠesemÃ©nyek":12438,"ĠlÃ©tezett":12439,"Ġformal":12440,"Ġrepair":12441,"Ġsculpt":12442,"Ġstatement":12443,"ĠcserÃ©l":12444,"idÅĳ":12445,"Ġfrag":12446,"ĠVesz":12447,"ĠErdÃ©lyi":12448,"Ġritka":12449,"Ġindependence":12450,"nai":12451,"Ġdecade":12452,"ĠelÅĳadÃ³":12453,"ĠÃŃrtÃ¡k":12454,"hajtÃ³":12455,"ĠCommand":12456,"Ġthreatened":12457,"ĠMatthew":12458,"According":12459,"rÃŃ":12460,"Ġkonk":12461,"Ġkonzerv":12462,"Ġprincipal":12463,"Ġbefog":12464,"Ġparties":12465,"ÃŃtÃ©sÃ©vel":12466,"Ġkv":12467,"ĠLot":12468,"Ġcombination":12469,"ifications":12470,"ĠLabdarÃºgÃ³":12471,"Ġknots":12472,"Ġways":12473,"roit":12474,"Ġvenni":12475,"orni":12476,"ĠMaster":12477,"ĠfolyÃ³irat":12478,"ĠÃ©rettsÃ©gizett":12479,"standing":12480,"ucks":12481,"ĠbeÃ©p":12482,"Ġmessage":12483,"ĠAnthony":12484,"apes":12485,"ĠRu":12486,"ophy":12487,"Ġmales":12488,"lers":12489,"gond":12490,"ĠRÃ©g":12491,"Ġdeaths":12492,"Ġ1877":12493,"ĠLim":12494,"szert":12495,"time":12496,"ĠTat":12497,"ĠMÃ¡rton":12498,"ĠelÃ©rt":12499,"ĠFound":12500,"Ġ1840":12501,"ĠbemutatÃ³":12502,"Ġhalmaz":12503,"olat":12504,"Ġfoglalkozik":12505,"ĠpÃ¡lyafutÃ¡sÃ¡t":12506,"ĠTu":12507,"ĠmexikÃ³i":12508,"urban":12509,"aming":12510,"Ġ84":12511,"abinet":12512,"ĠJournal":12513,"okrÃ³l":12514,"ĠkirÃ¡lysÃ¡g":12515,"ĠerdÅĳk":12516,"Ġstudied":12517,"napi":12518,"ÃģV":12519,"ĠvilÃ¡gszerte":12520,"Ġruled":12521,"Ġkiemelt":12522,"ĠszilÃ¡rd":12523,"Ġcsel":12524,"ĠStra":12525,"Ġ91":12526,"Ġmir":12527,"ĠFame":12528,"oldali":12529,"ĠKorea":12530,"ĠMach":12531,"Ġterminus":12532,"ulus":12533,"Ġ129":12534,"Ġritk":12535,"ĠPok":12536,"Ġsurvived":12537,"ĠMarshall":12538,"Å¾":12539,"Ġfele":12540,"ĠjÃ¡rat":12541,"Ġtorny":12542,"ĠSarah":12543,"ĠhadjÃ¡rat":12544,"ieu":12545,"ĠNBA":12546,"ĠHud":12547,"ĠkÃ¶vetkeztet":12548,"ĠRobinson":12549,"ĠCer":12550,"Ġacts":12551,"Ġfoglalja":12552,"ĠmegÃ©p":12553,"Ġcrown":12554,"Ġpreced":12555,"ĠtÃ©g":12556,"ĠJason":12557,"ogen":12558,"ĠWeekly":12559,"ĠSzÃŃnhÃ¡zban":12560,"ozva":12561,"Ġlehetnek":12562,"Ġconvin":12563,"ĠLisa":12564,"Ġreduce":12565,"cho":12566,"ĠhÃŃvtÃ¡k":12567,"Ġproposal":12568,"ĠnagyrÃ©szt":12569,"ĠellensÃ©g":12570,"anya":12571,"Ġfoglalkoztak":12572,"Ġentitled":12573,"Ġbon":12574,"ĠesÃ©ly":12575,"ĠÃ¡p":12576,"Ġrendelet":12577,"ĠtÃ¶bben":12578,"Ã¡sd":12579,"ĠMadrid":12580,"ĠAusztri":12581,"ĠfranciÃ¡k":12582,"ĠszÃŃnes":12583,"ĠemlÃŃtÃ©se":12584,"ĠSamuel":12585,"ĠMort":12586,"Ġvoted":12587,"Ġbottom":12588,"BN":12589,"olyai":12590,"Ġsecure":12591,"Ġpromotion":12592,"Ã©pÃ¼let":12593,"ĠÃ©lett":12594,"ĠÃīv":12595,"ompson":12596,"ĠBristol":12597,"emen":12598,"ÃŃtÃ©let":12599,"Ġgyenge":12600,"Ġeverything":12601,"Ġpup":12602,"ĠAli":12603,"ĠrÃ©szekÃ©nt":12604,"89":12605,"ĠCu":12606,"Ġinternet":12607,"Ã¶zik":12608,"Ġalbuma":12609,"Ġmondja":12610,"olitan":12611,"ĠWWE":12612,"Ã¡li":12613,"Ġsnow":12614,"agen":12615,"ĠjÃ¡rÃ¡sÃ¡hoz":12616,"Ġtechnikai":12617,"ĠLenn":12618,"Ġspecifically":12619,"Ġmegnyert":12620,"Ġbreeding":12621,"ĠtÃ©tel":12622,"oking":12623,"Ġconsum":12624,"IS":12625,"ĠSE":12626,"ĠJÃ¡tÃ©k":12627,"Ġcapable":12628,"iat":12629,"Ġwides":12630,"Ġec":12631,"ĠÃ¶sszegy":12632,"ĠMemorial":12633,"ĠfÃ¼ggvÃ©ny":12634,"occ":12635,"Ġwrites":12636,"ĠzenÃ©sz":12637,"Ġarrested":12638,"ĠPolit":12639,"ĠidÅĳs":12640,"ĠpapÃŃr":12641,"Ġteszik":12642,"ĠszultÃ¡n":12643,"cent":12644,"Ġrecalled":12645,"Ġnapi":12646,"Ġduty":12647,"Ġbejut":12648,"urring":12649,"Ġkingdom":12650,"Ġparancsnoka":12651,"yard":12652,"ĠkristÃ¡ly":12653,"Ġcrossed":12654,"ĠvilÃ¡ghÃ¡borÃºban":12655,"ĠTi":12656,"ĠSunday":12657,"ÃŃtÃ¡sÃ¡nak":12658,"Ġinvited":12659,"Ġudvari":12660,"gazdasÃ¡gi":12661,"Ġ#":12662,"ĠDave":12663,"ĠOp":12664,"ĠalkotÃ³":12665,"ĠAR":12666,"Ġtanks":12667,"iversary":12668,"Ġrevolution":12669,"ĠskÃ³t":12670,"Ġszinkron":12671,"ttÅĳl":12672,"Ġmeters":12673,"Ġ1874":12674,"ĠmegvÃ¡sÃ¡r":12675,"hull":12676,"iling":12677,"Ã¡ltalÃ¡n":12678,"Ġassistant":12679,"Ġpow":12680,"ĠBaj":12681,"Ġbeav":12682,"ĠInstead":12683,"Ġrot":12684,"ĠMediter":12685,"ennyiben":12686,"Ġwars":12687,"izations":12688,"Ġjogot":12689,"Ġrow":12690,"Ġago":12691,"Ġadmitted":12692,"gyÅ±lÃ©s":12693,"Ġdolgozni":12694,"Ġsever":12695,"jak":12696,"Ġ93":12697,"ĠScully":12698,"ĠleszÃ¡rmaz":12699,"ĠstÃŃlusban":12700,"Ġri":12701,"ĠmegÃºj":12702,"Ġmelyen":12703,"ĠlÃ©trehozott":12704,"ĠnÅĳstÃ©ny":12705,"Ġcomposition":12706,"Ġinterested":12707,"rim":12708,"tÅĳ":12709,"ĠEngine":12710,"Ġinstalled":12711,"Ġconvoy":12712,"ĠbÃŃbor":12713,"Ġoffers":12714,"ervative":12715,"ĠrÃ³maiak":12716,"Ġharcok":12717,"Ġmire":12718,"ĠPA":12719,"Ġshel":12720,"borne":12721,"Ġportrayed":12722,"fordult":12723,"Ġszoros":12724,"entially":12725,"ĠMorris":12726,"Ġfly":12727,"uta":12728,"ĠLet":12729,"Ã¡sokban":12730,"Ġacid":12731,"ĠhasznÃ¡lata":12732,"icide":12733,"ĠHarris":12734,"ooth":12735,"Ġfict":12736,"Ġtartani":12737,"ĠBarcel":12738,"Ġstarts":12739,"iÃ³t":12740,"Ġspons":12741,"ĠhasznÃ¡lnak":12742,"rium":12743,"etnek":12744,"ĠalbÃ¡n":12745,"Ġheted":12746,"Ġdoor":12747,"ĠnÃ©gyzet":12748,"ĠgitÃ¡r":12749,"col":12750,"Ġimportance":12751,"Ġinvestigation":12752,"eskeny":12753,"Ġpunk":12754,"ĠtÃ¶rekv":12755,"ozzÃ¡k":12756,"Ġimpr":12757,"ĠJustice":12758,"Ġfit":12759,"load":12760,"ĠelfoglaltÃ¡k":12761,"Ġegyedi":12762,"aya":12763,"Brit":12764,"sÃŃk":12765,"ĠszÃ¶g":12766,"Ġcauses":12767,"Ġmegszak":12768,"Ġtervei":12769,"ĠkrÃ³n":12770,"Ġmonument":12771,"Ã¡sÃ¡rÃ³l":12772,"Ġszellemi":12773,"ĠlezÃ¡r":12774,"Ġrecommended":12775,"Ġpolitics":12776,"Ġfemales":12777,"ÃŃliai":12778,"ĠSÃ¡r":12779,"Ġentry":12780,"Ġvelencei":12781,"ĠBros":12782,"Ġfelder":12783,"Ġzajlott":12784,"ĠÃºjbÃ³l":12785,"ĠvÃ¡ltozÃ³":12786,"ieval":12787,"olid":12788,"Ġairport":12789,"Ġradi":12790,"Ġreligion":12791,"western":12792,"ĠMario":12793,"Ġupgrad":12794,"Ġremainder":12795,"Ġsolid":12796,"Ġmindenn":12797,"ĠszÃ¡sz":12798,"char":12799,"Ġ139":12800,"ĠmÃ©ret":12801,"ĠOpera":12802,"87":12803,"ĠkiÃ©p":12804,"Ġdetails":12805,"ĠJenn":12806,"Ġelvesztette":12807,"ĠkivÃ©telÃ©vel":12808,"ĠmegÃŃr":12809,"ranean":12810,"jÃ©tÅĳl":12811,"Ġrez":12812,"olÃ³giÃ¡t":12813,"Ġowner":12814,"Sp":12815,"emÅ±":12816,"Ġorr":12817,"Ġ1866":12818,"Ġequipped":12819,"sÃ©":12820,"ĠszÃ¡mon":12821,"Ġinternal":12822,"ĠkiderÃ¼lt":12823,"ME":12824,"Ġterve":12825,"ĠtÃ¶bbÃ©":12826,"ĠbÃ¡rmely":12827,"ĠkorszerÅ±":12828,"Ġ92":12829,"ÃŁ":12830,"empl":12831,"ĠerrÅĳl":12832,"Ġretreat":12833,"Ġprovin":12834,"ĠMTA":12835,"ĠMiam":12836,"ĠKovÃ¡cs":12837,"ĠlegÃ©ny":12838,"ĠkÃ¶veti":12839,"Ġcharged":12840,"ĠÃ©letet":12841,"ĠtulajdonkÃ©ppen":12842,"pread":12843,"Ġmutatta":12844,"ĠhÃ³nappal":12845,"ĠShakespeare":12846,"ĠSor":12847,"ongol":12848,"jected":12849,"ĠKezd":12850,"Ġamellyel":12851,"Ġdie":12852,"Ġones":12853,"ezzÃ¼k":12854,"ĠHaj":12855,"rence":12856,"Ġcens":12857,"ĠrÃ¡juk":12858,"ucing":12859,"acsk":12860,"erk":12861,"ĠDol":12862,"raph":12863,"ĠmÃ¡ig":12864,"ĠSony":12865,"Ġconsiderable":12866,"ĠezelÅĳtt":12867,"ĠbiztonsÃ¡gi":12868,"ĠgitÃ¡ros":12869,"ĠnÃ©metÃ¼l":12870,"Ġromb":12871,"mont":12872,"ĠYank":12873,"tlen":12874,"ĠDC":12875,"Ġactual":12876,"Ġdolog":12877,"Ġrural":12878,"ĠindiÃ¡n":12879,"ĠNorm":12880,"Ġneves":12881,"Ġfinom":12882,"eming":12883,"ĠMol":12884,"Ġmedal":12885,"Ġcrime":12886,"Ġconcerns":12887,"iforni":12888,"ĠminÃ©l":12889,"ĠtÃ¡jÃ©k":12890,"Ġtakar":12891,"Ġrich":12892,"Ġconqu":12893,"Ġkud":12894,"ĠSon":12895,"Ġfunds":12896,"bev":12897,"Ã³th":12898,"ĠegyÃ¡ltalÃ¡n":12899,"Ġproper":12900,"ĠEP":12901,"Ġnyak":12902,"ĠAnglia":12903,"ciÃ³s":12904,"Ġvalami":12905,"Ġdic":12906,"owa":12907,"ĠfelmÃ©r":12908,"ĠszÃ¡rmazott":12909,"api":12910,"Ġsomeone":12911,"ĠrÃ©z":12912,"elsen":12913,"ĠFÅĳiskola":12914,"ĠToronto":12915,"Ġnom":12916,"Ġismerte":12917,"Ġlane":12918,"Ġeighth":12919,"Ġprice":12920,"Ġbehav":12921,"ĠEL":12922,"Ġemleg":12923,"Ġpromote":12924,"boy":12925,"Ġsan":12926,"Ġwinner":12927,"ĠKop":12928,"anton":12929,"ĠkÃ©pregÃ©ny":12930,"Ġkeletre":12931,"icate":12932,"ĠnagydÃŃj":12933,"enzÃŃv":12934,"Ġigyekezett":12935,"Ġkuty":12936,"ĠHely":12937,"ektor":12938,"Ġoptim":12939,"ĠjÃ¡rÃ¡s":12940,"Ġhivat":12941,"Ġokozta":12942,"ĠPot":12943,"Ġnomination":12944,"ĠhÃ¡tra":12945,"ĠAur":12946,"Ġszapor":12947,"csont":12948,"Ġ350":12949,"ĠkÃ©pzÅĳ":12950,"Ġzone":12951,"ĠMonarch":12952,"Ġtypical":12953,"ĠManu":12954,"ĠmegnÃ¶v":12955,"ĠXbox":12956,"He":12957,"ĠHell":12958,"ĠszÃ¼lei":12959,"ĠÃ¶l":12960,"ilation":12961,"rane":12962,"Ġdecades":12963,"vezÃ©r":12964,"iti":12965,"ician":12966,"osite":12967,"ĠMÃģV":12968,"Ġharck":12969,"Ġfant":12970,"itage":12971,"Ġszertart":12972,"Ġcsomag":12973,"ekbe":12974,"Ġroutes":12975,"ĠSingles":12976,"ĠirÃ¡nti":12977,"jo":12978,"intÃ©n":12979,"Ġconsisting":12980,"gÅĳ":12981,"ivan":12982,"ĠegyÃ©n":12983,"hedral":12984,"ĠalakÃŃtotta":12985,"Ġeszm":12986,"Ġphase":12987,"ĠAntonio":12988,"Ġreggel":12989,"ĠszÃ©kely":12990,"ĠPortug":12991,"gl":12992,"Ġbasszus":12993,"otter":12994,"Ġgrounds":12995,"Ġdriving":12996,"Ġproducts":12997,"gers":12998,"elÃ©g":12999,"ribe":13000,"Ġinstit":13001,"ĠBenj":13002,"ĠÃ¡tvette":13003,"ĠFriedrich":13004,"ĠKate":13005,"lee":13006,"hetic":13007,"Ġemelet":13008,"vÃ¶z":13009,"ĠgyÅ±rÅ±":13010,"Ġchallenge":13011,"Ġtiltak":13012,"Ġduties":13013,"ĠKun":13014,"Ġroham":13015,"ĠmÃ¡ra":13016,"phoon":13017,"ÅĦ":13018,"ĠszÃ¶rny":13019,"Ġcompr":13020,"tÃ¡b":13021,"Ġmegjegy":13022,"ĠDance":13023,"ukban":13024,"ctions":13025,"Ġuj":13026,"after":13027,"ensÃºly":13028,"ĠMand":13029,"ĠGor":13030,"ĠMargar":13031,"ĠÃ©vektÅĳl":13032,"Ġnyugatra":13033,"Ġalc":13034,"ĠLÃ©g":13035,"atherine":13036,"iszerint":13037,"Ġpati":13038,"Ã¡liai":13039,"ĠAngliÃ¡ban":13040,"odtak":13041,"Ġpage":13042,"Ġtettek":13043,"Ġslowly":13044,"ĠtÃ³t":13045,"Ġcorrect":13046,"ikum":13047,"Ġtiszta":13048,"Ġreading":13049,"Ġmiszerint":13050,"ĠHotel":13051,"Ġbaj":13052,"ĠThompson":13053,"Ġfegyveres":13054,"ĠPav":13055,"Ġlelki":13056,"ĠWhe":13057,"ĠszÃ¡mot":13058,"ĠGabri":13059,"Ġbrigade":13060,"ĠegyhÃ¡zmegy":13061,"ĠKrisztus":13062,"Ġnoting":13063,"ĠPlat":13064,"Ã¡mi":13065,"ĠtÃ¶bbet":13066,"Ġextension":13067,"ĠNether":13068,"Ġ360":13069,"inder":13070,"Ã³ker":13071,"ĠÃģl":13072,"Ġpermanent":13073,"agle":13074,"ĠsegÃŃtett":13075,"ĠÃ¡llÃŃtÃ³lag":13076,"ĠCook":13077,"alo":13078,"ĠNÃ©gy":13079,"ĠNorweg":13080,"ĠPetÅĳfi":13081,"etÃ©se":13082,"ĠSzlovÃ¡k":13083,"Ġimages":13084,"Ġoccurs":13085,"ĠfoglalkozÃ³":13086,"Ġposted":13087,"iminal":13088,"ĠPad":13089,"ĠnevÃ©hez":13090,"Ġalleg":13091,"ĠmegvÃ¡ltoztat":13092,"ĠpilÃ³t":13093,"cement":13094,"aken":13095,"ĠTun":13096,"Ġtetsz":13097,"Ġmanner":13098,"almÃº":13099,"Ġsupporters":13100,"Ġvessels":13101,"Ġpon":13102,"Ãºri":13103,"ĠtÃ©l":13104,"ĠDob":13105,"ĠWright":13106,"Ġenemies":13107,"ĠmÅ±vei":13108,"ĠhasznÃ¡lni":13109,"Ġradar":13110,"ĠBuk":13111,"TV":13112,"ĠBald":13113,"hetjÃ¼k":13114,"Ġdated":13115,"Ġentering":13116,"Ġobjects":13117,"ĠIndones":13118,"ĠÅł":13119,"hetik":13120,"Ġtervezte":13121,"ĠApple":13122,"szÃ¡ll":13123,"Ġmegfog":13124,"sÃ©gÃ¼k":13125,"ĠerÅĳtel":13126,"ĠmeghÃ³d":13127,"ĠArk":13128,"ixon":13129,"Ġtrian":13130,"Ġalacsonyabb":13131,"cest":13132,"Ġfoss":13133,"abd":13134,"ezÃ©sre":13135,"Ġcertified":13136,"ĠMicrosoft":13137,"Ġnest":13138,"Be":13139,"anz":13140,"Ġdates":13141,"Ãºli":13142,"ĠPic":13143,"chi":13144,"legesen":13145,"friend":13146,"jukat":13147,"ĠhonvÃ©d":13148,"Ġsettled":13149,"ĠBull":13150,"ĠtanÃºs":13151,"ĠhÃ¡borÃºt":13152,"Ġcolour":13153,"ĠExpress":13154,"ĠTed":13155,"Ġclean":13156,"lock":13157,"Ġib":13158,"Ã¡ljÃ¡k":13159,"Ġsubt":13160,"ĠfÃ¡jd":13161,"ĠfÃ©sz":13162,"Ġtenni":13163,"Ġfenyeg":13164,"ĠlegnÃ©p":13165,"ĠfÃ¼ggÅĳen":13166,"ĠlehetÅĳsÃ©ge":13167,"Ġsynt":13168,"ĠkW":13169,"Ġpurchase":13170,"edÅĳ":13171,"ĠPS":13172,"ĠelsÅĳd":13173,"lini":13174,"ĠfelÃ©pÃŃtÃ©s":13175,"Ġamiben":13176,"ierÅĳ":13177,"otted":13178,"ugu":13179,"aware":13180,"Ġfashion":13181,"Ġhetedik":13182,"uster":13183,"cknow":13184,"ĠAgain":13185,"aft":13186,"ĠvÃ©kony":13187,"acon":13188,"ĠÃ¶ngyilk":13189,"igs":13190,"ippi":13191,"dÃ¶ntÅĳben":13192,"Ġconcerned":13193,"Ġtrianoni":13194,"Ġcsapatt":13195,"Ġmegszerv":13196,"ĠJakab":13197,"Ã³ceÃ¡n":13198,"Ġdepartment":13199,"ĠmegjelenÅĳ":13200,"Ġvegyes":13201,"Ġaspects":13202,"ĠlegyÅĳzte":13203,"65":13204,"othing":13205,"ĠGyak":13206,"Ġdisappoint":13207,"ĠmÃ¡sodosztÃ¡ly":13208,"ĠReview":13209,"ĠiszlÃ¡m":13210,"atur":13211,"ĠAssembly":13212,"heastern":13213,"agonist":13214,"Ġwidespread":13215,"sÃ©geket":13216,"ĠnyilvÃ¡nossÃ¡g":13217,"Ġwearing":13218,"ĠnÃ©pi":13219,"ĠÃºtjÃ¡n":13220,"mph":13221,"vard":13222,"ĠelbeszÃ©l":13223,"unak":13224,"ommod":13225,"Ġcomposer":13226,"MiutÃ¡n":13227,"ÃŃl":13228,"Ġinvolving":13229,"ĠMons":13230,"Ġincome":13231,"ĠTovÃ¡bb":13232,"yo":13233,"ugos":13234,"evelopment":13235,"ĠHistory":13236,"Ã¡inak":13237,"ĠNBC":13238,"ĠtartalÃ©k":13239,"Ġ1500":13240,"Ġoldest":13241,"igur":13242,"Ġattached":13243,"Ġmode":13244,"Ġdescribing":13245,"Ġelpusztult":13246,"Ġalul":13247,"phy":13248,"Ã¶rtÃ©neti":13249,"ĠdÃ¶ntÃ©s":13250,"ĠMinn":13251,"ĠCass":13252,"Ġaccused":13253,"essÃ©gÃ©t":13254,"sok":13255,"Ġassumed":13256,"Ġvetett":13257,"zÃ©sÃ©re":13258,"Ġskin":13259,"Åĳkkel":13260,"Ġequivalent":13261,"Ġdistribution":13262,"Ġharcolt":13263,"ĠkÃ¡ros":13264,"ĠcÃ¡r":13265,"ĠBod":13266,"Ġparliament":13267,"eler":13268,"eline":13269,"emelked":13270,"ĠÃ¡svÃ¡ny":13271,"ĠirÃ¡nyÃŃtotta":13272,"Ġrendszerint":13273,"ĠmagassÃ¡g":13274,"ĠtÃ¼zÃ©r":13275,"Ġgeomet":13276,"ĠvÃ©gzÅĳd":13277,"ĠvilÃ¡gos":13278,"Ġclasses":13279,"ĠChron":13280,"vesz":13281,"ĠDin":13282,"Ġwickets":13283,"ĠtudjÃ¡k":13284,"ĠToday":13285,"ĠprotestÃ¡ns":13286,"ĠlÃ¡ttÃ¡k":13287,"ĠÃīp":13288,"Ġaktiv":13289,"Ġarmor":13290,"Ġconnection":13291,"zÃ©sÃ©t":13292,"ĠAcc":13293,"ĠterÃ©n":13294,"ĠidÅĳkben":13295,"ĠTibor":13296,"Afr":13297,"ĠOak":13298,"ĠszabvÃ¡ny":13299,"agues":13300,"dor":13301,"ĠfelajÃ¡n":13302,"ĠszÃ¡mÃ¡t":13303,"Ã¡zta":13304,"ĠvÃ¡ltotta":13305,"risis":13306,"ĠSzal":13307,"Ġrecon":13308,"ĠmennyisÃ©gÅ±":13309,"ozÃŃciÃ³":13310,"ĠStev":13311,"Ġsurvey":13312,"ĠegyenlÅĳ":13313,"oi":13314,"ĠWalt":13315,"ĠvilÃ¡gon":13316,"Ġreturns":13317,"lation":13318,"Ġcip":13319,"Ġans":13320,"hatjÃ¡k":13321,"ĠtermÃ©szeti":13322,"ĠSpears":13323,"Ġhorror":13324,"Ã¡lÃ¡sa":13325,"Ġprofit":13326,"Ġcorner":13327,"mun":13328,"Ã©rtve":13329,"ĠszÃ¡mok":13330,"Ġbasic":13331,"Ġfigyelmet":13332,"ĠkÃ©rt":13333,"ĠelkÃ¼lÃ¶n":13334,"Ã¶nk":13335,"ĠkÃ¼lÃ¶nÃ¶s":13336,"Ġszavak":13337,"Ġminimum":13338,"ĠSax":13339,"ensions":13340,"Ġacclaim":13341,"ĠSchum":13342,"Ġobtained":13343,"emed":13344,"Ã¡nus":13345,"Ġtask":13346,"ĠterÃ¼leteket":13347,"Ġdenied":13348,"ĠtÃ¶rtÃ©netÃ©t":13349,"Ġidentity":13350,"rine":13351,"ĠTermÃ©szet":13352,"rost":13353,"Ġ83":13354,"ĠorszÃ¡gok":13355,"ĠeredmÃ©nyekÃ©nt":13356,"ĠrÃ©sztvev":13357,"Ġinher":13358,"ĠLog":13359,"oklip":13360,"allas":13361,"Ġvalley":13362,"dr":13363,"ĠDetroit":13364,"Ġacknow":13365,"Ġsessions":13366,"Ġmart":13367,"ĠWol":13368,"ettebb":13369,"Ġaccur":13370,"ozÃ¡st":13371,"ĠkezdÅĳdik":13372,"ĠmÅ±kÃ¶dÃ©sÃ©t":13373,"ĠDiego":13374,"ÃŃci":13375,"ĠLiszt":13376,"ĠVit":13377,"Ġdebate":13378,"ĠszempontjÃ¡bÃ³l":13379,"Ġakk":13380,"Ġsequel":13381,"ĠÃ¶k":13382,"Ġmegoszt":13383,"forrÃ¡s":13384,"ĠStu":13385,"ption":13386,"bÃ©r":13387,"Ġsailed":13388,"Ġsegment":13389,"Ġfaith":13390,"Ġcontroversy":13391,"Ġthousands":13392,"Ġfine":13393,"udden":13394,"Ã¶rÅĳ":13395,"Ġcirculation":13396,"gÃ¡":13397,"rophy":13398,"mezÅĳ":13399,"ĠSimpson":13400,"Sh":13401,"ĠjÃ¶vÅĳ":13402,"ĠDirector":13403,"cikk":13404,"oen":13405,"ĠIra":13406,"Ġ137":13407,"Ġlenni":13408,"rÃ³f":13409,"ottsÃ¡ga":13410,"Ġfrank":13411,"ĠEug":13412,"Ġshots":13413,"Ġbelse":13414,"ĠProt":13415,"adÃ¡st":13416,"Ġadap":13417,"eszÃ¡nsz":13418,"Ġcommitted":13419,"Ġdeparture":13420,"Ġpopulations":13421,"state":13422,"ĠSzat":13423,"ÅĳsÃ¶k":13424,"jev":13425,"Ã©shez":13426,"Ġtow":13427,"ĠLast":13428,"ĠWels":13429,"Ġsupposed":13430,"ipe":13431,"Ġhelye":13432,"ekÃ©ly":13433,"ozÃ³k":13434,"Ġalakultak":13435,"uhÃ¡z":13436,"ĠRoll":13437,"eges":13438,"ĠTud":13439,"oked":13440,"ĠszakÃ©rt":13441,"ĠemlÃŃti":13442,"ĠmeghatÃ¡rozott":13443,"Ġtemple":13444,"Ã³pont":13445,"Ġdemand":13446,"ezsÅĳ":13447,"ĠhelyezÃ©st":13448,"2008":13449,"ĠDeath":13450,"FÃ©nyes":13451,"ĠWag":13452,"ĠismerttÃ©":13453,"Ġstrongly":13454,"Ġdecline":13455,"Ġcircum":13456,"ĠBÃ¡n":13457,"Ġasz":13458,"ĠBach":13459,"emp":13460,"ĠMediterranean":13461,"bes":13462,"Ġkonfer":13463,"Ġhosted":13464,"ĠWinter":13465,"atÃ©k":13466,"usted":13467,"Ġcharges":13468,"Ġtengerpart":13469,"55":13470,"zÃ©si":13471,"Ġdowntown":13472,"2009":13473,"Ġmissed":13474,"hasznÃ¡l":13475,"darab":13476,"rogen":13477,"Ġterjedt":13478,"die":13479,"ÏĤ":13480,"ĠSab":13481,"ĠÃīr":13482,"Ġhill":13483,"etti":13484,"Ġregional":13485,"Ġragad":13486,"Ġderived":13487,"Nagy":13488,"ĠNFL":13489,"eps":13490,"ĠbÃ¡rÃ³":13491,"ĠHouston":13492,"ĠMÃ¡t":13493,"Ġdalok":13494,"ĠmegÃ©rt":13495,"ÃŃziÃ³":13496,"burgh":13497,"csi":13498,"ĠiskolÃ¡t":13499,"Ã©zi":13500,"ĠjÃ¡tÃ©kok":13501,"Ġthirty":13502,"ĠsegÃŃtsÃ©get":13503,"ĠtÃ¶rtÃ©netÃ©ben":13504,"ĠvezÃ©ny":13505,"ÃŃgjÃ¡tÃ©k":13506,"Ġszikl":13507,"ĠKur":13508,"avart":13509,"Ġviselte":13510,"lon":13511,"ĠLad":13512,"ĠNorwegian":13513,"edelm":13514,"roid":13515,"ĠNord":13516,"Ġtransition":13517,"ĠtrÃ³nÃ¶rÃ¶k":13518,"Ġoxid":13519,"82":13520,"ĠBuck":13521,"terg":13522,"ĠConstitution":13523,"patak":13524,"Ã©kek":13525,"Ġalbumot":13526,"ĠbajnoksÃ¡got":13527,"ĠÃ¶nkormÃ¡nyz":13528,"oux":13529,"ĠMurray":13530,"ĠÃ¼gynÃ¶k":13531,"Ġfeeling":13532,"Ġrum":13533,"ozÃ¡si":13534,"sÃ©gbe":13535,"Ġflo":13536,"ĠHorvÃ¡torszÃ¡g":13537,"isf":13538,"ÃŃtÃ©si":13539,"ĠAdvent":13540,"ĠChristopher":13541,"Ġpossibility":13542,"isebb":13543,"Ġevolution":13544,"Ġakiknek":13545,"ezÅĳdÃ¶tt":13546,"ĠcÃŃmen":13547,"ekor":13548,"ams":13549,"ozÃ¡sÃ¡t":13550,"kÃ¶zÃ©p":13551,"Ġoklevelet":13552,"esar":13553,"Ġshop":13554,"Ġcsapatai":13555,"Ġintelligence":13556,"Ġned":13557,"ikon":13558,"ĠÅ±rhajÃ³s":13559,"imir":13560,"ĠJimmy":13561,"Ġbehavior":13562,"TS":13563,"ĠVall":13564,"Ġkatolikusok":13565,"ĠLipÃ³t":13566,"atkozott":13567,"ĠISBN":13568,"Ġglobal":13569,"ĠCamer":13570,"Ġbegun":13571,"ĠgyilkossÃ¡g":13572,"Ġfruit":13573,"Ġrar":13574,"ĠBenn":13575,"idges":13576,"ĠWrest":13577,"Ġmenedzs":13578,"Ġliterary":13579,"ĠABC":13580,"ĠolimpiÃ¡n":13581,"ĠnÃ©pszÃ¡ml":13582,"Ġprocesszor":13583,"Ġhighlight":13584,"csa":13585,"ĠszokÃ¡s":13586,"Ġphotograph":13587,"Ġbringing":13588,"elÃ©si":13589,"edt":13590,"ĠLex":13591,"Ġexception":13592,"ĠÃĸr":13593,"ĠMexican":13594,"ĠEvans":13595,"Ġstayed":13596,"Ġ1851":13597,"vilÃ¡got":13598,"Ġfigyelembe":13599,"bÃ©li":13600,"eu":13601,"Ġcloud":13602,"enses":13603,"ĠpedagÃ³g":13604,"ĠvÃ¡rosok":13605,"Ġready":13606,"ĠÃ¶rÃ¶m":13607,"fegyver":13608,"Ġkiesett":13609,"mers":13610,"ĠfÃ¶ldi":13611,"Ġanimated":13612,"ĠPalace":13613,"ĠBilly":13614,"ĠTemple":13615,"ĠTransport":13616,"Ġpale":13617,"Ġminister":13618,"ĠterÃ¼letÃ©t":13619,"Ġfiatalabb":13620,"Ġpajzs":13621,"ĠFive":13622,"ĠCentre":13623,"Ġemerged":13624,"ĠeljÃ¡rÃ¡s":13625,")-":13626,"ĠGÃ¶rÃ¶g":13627,"Ġtartanak":13628,"Ã¡szl":13629,"essÃ©get":13630,"ĠFederal":13631,"ĠAS":13632,"tah":13633,"Ġreplacement":13634,"kant":13635,"2007":13636,"Ã¡lia":13637,"Ã©reg":13638,"szakasz":13639,"Ġpassengers":13640,"Ġgenet":13641,"adalm":13642,"ĠMelbourne":13643,"ĠGilbert":13644,"zsÃ¡k":13645,"agre":13646,"korong":13647,"ĠMinisztÃ©rium":13648,"Ġcommanded":13649,"okratikus":13650,"Ġcosts":13651,"ĠnÃ¡la":13652,"amps":13653,"ĠtermÃ©keny":13654,"ĠDub":13655,"Ġprofi":13656,"Ġdecor":13657,"ĠmagÃ¡ra":13658,"Ġ1859":13659,"Ġmegmutat":13660,"Ġtied":13661,"orney":13662,"ĠIan":13663,"Ġadmir":13664,"hatÃ¡r":13665,"Ġrecovered":13666,"ĠMagyarorszÃ¡gra":13667,"rose":13668,"ĠellenzÃ©k":13669,"Ġvonz":13670,"ĠkÅĳzet":13671,"81":13672,"inter":13673,"Ġkeskeny":13674,"ĠPir":13675,"Ġgeneration":13676,"ĠIgn":13677,"onds":13678,"ugÃ¡r":13679,"kozÃ³":13680,"Ã¡rius":13681,"Ġdestruction":13682,"ĠÃĸn":13683,"Ã¶der":13684,"ĠegyÃºttal":13685,"cially":13686,"2010":13687,"Ġfictional":13688,"ĠEgyik":13689,"ĠhasznÃ¡lhatÃ³":13690,"Ġopposite":13691,"Ġincorporated":13692,"Ã¡ria":13693,"Ġspin":13694,"kelÅĳ":13695,"neses":13696,"riers":13697,"Ġintention":13698,"ĠHein":13699,"tetÅĳ":13700,"Ġion":13701,"Ġsosem":13702,"Ġmemorial":13703,"Ġunusual":13704,"ĠkapcsolÃ³dÃ³":13705,"Ġfreedom":13706,"ĠHivatal":13707,"Ġsed":13708,"ĠChel":13709,"ĠKurt":13710,"Ġhelyes":13711,"ĠHungarian":13712,"ĠBetween":13713,"ĠÃģm":13714,"ĠnyÃŃl":13715,"Ġkamar":13716,"agne":13717,"Ġsubs":13718,"Ġvolunte":13719,"mÃ©retÅ±":13720,"Ã¶ttÃ©k":13721,"Ġbraz":13722,"ingly":13723,"ĠTreat":13724,"ĠMP":13725,"Ġassistance":13726,"Ġsenki":13727,"lÃ¡b":13728,"Ġmissions":13729,"Ġdemol":13730,"ĠkÃ¶zÃ©piskol":13731,"ĠhalÃ¡los":13732,"Ġbreaking":13733,"ĠalÃ¡ÃŃr":13734,"uman":13735,"Ġfinishing":13736,"ĠMcD":13737,"Ġdriven":13738,"Ġclassic":13739,"ĠFrederick":13740,"ĠÃ¡rt":13741,"imore":13742,"abled":13743,"Ġtermin":13744,"ija":13745,"oral":13746,"ĠBog":13747,"Ġfestett":13748,"Ġregularly":13749,"Ġdissip":13750,"gÃ¡s":13751,"Ġrovar":13752,"ĠÃ©letmÃ³d":13753,"Ġattributed":13754,"ĠCra":13755,"ĠLane":13756,"erties":13757,"Ġkapcsolatok":13758,"Ġeffectively":13759,"Ġlegfeljebb":13760,"ĠTrek":13761,"ĠPil":13762,"Ġvideoklip":13763,"mosphere":13764,"szÃ¡rny":13765,"Ġfelgy":13766,"Ġsorozatot":13767,"Ġserves":13768,"ĠEndre":13769,"night":13770,"Ġprey":13771,"Ġspeaking":13772,"Ġoccasionally":13773,"ĠrÃ¡t":13774,"ĠhadosztÃ¡ly":13775,"Ġuralma":13776,"Ġszobor":13777,"obi":13778,"eta":13779,"ĠFern":13780,"ÅĳlÃ¼k":13781,"ĠÃ¶sszev":13782,"ĠAmb":13783,"Ġalleged":13784,"Ġstrateg":13785,"owski":13786,"arin":13787,"Ġcrash":13788,"lets":13789,"Ġsounds":13790,"ulations":13791,"unes":13792,"ĠÃ¡llÃ¡st":13793,"ĠfÃ©rj":13794,"Ġrobot":13795,"Ġmessze":13796,"Ġsons":13797,"mentes":13798,"Ġpersu":13799,"ĠDÃ¡ni":13800,"ĠtagjakÃ©nt":13801,"Ġmadarak":13802,"Des":13803,"hin":13804,"ĠRÃ³mai":13805,"Ġattracted":13806,"Ġpremiere":13807,"Ġflank":13808,"Ġportra":13809,"ĠmegÅĳr":13810,"Ġszigeten":13811,"iben":13812,"ĠLuk":13813,"ĠvÃ©dek":13814,"ĠBerg":13815,"Ġchorus":13816,"ĠStef":13817,"Ġdream":13818,"eston":13819,"ĠMississ":13820,"Ġouter":13821,"ÃŃtÃ©ssel":13822,"ĠEmiatt":13823,"vÃ¡rosÃ¡ban":13824,"ĠbeszÃ©lt":13825,"alja":13826,"asonl":13827,"Ġprovince":13828,"ĠkutatÃ¡sok":13829,"Ġkoncentr":13830,"Ġcavalry":13831,"ecz":13832,"acter":13833,"vÃ©dÅĳ":13834,"Ġkonfliktus":13835,"rand":13836,"ĠszÃ¡j":13837,"ĠCO":13838,"ĠkÃ¡r":13839,"ĠvÃ¡rosrÃ©sz":13840,"Ġverse":13841,"emble":13842,"borough":13843,"Ġbaz":13844,"ĠTir":13845,"onda":13846,"Ġperces":13847,"ĠkÃ¡n":13848,"ĠelÅĳtte":13849,"Ġkifejezett":13850,"Ġpesti":13851,"ĠfÃ¼":13852,"ĠMarine":13853,"ĠhallhatÃ³":13854,"rÃ¡ciÃ³":13855,"Ġfat":13856,"ĠScient":13857,"ĠbeszÃ©lget":13858,"Ġdivers":13859,"szoros":13860,"szintes":13861,"body":13862,"Ġrov":13863,"ĠSteven":13864,"ĠkÃ¶ltemÃ©ny":13865,"Ġcompletion":13866,"ĠNag":13867,"ĠTelevision":13868,"hell":13869,"Ġsam":13870,"ĠSig":13871,"Ġatmosphere":13872,"ĠhÃ¡borÃºk":13873,"ĠMiami":13874,"ĠkivÃ©ve":13875,"Ġdiscover":13876,"ĠNations":13877,"Ġresponsibility":13878,"ocal":13879,"Ġeur":13880,"Ġaboard":13881,"Ġaccommod":13882,"Ġcalc":13883,"Ġestablishment":13884,"bbed":13885,"ĠnapjÃ¡n":13886,"ĠdÃ¶ntÅĳben":13887,"Ġreality":13888,"Ġwarning":13889,"ĠQueens":13890,"itengerÃ©szet":13891,"Ġvary":13892,"Ġtulajdonos":13893,"Ġswim":13894,"ĠoktatÃ¡s":13895,"Ġtheatre":13896,"ĠmegszÅ±n":13897,"ĠAbd":13898,"ĠâĤ":13899,"ĠLucas":13900,"ĠWelsh":13901,"ng":13902,"ĠmagÃ¡ba":13903,"Ġrose":13904,"Ġstood":13905,"kiadÃ³":13906,"Ġfelvon":13907,"Ġegyfajta":13908,"ĠBobby":13909,"Ġrooms":13910,"Ġreception":13911,"ĠkÃ©szÃŃtettek":13912,"ĠtÃ¶rtÃ©neti":13913,"ĠbekÃ¶vetkezett":13914,"MI":13915,"pective":13916,"elÃ©sÃ©t":13917,"Ġbrain":13918,"ĠbÃ¡tyja":13919,"szÃ¡l":13920,"aver":13921,"Ġlakosok":13922,"Ġharci":13923,"elin":13924,"Ġfiv":13925,"obban":13926,"Ġsurviving":13927,"repÃ¼lÅĳ":13928,"MP":13929,"ÃŃtÃ¡sra":13930,"ËĪ":13931,"szabad":13932,"ĠvidÃ©ki":13933,"ĠLawrence":13934,"ĠkÃ¡":13935,"Ġhoped":13936,"ĠfÅĳnÃ¶k":13937,"ĠhÃ¡zÃ¡ban":13938,"ĠSzÃ©che":13939,"ĠColorado":13940,"ĠbolygÃ³":13941,"ĠFranklin":13942,"ĠUgyanebben":13943,"ĠvÃ©gez":13944,"ĠelmÃºlt":13945,"Ġrecognition":13946,"ĠtetÅĳ":13947,"ĠRAF":13948,"itÃ¡k":13949,"Ġvisszak":13950,"mÅ±ves":13951,"Ġszakember":13952,"Ġbattleships":13953,"ropolitan":13954,"ĠlÃ¡tja":13955,"ennis":13956,"Ġrequested":13957,"ogi":13958,"Ġseemed":13959,"ogÃ³":13960,"Ġdifferences":13961,"csat":13962,"ĠÃ¡llÃŃtott":13963,"Ġneither":13964,"ĠacÃ©l":13965,"kÃ©k":13966,"Ãª":13967,"ĠRand":13968,"ructure":13969,"Ġseparated":13970,"ĠBishop":13971,"Ġbeoszt":13972,"Ġ107":13973,"ĠModern":13974,"Ġtilt":13975,"ouri":13976,"Ġmaterials":13977,"Ã¡mp":13978,"ĠJohnny":13979,"Ġinnov":13980,"Ð¾Ð²":13981,"ĠÃ©lÃ©re":13982,"viv":13983,"raf":13984,"Ġtudni":13985,"kodik":13986,"sÃ¡":13987,"Ġtechnical":13988,"ĠKle":13989,"Ã¼kben":13990,"Ġmegjelentek":13991,"ĠTisza":13992,"ĠMajd":13993,"ĠDie":13994,"Ġszeretett":13995,"ho":13996,"Ġdesire":13997,"ĠmÃ©rsÃ©k":13998,"ĠsegÃŃtette":13999,"ĠhÃ¡zi":14000,"Ġpassage":14001,"Ġpontja":14002,"ĠrÃ¡adÃ¡sul":14003,"Ġfields":14004,"Ã³zott":14005,"84":14006,"mith":14007,"ĠszÃ¼letÃ©s":14008,"Ġsurpr":14009,"olvas":14010,"ĠEt":14011,"Ġvalaki":14012,"ĠtÃ©ren":14013,"Ġdivisions":14014,"vÃ¡ltÃ¡s":14015,"Ġpredecess":14016,"ĠutÃ¡npÃ³t":14017,"cht":14018,"ĠVa":14019,"Ġclassified":14020,"ĠMinnes":14021,"ĠTower":14022,"estek":14023,"Ġszembe":14024,"ĠIsrael":14025,"ĠnyilvÃ¡nos":14026,"Ġelmar":14027,"IV":14028,"hone":14029,"wald":14030,"Ã¥":14031,"ulÃ¡st":14032,"Åĳknek":14033,"Ġmargin":14034,"Ġnone":14035,"Ġheat":14036,"Ġconsult":14037,"ĠtÃ¡rsulat":14038,"ĠMindkÃ©t":14039,"ubs":14040,"Ġdoktori":14041,"folyÃ³":14042,"Ġassociation":14043,"Ð¸Ñ":14044,"Ġratings":14045,"Ã©ses":14046,"ĠalakÃŃtottÃ¡k":14047,"Ġreprod":14048,"ĠStory":14049,"ĠNobel":14050,"Ġoutbreak":14051,"ĠBenjamin":14052,"spec":14053,"ĠfertÅĳz":14054,"ĠprodukciÃ³":14055,"ĠHoly":14056,"Ġszezont":14057,"falu":14058,"Ġvotes":14059,"ĠBalÃ¡zs":14060,"Ġamint":14061,"idÅĳsebb":14062,"Ġclubs":14063,"Ġkomplex":14064,"Ġelmondja":14065,"ĠJelent":14066,"Ġmap":14067,"Ġrip":14068,"ĠExt":14069,"erts":14070,"ĠmÅ±emlÃ©k":14071,"Ġquant":14072,"Ġdifficulty":14073,"Ġdelayed":14074,"Ġraise":14075,"illed":14076,"Ġabsz":14077,"ĠÃ©pÃ¼l":14078,"isms":14079,"Ġdarabot":14080,"ĠKnight":14081,"ĠmÃ¡sodperc":14082,"Ġrestored":14083,"ĠkÃ¼ldte":14084,"ĠVilla":14085,"hek":14086,"alj":14087,"Ã¡ma":14088,"Ġnyugalom":14089,"Ġpicture":14090,"iek":14091,"Ġafr":14092,"Ġcollect":14093,"ĠfelhÃŃv":14094,"vÃ¡rad":14095,"Ġmemory":14096,"Ġsuperior":14097,"ĠEU":14098,"Ġalapja":14099,"ĠRoos":14100,"ĠDead":14101,"Ġmethods":14102,"ĠSev":14103,"ĠSay":14104,"Ġinfrast":14105,"ĠÃ©vfordulÃ³":14106,"acent":14107,"ĠVeg":14108,"Ġhistorians":14109,"ĠKÃŃna":14110,"ilvÃ¡n":14111,"ĠfejlÅĳdÃ¶tt":14112,"uzsÃ¡l":14113,"nyÃ©k":14114,"Ġmintha":14115,"Ġteen":14116,"Ġtelepedett":14117,"pest":14118,"Ġhajd":14119,"ĠgyÃ¼l":14120,"ĠFree":14121,"ĠGran":14122,"sei":14123,"Ġbatting":14124,"ĠvegyÃ¼let":14125,"ĠBeck":14126,"Ġolv":14127,"Ġsakk":14128,"Ġancest":14129,"esztett":14130,"ĠelÅĳz":14131,"Ġexpect":14132,"ĠMack":14133,"ĠtanÃº":14134,"ĠBalaton":14135,"ĠreakciÃ³":14136,"ĠÃ¶tven":14137,"Ġinjuries":14138,"ĠAdditionally":14139,"ĠvÃ¡rt":14140,"Ġstri":14141,"ĠbelÃ©p":14142,"Ġemelkedett":14143,"Ġvehicle":14144,"ĠSweden":14145,"Ġic":14146,"ĠJar":14147,"ĠSzintÃ©n":14148,"ĠkÃŃsÃ©rleti":14149,"ĠkategÃ³riÃ¡ban":14150,"wig":14151,"Ġremember":14152,"189":14153,"ĠtalÃ¡lkozÃ³":14154,"ĠvÃ¡z":14155,"eger":14156,"ĠkezdÅĳ":14157,"ĠHospital":14158,"ĠVic":14159,"aku":14160,"Ġrelative":14161,"acht":14162,"hÃŃresebb":14163,"szen":14164,"ĠRudolf":14165,"ĠSzÃ©chenyi":14166,"Ġcrop":14167,"ĠvevÅĳ":14168,"ĠfelÃ¡ll":14169,"ĠszÃ©lsÅĳ":14170,"Ġgreatly":14171,"Ġsurrounded":14172,"ĠFut":14173,"ĠÃŃtÃ©ltÃ©k":14174,"ĠTovÃ¡bbi":14175,"83":14176,"pap":14177,"ĠCS":14178,"ĠReb":14179,"elles":14180,"ĠProgram":14181,"ĠRÃ¡diÃ³":14182,"hÃ¡zat":14183,"ĠNyit":14184,"Ġdens":14185,"ĠHand":14186,"ĠSpe":14187,"ĠcigÃ¡ny":14188,"ĠSeas":14189,"ĠBird":14190,"ĠinformÃ¡ciÃ³":14191,"ĠindulÃ³":14192,"Ġweapon":14193,"Ġszk":14194,"Ġtrap":14195,"ĠEvery":14196,"ĠIX":14197,"Ġvitte":14198,"ĠolvashatÃ³":14199,"ĠByzantine":14200,"ĠLennon":14201,"asm":14202,"ĠBag":14203,"Ġfejlett":14204,"KÃ¶z":14205,"Ġcommunities":14206,"aco":14207,"ĠpilÃ³ta":14208,"ĠbeleÃ©rtve":14209,"Ġcruiser":14210,"Ġkiind":14211,"Ġcrosses":14212,"ĠfÅĳszereplÅĳ":14213,"ĠimÃ¡d":14214,"ĠNielsen":14215,"ĠTrib":14216,"inea":14217,"Ġaddigi":14218,"ĠvilÃ¡gi":14219,"Ġclaiming":14220,"Ġmassive":14221,"tÃ¶rtÃ©neti":14222,"Ġkatal":14223,"Ã¼kre":14224,"Ġrecru":14225,"vised":14226,"bajnoksÃ¡gon":14227,"Ġfunding":14228,"kult":14229,"onne":14230,"Ġfled":14231,"ĠszintÅ±":14232,"ĠEmil":14233,"chell":14234,"essee":14235,"Ġtries":14236,"aikat":14237,"edding":14238,"ĠfÃ©k":14239,"ĠTig":14240,"Ġnyers":14241,"Ġfolyik":14242,"Ġmotiv":14243,"adtak":14244,"ĠUSD":14245,"ĠhalÃ¡lÃ¡t":14246,"ĠterveztÃ©k":14247,"ĠLondonban":14248,"ĠViktor":14249,"Ã©bb":14250,"ĠfÅĳszerkeszt":14251,"Ġneeds":14252,"ĠeskÃ¼":14253,
[...]
